<unk>	0
<s>	0
</s>	0
▁)	-0
▁(	-1
▁.	-2
▁S	-3
st	-4
▁;	-5
CE	-6
PA	-7
PACE	-8
▁SPACE	-9
er	-10
▁,	-11
et	-12
on	-13
in	-14
at	-15
str	-16
or	-17
▁"	-18
▁=	-19
▁c	-20
▁p	-21
al	-22
▁g	-23
en	-24
▁n	-25
▁get	-26
de	-27
it	-28
le	-29
ion	-30
te	-31
re	-32
ic	-33
▁{	-34
▁i	-35
tr	-36
an	-37
▁s	-38
ss	-39
ing	-40
ode	-41
ce	-42
ll	-43
ro	-44
▁a	-45
▁f	-46
▁t	-47
ct	-48
ate	-49
ar	-50
▁e	-51
am	-52
xt	-53
▁+	-54
ur	-55
ew	-56
tring	-57
Con	-58
ent	-59
ub	-60
▁new	-61
ue	-62
▁m	-63
▁l	-64
dit	-65
text	-66
▁r	-67
pt	-68
▁in	-69
▁>	-70
▁String	-71
lic	-72
pe	-73
▁<	-74
se	-75
In	-76
ut	-77
ditor	-78
il	-79
ame	-80
ublic	-81
ag	-82
▁v	-83
▁public	-84
▁}	-85
ri	-86
▁if	-87
Re	-88
la	-89
ell	-90
▁E	-91
mp	-92
▁con	-93
Cell	-94
ab	-95
▁th	-96
ert	-97
▁ret	-98
ist	-99
urn	-100
ch	-101
id	-102
ol	-103
▁re	-104
▁return	-105
Node	-106
ck	-107
▁st	-108
▁set	-109
▁b	-110
ype	-111
ditorCell	-112
is	-113
ull	-114
el	-115
ation	-116
lass	-117
ort	-118
up	-119
▁node	-120
▁L	-121
ption	-122
Name	-123
ap	-124
qu	-125
riv	-126
▁fin	-127
▁0	-128
ect	-129
un	-130
age	-131
rivate	-132
▁d	-133
▁private	-134
▁null	-135
alue	-136
▁C	-137
▁T	-138
▁stat	-139
Ex	-140
▁A	-141
▁final	-142
12	-143
▁static	-144
Pro	-145
as	-146
ul	-147
ad	-148
ig	-149
▁int	-150
▁M	-151
ile	-152
um	-153
▁context	-154
og	-155
▁&	-156
ject	-157
▁1	-158
Context	-159
ception	-160
stan	-161
De	-162
▁o	-163
able	-164
oid	-165
▁[	-166
▁]	-167
ssert	-168
ter	-169
ed	-170
▁!	-171
▁this	-172
To	-173
▁void	-174
ult	-175
Type	-176
ay	-177
St	-178
oo	-179
qual	-180
▁de	-181
▁tr	-182
Ch	-183
om	-184
dd	-185
row	-186
im	-187
▁w	-188
ild	-189
▁imp	-190
ction	-191
ess	-192
▁assert	-193
rr	-194
quals	-195
▁D	-196
▁SNode	-197
oc	-198
Id	-199
▁is	-200
atch	-201
reate	-202
▁editorCell	-203
erv	-204
List	-205
bject	-206
od	-207
Exception	-208
iz	-209
▁create	-210
▁add	-211
▁O	-212
end	-213
▁import	-214
ment	-215
▁P	-216
es	-217
▁class	-218
▁I	-219
fer	-220
lo	-221
▁B	-222
▁pro	-223
Value	-224
▁throw	-225
and	-226
122	-227
▁h	-228
eck	-229
▁F	-230
String	-231
ers	-232
▁to	-233
Te	-234
▁j	-235
ger	-236
lean	-237
60	-238
▁ch	-239
▁@	-240
ot	-241
oolean	-242
essage	-243
▁|	-244
act	-245
▁EditorCell	-246
ER	-247
Par	-248
em	-249
ey	-250
▁ex	-251
▁log	-252
pert	-253
ted	-254
iel	-255
ime	-256
rray	-257
Res	-258
En	-259
fig	-260
54	-261
ase	-262
ang	-263
ath	-264
our	-265
▁res	-266
▁In	-267
Class	-268
ource	-269
▁value	-270
dex	-271
omp	-272
ice	-273
th	-274
▁for	-275
ain	-276
bu	-277
per	-278
▁true	-279
ON	-280
▁setup	-281
ata	-282
stance	-283
alse	-284
av	-285
11	-286
unt	-287
ST	-288
stant	-289
▁-	-290
ize	-291
▁:	-292
Map	-293
▁H	-294
iv	-295
ack	-296
▁_	-297
ditorContext	-298
ser	-299
▁par	-300
ervice	-301
odel	-302
fa	-303
ory	-304
▁false	-305
Col	-306
Equals	-307
Constant	-308
ec	-309
Check	-310
▁EditorContext	-311
fo	-312
ir	-313
perty	-314
ine	-315
ator	-316
▁Object	-317
▁com	-318
▁R	-319
pp	-320
ity	-321
abel	-322
rit	-323
til	-324
▁List	-325
ield	-326
▁assertEquals	-327
▁name	-328
eth	-329
yte	-330
▁boolean	-331
if	-332
ethod	-333
Util	-334
Message	-335
int	-336
00	-337
Set	-338
que	-339
Of	-340
Config	-341
▁?	-342
12254	-343
1225460	-344
ow	-345
ong	-346
IN	-347
ule	-348
▁or	-349
Label	-350
ener	-351
uild	-352
os	-353
put	-354
cess	-355
fault	-356
lection	-357
cted	-358
ence	-359
File	-360
sc	-361
Match	-362
▁type	-363
82	-364
quest	-365
▁equals	-366
ash	-367
rg	-368
▁J	-369
ach	-370
Qu	-371
ken	-372
orm	-373
30	-374
eng	-375
lement	-376
80	-377
Tr	-378
Test	-379
ader	-380
▁k	-381
ore	-382
▁2	-383
ith	-384
Key	-385
95	-386
asic	-387
ength	-388
ount	-389
▁put	-390
▁en	-391
ies	-392
uf	-393
us	-394
Basic	-395
cept	-396
RE	-397
Instance	-398
▁app	-399
ition	-400
Property	-401
ress	-402
▁Ex	-403
ure	-404
Path	-405
ans	-406
▁N	-407
▁te	-408
teger	-409
▁setupBasic	-410
tern	-411
art	-412
▁throws	-413
▁org	-414
Param	-415
get	-416
ast	-417
ler	-418
▁U	-419
ail	-420
vent	-421
▁Array	-422
ocal	-423
Th	-424
▁nodeTo	-425
AT	-426
roup	-427
bug	-428
let	-429
▁nodeToMatch	-430
ava	-431
OR	-432
ac	-433
An	-434
ial	-435
57	-436
▁G	-437
ache	-438
ace	-439
Object	-440
▁el	-441
ery	-442
LE	-443
With	-444
▁getS	-445
▁length	-446
▁cont	-447
▁child	-448
peration	-449
Model	-450
▁result	-451
ider	-452
▁Integer	-453
err	-454
ire	-455
▁getName	-456
▁else	-457
ock	-458
try	-459
scri	-460
▁V	-461
uilder	-462
angu	-463
ME	-464
▁index	-465
▁append	-466
andler	-467
ord	-468
14	-469
Ro	-470
ute	-471
ext	-472
▁W	-473
arget	-474
▁err	-475
AL	-476
▁out	-477
rror	-478
urr	-479
ool	-480
ument	-481
Time	-482
vider	-483
▁test	-484
OG	-485
▁File	-486
igh	-487
Text	-488
ink	-489
li	-490
Data	-491
Request	-492
ID	-493
▁writ	-494
pon	-495
Info	-496
Service	-497
▁toString	-498
▁*	-499
10	-500
ponse	-501
Operation	-502
ager	-503
▁ArrayList	-504
rom	-505
yst	-506
▁key	-507
ystem	-508
▁Class	-509
Collection	-510
▁size	-511
umn	-512
▁Map	-513
Role	-514
Field	-515
826	-516
ream	-517
Man	-518
State	-519
At	-520
▁getL	-521
AST	-522
ive	-523
uffer	-524
Default	-525
Comp	-526
▁LOG	-527
64	-528
Method	-529
▁it	-530
urrent	-531
65	-532
▁java	-533
con	-534
rap	-535
▁Hash	-536
DE	-537
tem	-538
port	-539
actory	-540
lu	-541
Se	-542
ax	-543
67	-544
ver	-545
out	-546
▁error	-547
all	-548
mo	-549
Count	-550
Cont	-551
32	-552
Var	-553
82695	-554
12282695	-555
otation	-556
Result	-557
▁long	-558
ION	-559
Handler	-560
ber	-561
dition	-562
tri	-563
ecut	-564
Stream	-565
▁Exception	-566
▁pr	-567
Index	-568
122546030	-569
attern	-570
▁byte	-571
122546080	-572
▁u	-573
Manager	-574
92	-575
▁debug	-576
84	-577
ference	-578
op	-579
tected	-580
und	-581
▁port	-582
NT	-583
Array	-584
iew	-585
oub	-586
ouble	-587
ackage	-588
oint	-589
▁str	-590
Concept	-591
▁protected	-592
▁x	-593
bute	-594
▁setupLabel	-595
LL	-596
Provider	-597
tribute	-598
Utils	-599
ann	-600
▁file	-601
ains	-602
der	-603
Child	-604
▁id	-605
Factory	-606
▁col	-607
▁my	-608
ight	-609
SE	-610
ge	-611
▁getA	-612
ref	-613
acro	-614
▁logger	-615
34	-616
Item	-617
Null	-618
▁sh	-619
Element	-620
ilter	-621
_11	-622
Macro	-623
▁map	-624
Error	-625
ersion	-626
▁print	-627
Builder	-628
▁instance	-629
▁System	-630
▁se	-631
▁getB	-632
▁getInstance	-633
ession	-634
ated	-635
▁Type	-636
ost	-637
▁start	-638
Size	-639
▁arg	-640
IT	-641
Imp	-642
uration	-643
▁li	-644
Token	-645
▁comp	-646
▁info	-647
arn	-648
stract	-649
Operations	-650
tt	-651
bstract	-652
ve	-653
ix	-654
UR	-655
form	-656
lient	-657
ly	-658
Query	-659
press	-660
▁service	-661
AR	-662
ak	-663
He	-664
PE	-665
▁langu	-666
Sup	-667
ctiv	-668
▁data	-669
ends	-670
83	-671
eta	-672
ings	-673
set	-674
_12	-675
umber	-676
▁sub	-677
47	-678
ttp	-679
omm	-680
ifi	-681
ange	-682
erver	-683
nect	-684
Descri	-685
Condition	-686
untime	-687
Arg	-688
Line	-689
ree	-690
onent	-691
▁write	-692
▁Re	-693
▁catch	-694
Types	-695
AN	-696
▁3	-697
lock	-698
Sc	-699
Not	-700
1228269557	-701
▁default	-702
of	-703
▁getC	-704
▁match	-705
▁Ch	-706
▁contains	-707
abled	-708
▁check	-709
irst	-710
▁ext	-711
ask	-712
val	-713
ip	-714
Sub	-715
Resource	-716
All	-717
son	-718
eter	-719
▁text	-720
Process	-721
▁form	-722
Int	-723
Writ	-724
▁getP	-725
feray	-726
CT	-727
▁package	-728
▁param	-729
LT	-730
ptor	-731
▁model	-732
Stat	-733
Un	-734
▁field	-735
▁list	-736
On	-737
yn	-738
pla	-739
▁config	-740
By	-741
ob	-742
raph	-743
▁liferay	-744
Target	-745
▁addE	-746
leg	-747
15	-748
Dec	-749
▁IO	-750
ind	-751
Response	-752
ING	-753
Form	-754
Event	-755
read	-756
▁sc	-757
Group	-758
▁sup	-759
User	-760
aget	-761
▁portal	-762
▁dan	-763
agetool	-764
▁languagetool	-765
nab	-766
naber	-767
▁daniel	-768
▁danielnaber	-769
Be	-770
FA	-771
Def	-772
▁addEditorCell	-773
sh	-774
▁next	-775
▁has	-776
Gener	-777
uct	-778
▁format	-779
▁expe	-780
▁instanceof	-781
▁St	-782
▁sb	-783
Option	-784
RO	-785
bj	-786
mpt	-787
osition	-788
ope	-789
▁IOException	-790
▁getR	-791
ULT	-792
50	-793
▁current	-794
▁4	-795
▁from	-796
▁Boolean	-797
That	-798
SS	-799
▁request	-800
ary	-801
etail	-802
▁find	-803
ork	-804
62	-805
Local	-806
▁ut	-807
pression	-808
97	-809
▁getString	-810
AME	-811
▁ur	-812
Column	-813
▁getMessage	-814
est	-815
▁message	-816
▁assertThat	-817
▁qu	-818
▁Col	-819
▁max	-820
▁remo	-821
ps	-822
perties	-823
True	-824
Tag	-825
▁Log	-826
Attribute	-827
Enabled	-828
▁method	-829
17	-830
13	-831
TE	-832
erial	-833
Ref	-834
▁extends	-835
▁util	-836
mpty	-837
ib	-838
▁trans	-839
ccess	-840
93	-841
▁childRole	-842
iable	-843
▁group	-844
▁Assert	-845
▁parse	-846
unction	-847
▁of	-848
loat	-849
ocation	-850
lect	-851
87	-852
▁createConstant	-853
▁ro	-854
▁path	-855
Buffer	-856
▁super	-857
▁DE	-858
▁wh	-859
putStream	-860
▁getChild	-861
▁HashMap	-862
▁getClass	-863
vel	-864
View	-865
irect	-866
16	-867
ok	-868
nection	-869
ervlet	-870
Listener	-871
▁getType	-872
▁Qu	-873
ign	-874
legal	-875
point	-876
▁10	-877
ytes	-878
ard	-879
▁try	-880
llegal	-881
Le	-882
tity	-883
Reference	-884
Names	-885
▁double	-886
▁En	-887
pace	-888
gin	-889
Lo	-890
▁per	-891
amp	-892
FAULT	-893
▁entry	-894
are	-895
Source	-896
OW	-897
uth	-898
alid	-899
▁Long	-900
KE	-901
ft	-902
fset	-903
Trans	-904
odule	-905
▁source	-906
Action	-907
Format	-908
Configuration	-909
For	-910
▁Set	-911
ql	-912
notation	-913
ln	-914
Content	-915
Descriptor	-916
▁assertTrue	-917
ecution	-918
ill	-919
Writer	-920
▁println	-921
ED	-922
Out	-923
▁Th	-924
UE	-925
context	-926
▁ap	-927
▁user	-928
Or	-929
Code	-930
▁aAST	-931
▁rule	-932
ug	-933
▁y	-934
▁To	-935
annel	-936
da	-937
▁ifMacro	-938
▁obj	-939
94	-940
AD	-941
Impl	-942
TH	-943
▁isE	-944
90	-945
Rule	-946
▁100	-947
imp	-948
▁un	-949
Link	-950
▁getM	-951
Log	-952
gn	-953
YPE	-954
Entry	-955
52	-956
CON	-957
▁ct	-958
▁input	-959
Cache	-960
▁target	-961
cord	-962
▁warn	-963
▁getValue	-964
▁getF	-965
Version	-966
ound	-967
mage	-968
inition	-969
Rep	-970
No	-971
▁args	-972
aly	-973
▁he	-974
date	-975
ra	-976
▁Token	-977
▁Illegal	-978
imple	-979
Over	-980
▁process	-981
Number	-982
ersist	-983
Component	-984
Str	-985
▁last	-986
ayout	-987
quire	-988
▁event	-989
▁read	-990
▁at	-991
ommand	-992
▁/	-993
ocument	-994
Checker	-995
▁expected	-996
▁pre	-997
▁comm	-998
use	-999
AG	-1000
CO	-1001
_10	-1002
ternal	-1003
▁tag	-1004
_122546080	-1005
tings	-1006
osit	-1007
▁Con	-1008
name	-1009
erm	-1010
Case	-1011
Pre	-1012
Table	-1013
▁parent	-1014
arch	-1015
oin	-1016
LI	-1017
▁response	-1018
37	-1019
20	-1020
lar	-1021
anguage	-1022
Reg	-1023
RI	-1024
ify	-1025
86	-1026
▁5	-1027
And	-1028
plo	-1029
stit	-1030
▁sw	-1031
▁char	-1032
_122546030	-1033
▁ctx	-1034
ren	-1035
▁case	-1036
From	-1037
Properties	-1038
Project	-1039
idth	-1040
eb	-1041
Argument	-1042
Definition	-1043
ride	-1044
stitute	-1045
▁Detail	-1046
izer	-1047
vok	-1048
▁DB	-1049
oll	-1050
place	-1051
▁url	-1052
FI	-1053
Block	-1054
pro	-1055
▁DEFAULT	-1056
CH	-1057
▁sp	-1058
▁remove	-1059
▁item	-1060
▁childVar	-1061
oot	-1062
UT	-1063
Inter	-1064
As	-1065
Sh	-1066
▁al	-1067
Annotation	-1068
ized	-1069
▁column	-1070
eries	-1071
Parser	-1072
lose	-1073
isit	-1074
Parent	-1075
Support	-1076
Filter	-1077
▁X	-1078
▁TypeChecker	-1079
late	-1080
older	-1081
low	-1082
▁cn	-1083
atab	-1084
Expression	-1085
ecutor	-1086
Override	-1087
▁up	-1088
chem	-1089
▁end	-1090
Debug	-1091
atabase	-1092
▁le	-1093
▁line	-1094
yle	-1095
Declar	-1096
▁on	-1097
▁valueOf	-1098
▁reg	-1099
▁token	-1100
ainer	-1101
rt	-1102
ook	-1103
▁apache	-1104
Substitute	-1105
istr	-1106
▁init	-1107
Add	-1108
Generated	-1109
code	-1110
▁activ	-1111
▁Base	-1112
▁HashSet	-1113
ded	-1114
old	-1115
▁DetailAST	-1116
pen	-1117
gnore	-1118
RA	-1119
ateg	-1120
63	-1121
▁lo	-1122
▁setCell	-1123
▁as	-1124
29	-1125
aint	-1126
ster	-1127
40	-1128
URL	-1129
ust	-1130
Header	-1131
ifier	-1132
▁getId	-1133
Entity	-1134
Reader	-1135
▁RE	-1136
ner	-1137
▁setCellId	-1138
LA	-1139
Get	-1140
▁row	-1141
string	-1142
▁state	-1143
▁build	-1144
▁createRef	-1145
OT	-1146
ics	-1147
Tree	-1148
▁Http	-1149
▁getCheck	-1150
ml	-1151
NAME	-1152
▁buffer	-1153
Date	-1154
▁query	-1155
sg	-1156
▁time	-1157
▁Abstract	-1158
Loader	-1159
own	-1160
Part	-1161
▁float	-1162
PT	-1163
Hash	-1164
▁IN	-1165
ative	-1166
▁writer	-1167
▁getCheckMessage	-1168
KEY	-1169
ens	-1170
Up	-1171
▁run	-1172
▁Source	-1173
face	-1174
▁replace	-1175
Meta	-1176
▁while	-1177
▁Collection	-1178
Dir	-1179
par	-1180
ender	-1181
_1	-1182
Declaration	-1183
ML	-1184
1447	-1185
quired	-1186
70	-1187
LO	-1188
Function	-1189
▁Default	-1190
eriesGenerated	-1191
Dis	-1192
▁min	-1193
▁substring	-1194
▁K	-1195
Status	-1196
QL	-1197
ance	-1198
lit	-1199
▁var	-1200
▁ver	-1201
Session	-1202
ERS	-1203
▁Local	-1204
▁array	-1205
ingContext	-1206
▁Test	-1207
ite	-1208
Stack	-1209
▁Method	-1210
AX	-1211
▁Comp	-1212
Constr	-1213
▁inter	-1214
ploy	-1215
NotNull	-1216
Char	-1217
Client	-1218
▁Message	-1219
pter	-1220
ake	-1221
▁iter	-1222
▁getTarget	-1223
cpt	-1224
_2	-1225
inked	-1226
▁getRuntime	-1227
Constants	-1228
Params	-1229
▁cncpt	-1230
Parameter	-1231
▁exec	-1232
orted	-1233
Server	-1234
internal	-1235
EN	-1236
▁An	-1237
WithRole	-1238
fter	-1239
Unit	-1240
voke	-1241
elper	-1242
▁client	-1243
_1228269557	-1244
Next	-1245
terator	-1246
▁perform	-1247
ody	-1248
Options	-1249
bs	-1250
▁cell	-1251
▁session	-1252
luster	-1253
▁SNodeOperations	-1254
refix	-1255
▁TokenTypes	-1256
Pool	-1257
alyz	-1258
▁count	-1259
enc	-1260
VAL	-1261
_0	-1262
▁local	-1263
pi	-1264
property	-1265
cc	-1266
ATION	-1267
▁Pattern	-1268
chema	-1269
urity	-1270
▁getRe	-1271
24	-1272
End	-1273
one	-1274
ont	-1275
scription	-1276
ATE	-1277
Mode	-1278
action	-1279
refNode	-1280
▁Un	-1281
Tool	-1282
Trace	-1283
55	-1284
▁isEmpty	-1285
ant	-1286
▁getProperty	-1287
dapter	-1288
ository	-1289
New	-1290
rame	-1291
iti	-1292
Values	-1293
ping	-1294
▁createProperty	-1295
▁ST	-1296
lugin	-1297
qName	-1298
EX	-1299
AB	-1300
irectory	-1301
rc	-1302
Call	-1303
mplate	-1304
68	-1305
▁performTest	-1306
Editor	-1307
Level	-1308
Start	-1309
Pattern	-1310
rl	-1311
ait	-1312
▁Date	-1313
NodeContext	-1314
iss	-1315
itch	-1316
▁Node	-1317
▁table	-1318
▁createRefNode	-1319
ao	-1320
reak	-1321
ecurity	-1322
▁first	-1323
▁8	-1324
ention	-1325
▁Tr	-1326
▁num	-1327
▁Linked	-1328
▁getChildren	-1329
▁db	-1330
▁gener	-1331
eters	-1332
▁resource	-1333
19	-1334
IZ	-1335
▁be	-1336
▁object	-1337
ication	-1338
▁Byte	-1339
.0	-1340
▁load	-1341
▁content	-1342
lete	-1343
dent	-1344
▁base	-1345
Variable	-1346
▁trace	-1347
SubstituteMacro	-1348
ister	-1349
quation	-1350
Container	-1351
Bean	-1352
ual	-1353
▁Runtime	-1354
▁SLink	-1355
▁SLinkOperations	-1356
▁dis	-1357
▁getIn	-1358
▁IllegalArgument	-1359
sWith	-1360
▁PA	-1361
Color	-1362
Address	-1363
Position	-1364
ifact	-1365
Offset	-1366
▁pattern	-1367
air	-1368
4_	-1369
Ignore	-1370
node	-1371
▁update	-1372
38	-1373
bo	-1374
pr	-1375
uctor	-1376
▁Time	-1377
▁verify	-1378
▁element	-1379
Mem	-1380
uto	-1381
Point	-1382
lected	-1383
▁Index	-1384
▁filter	-1385
▁invoke	-1386
UserObject	-1387
Thread	-1388
892	-1389
Ret	-1390
RL	-1391
rtifact	-1392
Base	-1393
▁Service	-1394
▁ins	-1395
Image	-1396
VE	-1397
LLOW	-1398
ush	-1399
ause	-1400
imit	-1401
vert	-1402
ocket	-1403
ToCheck	-1404
58	-1405
bc	-1406
Api	-1407
raw	-1408
▁an	-1409
TYPE	-1410
▁visit	-1411
lay	-1412
▁dec	-1413
▁getConcept	-1414
▁CE	-1415
LocalService	-1416
▁execute	-1417
Connection	-1418
Read	-1419
ync	-1420
file	-1421
entity	-1422
FqName	-1423
CheckingContext	-1424
ave	-1425
ton	-1426
etch	-1427
▁msg	-1428
▁getDefault	-1429
33	-1430
ature	-1431
▁getD	-1432
Length	-1433
Settings	-1434
res	-1435
tep	-1436
First	-1437
▁activiti	-1438
▁required	-1439
dge	-1440
Command	-1441
CK	-1442
FF	-1443
io	-1444
▁io	-1445
8467	-1446
▁z	-1447
utton	-1448
Url	-1449
18	-1450
eam	-1451
ep	-1452
▁builder	-1453
TI	-1454
opy	-1455
▁SA	-1456
▁action	-1457
Graph	-1458
▁getNode	-1459
▁property	-1460
▁req	-1461
Access	-1462
▁Double	-1463
▁output	-1464
▁act	-1465
▁putUserObject	-1466
2934	-1467
ctivity	-1468
▁version	-1469
Scope	-1470
PER	-1471
2934892	-1472
_102934892	-1473
nodeToCheck	-1474
_1029348928467	-1475
▁close	-1476
▁Data	-1477
Task	-1478
pend	-1479
▁Pro	-1480
lication	-1481
ark	-1482
OL	-1483
Helper	-1484
▁server	-1485
ape	-1486
quence	-1487
rowable	-1488
xy	-1489
▁Sc	-1490
▁project	-1491
af	-1492
inal	-1493
▁params	-1494
▁break	-1495
pec	-1496
▁CELL	-1497
▁ann	-1498
▁startsWith	-1499
▁defaultValue	-1500
PRE	-1501
ector	-1502
ram	-1503
▁cal	-1504
ension	-1505
▁string	-1506
ging	-1507
line	-1508
Store	-1509
ther	-1510
App	-1511
back	-1512
98	-1513
Valid	-1514
Ext	-1515
du	-1516
Bytes	-1517
000	-1518
its	-1519
ency	-1520
Module	-1521
▁provider	-1522
Args	-1523
▁job	-1524
▁switch	-1525
▁indexOf	-1526
96	-1527
edi	-1528
ript	-1529
▁code	-1530
▁typeOf	-1531
ployment	-1532
▁sql	-1533
Language	-1534
▁command	-1535
Statement	-1536
▁getParent	-1537
▁De	-1538
▁prop	-1539
35	-1540
GER	-1541
Adapter	-1542
UN	-1543
oun	-1544
Width	-1545
Executor	-1546
▁implement	-1547
AP	-1548
Pan	-1549
illis	-1550
ass	-1551
ond	-1552
play	-1553
▁hash	-1554
▁option	-1555
Row	-1556
OLLOW	-1557
▁cast	-1558
Record	-1559
ization	-1560
▁Throwable	-1561
enu	-1562
upp	-1563
Warn	-1564
▁cache	-1565
change	-1566
▁values	-1567
27	-1568
▁Par	-1569
▁pos	-1570
andle	-1571
▁concept	-1572
▁implements	-1573
IS	-1574
▁Simple	-1575
▁position	-1576
▁Check	-1577
▁rep	-1578
▁task	-1579
▁root	-1580
583	-1581
▁Value	-1582
qualTo	-1583
▁open	-1584
▁SAbstract	-1585
Layout	-1586
Job	-1587
▁SE	-1588
iler	-1589
mm	-1590
red	-1591
ocol	-1592
▁getKey	-1593
▁getText	-1594
Description	-1595
Root	-1596
Channel	-1597
ABLE	-1598
tocol	-1599
ry	-1600
▁CON	-1601
After	-1602
lector	-1603
▁stream	-1604
AV	-1605
_4	-1606
Run	-1607
74	-1608
uture	-1609
▁Cell	-1610
lan	-1611
oj	-1612
Que	-1613
▁offset	-1614
DS	-1615
Contr	-1616
▁call	-1617
Import	-1618
ointer	-1619
Com	-1620
ustom	-1621
▁Math	-1622
▁src	-1623
▁not	-1624
OS	-1625
avi	-1626
acter	-1627
▁Json	-1628
▁Thread	-1629
Al	-1630
Ins	-1631
SON	-1632
clu	-1633
SH	-1634
654	-1635
word	-1636
▁Model	-1637
▁parser	-1638
havi	-1639
ename	-1640
▁iterator	-1641
her	-1642
▁Char	-1643
ersistence	-1644
22	-1645
tal	-1646
▁getLog	-1647
Execution	-1648
Met	-1649
ible	-1650
▁getPath	-1651
▁make	-1652
load	-1653
MP	-1654
Servlet	-1655
Location	-1656
ines	-1657
▁with	-1658
ROR	-1659
ict	-1660
Step	-1661
Queue	-1662
▁Trans	-1663
ld	-1664
ical	-1665
VALUE	-1666
▁lang	-1667
TER	-1668
ron	-1669
▁do	-1670
adata	-1671
ff	-1672
Keys	-1673
Return	-1674
DB	-1675
▁MAX	-1676
▁User	-1677
▁http	-1678
▁Field	-1679
▁old	-1680
ample	-1681
▁1000	-1682
121447	-1683
▁Action	-1684
▁getLine	-1685
andom	-1686
▁SModel	-1687
▁fail	-1688
▁Element	-1689
▁className	-1690
▁execution	-1691
OD	-1692
Input	-1693
havior	-1694
▁other	-1695
ox	-1696
False	-1697
▁host	-1698
HT	-1699
▁ac	-1700
utable	-1701
▁getBytes	-1702
ide	-1703
log	-1704
nap	-1705
▁exp	-1706
▁Locale	-1707
Directory	-1708
unk	-1709
▁Se	-1710
▁Arrays	-1711
▁Logger	-1712
entionProvider	-1713
Is	-1714
Max	-1715
gment	-1716
ApiParam	-1717
▁setText	-1718
OC	-1719
ick	-1720
▁syn	-1721
UM	-1722
1165	-1723
Mult	-1724
▁all	-1725
▁matcher	-1726
fore	-1727
▁dir	-1728
Resol	-1729
▁Iterator	-1730
767	-1731
AGE	-1732
▁TYPE	-1733
▁enum	-1734
▁status	-1735
ee	-1736
shot	-1737
odifi	-1738
Sp	-1739
▁dao	-1740
▁part	-1741
Millis	-1742
iled	-1743
Parameters	-1744
vir	-1745
viron	-1746
vironment	-1747
▁short	-1748
▁valid	-1749
Java	-1750
▁rules	-1751
Host	-1752
▁At	-1753
▁delete	-1754
If	-1755
IZE	-1756
▁json	-1757
▁left	-1758
Auth	-1759
Mock	-1760
stamp	-1761
Su	-1762
to	-1763
▁cs	-1764
NOT	-1765
Json	-1766
Ident	-1767
▁conf	-1768
perator	-1769
▁getChildCount	-1770
ower	-1771
indow	-1772
rid	-1773
sed	-1774
ched	-1775
▁argument	-1776
SC	-1777
Port	-1778
urs	-1779
napshot	-1780
▁ServiceContext	-1781
56	-1782
ET	-1783
▁page	-1784
Per	-1785
itle	-1786
Ass	-1787
cod	-1788
▁ref	-1789
Files	-1790
econd	-1791
▁right	-1792
Registr	-1793
parator	-1794
▁register	-1795
99	-1796
ie	-1797
▁Objects	-1798
▁q	-1799
ojo	-1800
sum	-1801
▁impl	-1802
▁attribute	-1803
lat	-1804
ferent	-1805
PRO	-1806
lob	-1807
ex	-1808
▁prev	-1809
▁LOGGER	-1810
lag	-1811
Auto	-1812
avad	-1813
ah	-1814
avadoc	-1815
Byte	-1816
▁Tree	-1817
▁meta	-1818
88	-1819
Pos	-1820
aders	-1821
_7	-1822
ODE	-1823
ipe	-1824
Sequence	-1825
▁connection	-1826
ECT	-1827
Style	-1828
yc	-1829
Button	-1830
Serial	-1831
▁annotation	-1832
▁StringBuilder	-1833
6_	-1834
clude	-1835
orage	-1836
▁constr	-1837
BU	-1838
▁Key	-1839
▁and	-1840
Processor	-1841
qy	-1842
Page	-1843
61	-1844
zz	-1845
Fail	-1846
▁IndexWriter	-1847
ph	-1848
uft	-1849
▁split	-1850
91	-1851
▁graph	-1852
Document	-1853
▁variable	-1854
Order	-1855
ination	-1856
Messages	-1857
53	-1858
ols	-1859
▁header	-1860
▁record	-1861
rim	-1862
▁cl	-1863
Lock	-1864
IG	-1865
▁Sh	-1866
ialog	-1867
▁getResource	-1868
ern	-1869
▁Command	-1870
▁handler	-1871
ListHandler	-1872
ions	-1873
aw	-1874
Repository	-1875
md	-1876
VER	-1877
▁gc	-1878
▁Lang	-1879
IL	-1880
chron	-1881
Height	-1882
▁fetch	-1883
ASE	-1884
▁module	-1885
br	-1886
Long	-1887
RING	-1888
olic	-1889
ilename	-1890
▁matches	-1891
ategory	-1892
▁assertFalse	-1893
IC	-1894
space	-1895
▁getE	-1896
Output	-1897
Database	-1898
ategy	-1899
valid	-1900
▁allow	-1901
entence	-1902
Analyz	-1903
▁expect	-1904
▁compare	-1905
Del	-1906
ceptor	-1907
▁go	-1908
pect	-1909
type	-1910
Ids	-1911
Frame	-1912
▁trim	-1913
mb	-1914
ORT	-1915
▁Response	-1916
▁sm	-1917
Http	-1918
▁abc	-1919
▁val	-1920
Boolean	-1921
etw	-1922
undle	-1923
Methods	-1924
fi	-1925
▁Error	-1926
▁Graph	-1927
Package	-1928
Timeout	-1929
▁isDebug	-1930
▁description	-1931
TO	-1932
atal	-1933
Constraint	-1934
▁cellWithRole	-1935
gg	-1936
▁7	-1937
ble	-1938
Wrap	-1939
unit	-1940
Fields	-1941
ped	-1942
▁rs	-1943
Work	-1944
▁uri	-1945
ANCE	-1946
_1165	-1947
olicy	-1948
EL	-1949
Box	-1950
Allow	-1951
▁abstract	-1952
UP	-1953
▁Z	-1954
Spec	-1955
ursor	-1956
Schema	-1957
▁createNode	-1958
oller	-1959
Static	-1960
▁CellProvider	-1961
mt	-1962
▁Mock	-1963
Change	-1964
▁Option	-1965
▁Quotation	-1966
InputStream	-1967
▁SQL	-1968
▁URL	-1969
▁ass	-1970
▁width	-1971
▁QuotationClass	-1972
ENT	-1973
Num	-1974
bsol	-1975
▁Messages	-1976
StateException	-1977
ices	-1978
Interface	-1979
▁aProvider	-1980
▁isDebugEnabled	-1981
DI	-1982
_6	-1983
▁0.	-1984
Prefix	-1985
▁exist	-1986
▁WS	-1987
eners	-1988
▁insert	-1989
be	-1990
aterial	-1991
Exp	-1992
SER	-1993
Uri	-1994
▁ad	-1995
gine	-1996
ogle	-1997
▁send	-1998
bsolute	-1999
▁getFile	-2000
OM	-2001
▁use	-2002
▁properties	-2003
CONDS	-2004
▁Path	-2005
▁FOLLOW	-2006
Constructor	-2007
▁LinkedList	-2008
▁UN	-2009
▁resol	-2010
▁6	-2011
▁60	-2012
ERSION	-2013
▁av	-2014
▁options	-2015
ision	-2016
▁auth	-2017
▁mock	-2018
▁bytes	-2019
▁channel	-2020
ification	-2021
ved	-2022
▁report	-2023
MI	-2024
INE	-2025
▁Le	-2026
▁date	-2027
▁Resource	-2028
QU	-2029
tra	-2030
▁aw	-2031
Desc	-2032
ommon	-2033
▁Rule	-2034
▁hasNext	-2035
▁fileName	-2036
▁serviceContext	-2037
59	-2038
actor	-2039
72	-2040
bv	-2041
gex	-2042
▁top	-2043
arator	-2044
upported	-2045
▁getColumn	-2046
orld	-2047
Found	-2048
Proxy	-2049
▁post	-2050
▁push	-2051
▁TimeUnit	-2052
Preference	-2053
oul	-2054
TIME	-2055
▁Text	-2056
▁Entry	-2057
HashMap	-2058
▁actual	-2059
44	-2060
▁me	-2061
lazz	-2062
ould	-2063
Last	-2064
ites	-2065
▁copy	-2066
lation	-2067
lear	-2068
▁quo	-2069
▁javax	-2070
▁junit	-2071
erge	-2072
▁orig	-2073
Current	-2074
Mapping	-2075
Suppress	-2076
Init	-2077
▁doc	-2078
ority	-2079
Memory	-2080
▁remote	-2081
▁component	-2082
lash	-2083
▁buf	-2084
ailed	-2085
▁synchron	-2086
▁SW	-2087
ounter	-2088
▁scope	-2089
any	-2090
▁show	-2091
Engine	-2092
▁mCheck	-2093
UB	-2094
Detail	-2095
FOR	-2096
Results	-2097
▁reader	-2098
Template	-2099
▁Language	-2100
▁settings	-2101
ient	-2102
▁tmp	-2103
assword	-2104
DER	-2105
Only	-2106
▁entity	-2107
▁google	-2108
▁getBoolean	-2109
692	-2110
▁12	-2111
▁Inter	-2112
Strategy	-2113
122826955	-2114
Search	-2115
▁Scope	-2116
▁Entity	-2117
▁synchronized	-2118
_3	-2119
idget	-2120
scape	-2121
eature	-2122
▁exception	-2123
Wh	-2124
df	-2125
Body	-2126
reen	-2127
irror	-2128
▁word	-2129
mmutable	-2130
nable	-2131
▁view	-2132
▁Process	-2133
▁Checkpoint	-2134
ms	-2135
OUT	-2136
lobal	-2137
riter	-2138
▁wrap	-2139
coding	-2140
▁layout	-2141
▁InputStream	-2142
lis	-2143
Enum	-2144
river	-2145
▁1024	-2146
resent	-2147
▁getTime	-2148
Than	-2149
▁core	-2150
istance	-2151
▁search	-2152
▁Constants	-2153
Range	-2154
gress	-2155
supported	-2156
ITY	-2157
▁def	-2158
current	-2159
aster	-2160
uction	-2161
ailable	-2162
▁inject	-2163
Conditional	-2164
▁asList	-2165
▁isTrace	-2166
ceiv	-2167
▁mem	-2168
Update	-2169
▁isTraceEnabled	-2170
Fix	-2171
▁My	-2172
Nodes	-2173
▁dest	-2174
▁block	-2175
▁servlet	-2176
▁interface	-2177
▁parameter	-2178
MENT	-2179
Throw	-2180
▁convert	-2181
▁jpe	-2182
▁Servlet	-2183
▁results	-2184
QUE	-2185
ling	-2186
▁Meta	-2187
▁Number	-2188
xs	-2189
▁body	-2190
23	-2191
XML	-2192
SIZE	-2193
▁PRO	-2194
LASS	-2195
Word	-2196
Cluster	-2197
▁isEqualTo	-2198
51	-2199
▁sk	-2200
▁Pre	-2201
Empty	-2202
▁clear	-2203
_121447	-2204
▁decomp	-2205
▁prefix	-2206
26	-2207
▁lock	-2208
▁Gener	-2209
Integer	-2210
TAG	-2211
reg	-2212
▁cluster	-2213
Configure	-2214
URI	-2215
▁jpexs	-2216
Icon	-2217
ution	-2218
▁work	-2219
Failure	-2220
IVE	-2221
eight	-2222
▁Query	-2223
ClassName	-2224
▁getFirst	-2225
_122	-2226
▁PAR	-2227
▁Sub	-2228
▁rec	-2229
Warnings	-2230
sk	-2231
ccount	-2232
ission	-2233
Namespace	-2234
struction	-2235
DEF	-2236
Non	-2237
ett	-2238
rag	-2239
Pane	-2240
edModel	-2241
▁decompiler	-2242
Rec	-2243
Val	-2244
Dialog	-2245
Comment	-2246
Analyzer	-2247
wner	-2248
▁ends	-2249
Policy	-2250
inding	-2251
▁color	-2252
Display	-2253
▁document	-2254
▁Immutable	-2255
imum	-2256
itor	-2257
tries	-2258
▁Event	-2259
Generator	-2260
▁exchange	-2261
ov	-2262
sis	-2263
▁Var	-2264
▁getField	-2265
IgnoreCase	-2266
▁edu	-2267
ERROR	-2268
atalog	-2269
Wrapper	-2270
terable	-2271
▁endsWith	-2272
Load	-2273
ucture	-2274
Registry	-2275
▁groupId	-2276
Native	-2277
▁location	-2278
OUR	-2279
icate	-2280
round	-2281
▁EX	-2282
▁Web	-2283
CTION	-2284
endar	-2285
onitor	-2286
entication	-2287
▁Collections	-2288
28	-2289
Obj	-2290
Full	-2291
▁temp	-2292
alysis	-2293
▁total	-2294
▁getAbsolute	-2295
DED	-2296
oop	-2297
Term	-2298
info	-2299
view	-2300
riority	-2301
▁serial	-2302
▁containsKey	-2303
78	-2304
ale	-2305
Pres	-2306
ater	-2307
▁Job	-2308
▁can	-2309
▁Cache	-2310
▁Result	-2311
▁Document	-2312
▁listener	-2313
cul	-2314
iter	-2315
▁web	-2316
az	-2317
▁getSe	-2318
ome	-2319
inue	-2320
▁Ioc	-2321
inary	-2322
ipeline	-2323
▁getModel	-2324
TP	-2325
UID	-2326
▁env	-2327
Plugin	-2328
Activity	-2329
ConditionalOn	-2330
SQL	-2331
▁met	-2332
Bound	-2333
▁Item	-2334
Holder	-2335
Script	-2336
▁clazz	-2337
si	-2338
▁Cal	-2339
ities	-2340
Assign	-2341
pendency	-2342
ise	-2343
▁os	-2344
1214	-2345
▁Task	-2346
Iterator	-2347
▁portlet	-2348
AS	-2349
877	-2350
ility	-2351
▁height	-2352
Protocol	-2353
▁getLocal	-2354
39	-2355
1615	-2356
imer	-2357
ious	-2358
ingle	-2359
▁initial	-2360
▁generate	-2361
LIC	-2362
tml	-2363
ude	-2364
▁um	-2365
▁len	-2366
omain	-2367
▁handle	-2368
▁database	-2369
▁separator	-2370
▁configuration	-2371
▁Be	-2372
Menu	-2373
ublis	-2374
isible	-2375
▁address	-2376
▁timeout	-2377
Checkpoint	-2378
Remo	-2379
▁JAV	-2380
▁umd	-2381
ormal	-2382
▁Filter	-2383
▁random	-2384
▁should	-2385
ONE	-2386
▁co	-2387
▁Run	-2388
▁ast	-2389
Render	-2390
▁compile	-2391
uc	-2392
Top	-2393
11767	-2394
ctive	-2395
▁charAt	-2396
▁getInt	-2397
Min	-2398
rix	-2399
▁op	-2400
Pair	-2401
imal	-2402
layer	-2403
▁wait	-2404
▁Color	-2405
Profile	-2406
itespace	-2407
Doc	-2408
led	-2409
Build	-2410
▁render	-2411
Equation	-2412
ric	-2413
▁FI	-2414
ached	-2415
▁font	-2416
▁stop	-2417
System	-2418
tedNode	-2419
StackTrace	-2420
FO	-2421
ITER	-2422
Qual	-2423
▁cur	-2424
▁Float	-2425
▁operation	-2426
Us	-2427
604	-2428
OWN	-2429
afe	-2430
map	-2431
tex	-2432
_120	-2433
resh	-2434
ugge	-2435
▁mps	-2436
▁language	-2437
US	-2438
▁9	-2439
Ast	-2440
▁ic	-2441
Demo	-2442
Lower	-2443
▁Level	-2444
▁getData	-2445
▁fromString	-2446
113	-2447
320	-2448
RES	-2449
los	-2450
atrix	-2451
ersistedModel	-2452
FoundException	-2453
69	-2454
Report	-2455
Transaction	-2456
▁getCurrent	-2457
▁mCheckConfig	-2458
HE	-2459
TR	-2460
po	-2461
640	-2462
▁attr	-2463
Multip	-2464
andard	-2465
▁Buffer	-2466
Ad	-2467
▁su	-2468
Folder	-2469
▁quotedNode	-2470
▁HttpServlet	-2471
ALL	-2472
bers	-2473
▁hashCode	-2474
Op	-2475
ws	-2476
570	-2477
utes	-2478
sumer	-2479
▁order	-2480
Storage	-2481
Resolver	-2482
▁assertNotNull	-2483
Down	-2484
roll	-2485
▁jet	-2486
SSING	-2487
STANCE	-2488
etwork	-2489
▁exists	-2490
Serializer	-2491
SuppressWarnings	-2492
fix	-2493
sTo	-2494
▁Sql	-2495
Control	-2496
▁common	-2497
Metadata	-2498
ITE	-2499
umm	-2500
▁ba	-2501
Flag	-2502
_1214	-2503
161583	-2504
Tokens	-2505
ations	-2506
1225460301	-2507
▁getLineNo	-2508
▁StringUtils	-2509
31	-2510
acy	-2511
brains	-2512
▁props	-2513
▁stack	-2514
Classes	-2515
▁Character	-2516
▁jetbrains	-2517
CHE	-2518
FILE	-2519
▁back	-2520
Indent	-2521
DEFAULT	-2522
▁groups	-2523
▁Builder	-2524
Rem	-2525
amb	-2526
comp	-2527
▁App	-2528
Visit	-2529
Write	-2530
Pr	-2531
837	-2532
Cre	-2533
ULE	-2534
ors	-2535
Less	-2536
Lines	-2537
▁Channel	-2538
▁constant	-2539
OutputStream	-2540
ConfigureAfter	-2541
uck	-2542
Plan	-2543
duct	-2544
▁number	-2545
▁select	-2546
vocation	-2547
▁conn	-2548
▁eval	-2549
▁Group	-2550
▁cause	-2551
Matcher	-2552
161583692	-2553
▁getLogger	-2554
pare	-2555
▁ioc	-2556
Close	-2557
▁join	-2558
▁plugin	-2559
▁factory	-2560
345	-2561
iro	-2562
rics	-2563
test	-2564
▁XML	-2565
itive	-2566
▁image	-2567
chedule	-2568
latform	-2569
▁Analyz	-2570
▁reference	-2571
MS	-2572
IST	-2573
Web	-2574
▁del	-2575
ework	-2576
▁apply	-2577
Behavior	-2578
ramework	-2579
▁continue	-2580
dr	-2581
Panel	-2582
▁getT	-2583
JECT	-2584
Socket	-2585
▁getAttribute	-2586
ta	-2587
ibr	-2588
ier	-2589
ADOC	-2590
Future	-2591
istory	-2592
1214477	-2593
ignature	-2594
▁patternVar	-2595
▁Configuration	-2596
uple	-2597
▁xml	-2598
▁tools	-2599
▁intValue	-2600
▁template	-2601
▁Annotation	-2602
pth	-2603
▁draw	-2604
▁perf	-2605
▁getAbsolutePath	-2606
Back	-2607
iction	-2608
Segment	-2609
Represent	-2610
Identifier	-2611
▁persistence	-2612
2_	-2613
VI	-2614
eme	-2615
PTION	-2616
style	-2617
▁retval	-2618
▁Artifact	-2619
TimeMillis	-2620
UI	-2621
▁gr	-2622
▁1.0	-2623
▁man	-2624
Window	-2625
▁Match	-2626
Pointer	-2627
Ine	-2628
ftd	-2629
vws	-2630
vice	-2631
▁api	-2632
vwsftd	-2633
▁Param	-2634
Details	-2635
▁encode	-2636
▁createEquation	-2637
VM	-2638
ho	-2639
Are	-2640
uid	-2641
path	-2642
▁Int	-2643
▁term	-2644
▁flash	-2645
VERSION	-2646
▁Stream	-2647
▁resolve	-2648
INT	-2649
RAM	-2650
▁20	-2651
Open	-2652
▁main	-2653
▁schema	-2654
Callback	-2655
Endpoint	-2656
FileName	-2657
LessThan	-2658
Selected	-2659
LowerCase	-2660
▁Function	-2661
▁thisNode	-2662
Inequation	-2663
110	-2664
Bar	-2665
ced	-2666
▁AP	-2667
▁no	-2668
▁label	-2669
▁limit	-2670
79	-2671
FIX	-2672
Sql	-2673
min	-2674
▁Wh	-2675
JSON	-2676
▁Get	-2677
ookup	-2678
▁Port	-2679
aining	-2680
▁tagging	-2681
▁deployment	-2682
2712	-2683
gent	-2684
ggreg	-2685
▁JSON	-2686
Security	-2687
▁validate	-2688
▁SProperty	-2689
Preferences	-2690
▁toLowerCase	-2691
Ver	-2692
▁TR	-2693
Present	-2694
ragment	-2695
Transform	-2696
cre	-2697
olr	-2698
▁EM	-2699
Handle	-2700
viewer	-2701
▁State	-2702
etector	-2703
▁Serial	-2704
▁failed	-2705
▁keySet	-2706
Nullable	-2707
▁getElement	-2708
ume	-2709
▁NO	-2710
▁ph	-2711
2093	-2712
lier	-2713
list	-2714
QUEST	-2715
traum	-2716
▁names	-2717
6542093	-2718
Convert	-2719
▁Access	-2720
▁addAll	-2721
▁Activity	-2722
▁gcviewer	-2723
▁tagtraum	-2724
12254608060	-2725
▁replaceAll	-2726
▁ER	-2727
▁MI	-2728
▁ne	-2729
Perm	-2730
▁keys	-2731
▁JAVADOC	-2732
▁Project	-2733
Listeners	-2734
46	-2735
One	-2736
CEvent	-2737
ITERAL	-2738
iteral	-2739
▁Common	-2740
▁Security	-2741
0_	-2742
ete	-2743
▁parseInt	-2744
Environment	-2745
NE	-2746
NG	-2747
ets	-2748
ole	-2749
flow	-2750
asure	-2751
▁Javadoc	-2752
▁Iterable	-2753
▁Property	-2754
▁myListHandler	-2755
ia	-2756
TERS	-2757
▁loc	-2758
inder	-2759
▁Pair	-2760
Entries	-2761
Headers	-2762
▁Context	-2763
Extension	-2764
_113	-2765
rawl	-2766
▁link	-2767
▁real	-2768
Viewer	-2769
ibrary	-2770
▁shiro	-2771
Sentence	-2772
▁getMethod	-2773
AND	-2774
ories	-2775
▁full	-2776
▁empty	-2777
▁fields	-2778
▁Attribute	-2779
▁sourceNode	-2780
ump	-2781
▁PK	-2782
Conf	-2783
▁Bug	-2784
ating	-2785
▁PARAME	-2786
▁toArray	-2787
▁getReferent	-2788
1_	-2789
ud	-2790
170	-2791
ANS	-2792
FORM	-2793
PATH	-2794
▁accept	-2795
▁Strings	-2796
Partition	-2797
vt	-2798
116	-2799
PAR	-2800
imes	-2801
▁Ref	-2802
▁transfer	-2803
▁allowable	-2804
▁setDefault	-2805
COL	-2806
ORY	-2807
ymb	-2808
▁idx	-2809
CLASS	-2810
Create	-2811
ground	-2812
▁second	-2813
▁setValue	-2814
vm	-2815
Tri	-2816
▁SWT	-2817
▁Auth	-2818
▁Config	-2819
▁allowableValues	-2820
25	-2821
ting	-2822
▁0.0	-2823
table	-2824
▁resp	-2825
▁skip	-2826
Initial	-2827
▁selected	-2828
cast	-2829
class	-2830
Double	-2831
▁Runnable	-2832
▁expression	-2833
Br	-2834
AIN	-2835
ank	-2836
Expr	-2837
▁DRL	-2838
Chang	-2839
ollow	-2840
▁Stat	-2841
STRING	-2842
▁getAs	-2843
▁intern	-2844
▁Request	-2845
▁getContent	-2846
SET	-2847
▁pojo	-2848
▁Debug	-2849
▁getLast	-2850
1228269558	-2851
▁transform	-2852
▁createLessThan	-2853
ES	-2854
Dest	-2855
down	-2856
▁Big	-2857
Chain	-2858
uffix	-2859
▁ByteArray	-2860
▁DRLParser	-2861
73	-2862
655	-2863
UNT	-2864
igr	-2865
ward	-2866
ommit	-2867
▁frame	-2868
▁snapshot	-2869
▁compareTo	-2870
85	-2871
DAT	-2872
eer	-2873
TENT	-2874
over	-2875
daptor	-2876
▁merge	-2877
Visitor	-2878
▁escape	-2879
Snapshot	-2880
▁getUser	-2881
▁artifact	-2882
▁security	-2883
▁Unsupported	-2884
ElementHandler	-2885
oz	-2886
167	-2887
ene	-2888
▁16	-2889
▁em	-2890
▁xx	-2891
ycle	-2892
order	-2893
MISSING	-2894
▁Session	-2895
PTY	-2896
Area	-2897
ined	-2898
▁cmd	-2899
ceiver	-2900
▁Optional	-2901
pf	-2902
ozj	-2903
▁mod	-2904
Short	-2905
▁when	-2906
direct	-2907
ditional	-2908
ProcessInstance	-2909
BY	-2910
hs	-2911
329	-2912
EST	-2913
elf	-2914
orre	-2915
Limit	-2916
▁View	-2917
▁desc	-2918
Before	-2919
▁nodes	-2920
▁title	-2921
▁us	-2922
▁KEY	-2923
▁awt	-2924
▁isIn	-2925
culate	-2926
▁Build	-2927
▁contr	-2928
▁types	-2929
Controller	-2930
▁findFirst	-2931
▁newInstance	-2932
IP	-2933
1264	-2934
Prop	-2935
INTER	-2936
OURCE	-2937
Super	-2938
odified	-2939
▁tokens	-2940
▁INSTANCE	-2941
▁collection	-2942
▁repository	-2943
▁aAst	-2944
Mapper	-2945
▁Block	-2946
▁access	-2947
▁userId	-2948
81	-2949
Me	-2950
ARG	-2951
▁ss	-2952
▁bug	-2953
▁pop	-2954
00570	-2955
Bundle	-2956
arable	-2957
0057052	-2958
▁editor	-2959
Encoding	-2960
▁setProperty	-2961
▁BaseMessages	-2962
8219	-2963
▁edge	-2964
LineNo	-2965
izable	-2966
legate	-2967
nector	-2968
82191264	-2969
▁Buffered	-2970
▁getObject	-2971
▁Transaction	-2972
987	-2973
Dto	-2974
ugh	-2975
0000	-2976
cent	-2977
leep	-2978
▁PKG	-2979
▁tab	-2980
ernal	-2981
▁getO	-2982
▁save	-2983
▁Const	-2984
GroupId	-2985
▁system	-2986
▁TreeSet	-2987
▁filename	-2988
Cap	-2989
dir	-2990
▁di	-2991
Tags	-2992
ning	-2993
Total	-2994
▁unit	-2995
▁initTest	-2996
▁original	-2997
Constraints	-2998
180	-2999
URE	-3000
rok	-3001
Track	-3002
▁getH	-3003
▁role	-3004
onical	-3005
vision	-3006
Selection	-3007
▁protocol	-3008
▁partition	-3009
▁tree	-3010
▁setName	-3011
▁internal	-3012
Comparator	-3013
NativeType	-3014
▁dataSource	-3015
▁mv	-3016
amel	-3017
ified	-3018
▁then	-3019
▁store	-3020
__	-3021
950	-3022
Bug	-3023
ULL	-3024
UND	-3025
ade	-3026
icle	-3027
ighb	-3028
▁Dis	-3029
Chunk	-3030
Props	-3031
▁bean	-3032
▁getG	-3033
▁Image	-3034
ediation	-3035
▁columns	-3036
▁Standard	-3037
89	-3038
Db	-3039
Ne	-3040
NING	-3041
omic	-3042
Stats	-3043
queue	-3044
rimary	-3045
▁EMPTY	-3046
▁Short	-3047
▁ignore	-3048
▁thread	-3049
▁SECONDS	-3050
▁Analyzed	-3051
▁constants	-3052
04	-3053
kg	-3054
cip	-3055
Score	-3056
Second	-3057
▁getAll	-3058
▁logging	-3059
▁prepare	-3060
▁container	-3061
ND	-3062
Font	-3063
igned	-3064
▁Java	-3065
▁after	-3066
▁getSc	-3067
▁swing	-3068
▁generated	-3069
▁getContext	-3070
▁addAttribute	-3071
AdapterFactory	-3072
MA	-3073
PS	-3074
ube	-3075
▁fs	-3076
▁mb	-3077
▁tx	-3078
edia	-3079
ection	-3080
▁ERROR	-3081
impleName	-3082
Deployment	-3083
▁editorContext	-3084
BO	-3085
FS	-3086
pc	-3087
xFF	-3088
▁MIN	-3089
Bounds	-3090
Logger	-3091
issing	-3092
Progress	-3093
▁subject	-3094
▁getSource	-3095
Tab	-3096
road	-3097
▁DBS	-3098
▁URI	-3099
osite	-3100
▁Core	-3101
FOLLOW	-3102
▁Parse	-3103
▁items	-3104
▁active	-3105
▁custom	-3106
▁LITERAL	-3107
▁registr	-3108
▁Execution	-3109
Application	-3110
▁PARAMETERS	-3111
▁getParameter	-3112
▁containsString	-3113
886	-3114
LOG	-3115
ONG	-3116
ATOR	-3117
Used	-3118
lush	-3119
▁VAL	-3120
▁isP	-3121
aveho	-3122
Follow	-3123
Visible	-3124
▁before	-3125
▁daveho	-3126
Interval	-3127
▁Calendar	-3128
▁calculate	-3129
Annotations	-3130
Remediation	-3131
327	-3132
Xml	-3133
irt	-3134
ito	-3135
▁mf	-3136
▁off	-3137
PRECE	-3138
lease	-3139
Distance	-3140
▁methodName	-3141
PO	-3142
pm	-3143
▁HT	-3144
▁No	-3145
▁Or	-3146
Supp	-3147
▁bit	-3148
▁cap	-3149
pload	-3150
▁Vector	-3151
▁getSub	-3152
RequestParam	-3153
NS	-3154
cs	-3155
ts	-3156
api	-3157
ish	-3158
▁He	-3159
SCRI	-3160
THOD	-3161
nown	-3162
▁Mod	-3163
▁any	-3164
▁xxx	-3165
▁step	-3166
losure	-3167
Literal	-3168
condition	-3169
▁getParser	-3170
▁Expression	-3171
sp	-3172
Mod	-3173
col	-3174
Left	-3175
▁opt	-3176
▁Name	-3177
chedul	-3178
▁Table	-3179
▁Valid	-3180
▁commit	-3181
Validator	-3182
▁Behavior	-3183
▁function	-3184
DataSource	-3185
DateFormat	-3186
▁arguments	-3187
▁findFirstToken	-3188
eek	-3189
lus	-3190
pez	-3191
pha	-3192
▁Sp	-3193
▁UI	-3194
ared	-3195
pezsk	-3196
▁NAME	-3197
perand	-3198
▁Props	-3199
▁Custom	-3200
PRECEDED	-3201
654209360	-3202
Character	-3203
Transition	-3204
▁lastIndex	-3205
66	-3206
RY	-3207
117	-3208
480	-3209
▁sn	-3210
Core	-3211
▁Enum	-3212
▁Search	-3213
Graphics	-3214
imension	-3215
Tokenizer	-3216
49	-3217
ik	-3218
lank	-3219
Equal	-3220
andid	-3221
Actions	-3222
▁getPre	-3223
▁runtime	-3224
▁xxxtest	-3225
Assignable	-3226
OF	-3227
SL	-3228
iff	-3229
▁ME	-3230
▁Pr	-3231
link	-3232
ocus	-3233
Tools	-3234
acket	-3235
Library	-3236
TIMEOUT	-3237
riteria	-3238
▁socket	-3239
▁equalTo	-3240
▁executor	-3241
▁fromList	-3242
12282695530	-3243
▁ListSequence	-3244
ere	-3245
ding	-3246
▁Tag	-3247
Exist	-3248
cipal	-3249
upted	-3250
SECONDS	-3251
incipal	-3252
FOLLOWED	-3253
▁getConfig	-3254
ArrayEquals	-3255
Interceptor	-3256
▁getInteger	-3257
▁BehaviorManager	-3258
Ph	-3259
605	-3260
▁Nut	-3261
▁arr	-3262
Parse	-3263
▁setS	-3264
_11767	-3265
▁lines	-3266
Decimal	-3267
Elements	-3268
Relation	-3269
odifiers	-3270
▁Connection	-3271
▁StringPool	-3272
xb	-3273
0_0	-3274
ARY	-3275
MAP	-3276
elp	-3277
▁50	-3278
1420	-3279
mote	-3280
▁lon	-3281
Chart	-3282
Suite	-3283
izers	-3284
Locale	-3285
uggest	-3286
ummary	-3287
▁sleep	-3288
Artifact	-3289
Exchange	-3290
andidate	-3291
_12254608060	-3292
ORE	-3293
cer	-3294
SSAGE	-3295
Space	-3296
mount	-3297
▁mark	-3298
▁owner	-3299
▁cursor	-3300
▁StringBuffer	-3301
▁isAssignable	-3302
▁printStackTrace	-3303
▁sourceNodeQuery	-3304
ART	-3305
rop	-3306
PORT	-3307
dices	-3308
lared	-3309
Compat	-3310
Runner	-3311
Select	-3312
▁queue	-3313
▁getMax	-3314
▁profile	-3315
▁statement	-3316
TEX	-3317
▁As	-3318
8640	-3319
avig	-3320
oder	-3321
_1238	-3322
ookie	-3323
▁tags	-3324
Matrix	-3325
irtual	-3326
anization	-3327
12254603013	-3328
▁getSimpleName	-3329
KN	-3330
API	-3331
bvu	-3332
xbv	-3333
▁MS	-3334
▁Nk	-3335
Exec	-3336
▁grid	-3337
▁mult	-3338
Inject	-3339
xbvbvu	-3340
▁files	-3341
▁descri	-3342
▁getLong	-3343
Permission	-3344
conditions	-3345
▁Preconditions	-3346
ru	-3347
RAY	-3348
▁32	-3349
▁jn	-3350
9875	-3351
udit	-3352
▁now	-3353
▁Void	-3354
rowser	-3355
utdown	-3356
▁chain	-3357
ilation	-3358
▁STRING	-3359
▁script	-3360
Timestamp	-3361
▁destination	-3362
HO	-3363
ou	-3364
WOR	-3365
▁im	-3366
result	-3367
Binding	-3368
▁Expect	-3369
Category	-3370
Converter	-3371
AM	-3372
▁Id	-3373
▁INT	-3374
Split	-3375
▁Mult	-3376
▁found	-3377
9875345	-3378
▁indent	-3379
▁getCause	-3380
ClassLoader	-3381
▁Whitespace	-3382
_12389875345	-3383
45	-3384
ma	-3385
dbc	-3386
wer	-3387
▁__	-3388
Hint	-3389
Items	-3390
Title	-3391
patch	-3392
▁MILL	-3393
Errors	-3394
aption	-3395
Internal	-3396
Renderer	-3397
ublisher	-3398
▁attributes	-3399
▁getRequest	-3400
▁pushFollow	-3401
▁PersistedModel	-3402
GRO	-3403
MAX	-3404
MIN	-3405
_15	-3406
CODE	-3407
NECT	-3408
Regex	-3409
Upper	-3410
▁sort	-3411
▁Label	-3412
▁regex	-3413
Changed	-3414
crement	-3415
_1214477	-3416
▁entrySet	-3417
▁SQLException	-3418
ANT	-3419
etty	-3420
▁ans	-3421
roker	-3422
▁Null	-3423
ibling	-3424
rupted	-3425
urrency	-3426
▁Invalid	-3427
▁MyClass	-3428
▁enabled	-3429
▁pointer	-3430
▁children	-3431
TY	-3432
COM	-3433
▁Ro	-3434
ored	-3435
pose	-3436
▁pay	-3437
▁fill	-3438
Implement	-3439
▁category	-3440
EW	-3441
Cal	-3442
idd	-3443
CTED	-3444
▁evt	-3445
▁isA	-3446
Async	-3447
Depth	-3448
leton	-3449
pected	-3450
▁Column	-3451
▁locale	-3452
Password	-3453
ingleton	-3454
▁Variable	-3455
▁previous	-3456
Attributes	-3457
42	-3458
▁Y	-3459
382	-3460
BUG	-3461
LAY	-3462
ove	-3463
var	-3464
▁Ne	-3465
▁Ph	-3466
_117	-3467
blem	-3468
ended	-3469
▁rows	-3470
Binary	-3471
Region	-3472
▁Mirror	-3473
Multiple	-3474
vailable	-3475
▁getTest	-3476
▁byteArray	-3477
▁tokenizers	-3478
KNOWN	-3479
ucket	-3480
Assert	-3481
ediate	-3482
▁style	-3483
▁Server	-3484
▁Duration	-3485
▁Component	-3486
▁AccessResult	-3487
Msg	-3488
▁80	-3489
PLIC	-3490
Same	-3491
base	-3492
ific	-3493
ique	-3494
▁Rep	-3495
acity	-3496
▁VALUE	-3497
CheckBox	-3498
Referent	-3499
Reporter	-3500
otations	-3501
▁exclude	-3502
FT	-3503
GE	-3504
EXT	-3505
ges	-3506
tach	-3507
▁vol	-3508
ITION	-3509
Multi	-3510
anner	-3511
serial	-3512
▁score	-3513
Portlet	-3514
▁Client	-3515
▁holder	-3516
▁mapper	-3517
▁waitFor	-3518
ictionary	-3519
▁tableName	-3520
247	-3521
TRI	-3522
_35	-3523
HTML	-3524
ured	-3525
▁Ass	-3526
88613	-3527
Reply	-3528
Member	-3529
ending	-3530
Counter	-3531
cheduler	-3532
RequestPart	-3533
▁parameters	-3534
ruptedException	-3535
165	-3536
Bag	-3537
IAL	-3538
aho	-3539
unc	-3540
▁30	-3541
▁90	-3542
▁br	-3543
DATE	-3544
ymbol	-3545
▁pent	-3546
▁yacy	-3547
Direct	-3548
PREFIX	-3549
▁await	-3550
▁Layout	-3551
Material	-3552
▁pentaho	-3553
▁checkstyle	-3554
▁createRefCell	-3555
▁getFirstChild	-3556
03	-3557
oly	-3558
Temp	-3559
arsh	-3560
▁Pdf	-3561
▁raw	-3562
erson	-3563
uppyc	-3564
▁setC	-3565
rticle	-3566
▁puppyc	-3567
Filename	-3568
▁mapping	-3569
▁messages	-3570
▁Hashtable	-3571
▁fieldName	-3572
▁puppycrawl	-3573
▁lastIndexOf	-3574
192	-3575
807	-3576
Use	-3577
Kind	-3578
ayer	-3579
▁Out	-3580
Batch	-3581
▁Grid	-3582
▁safe	-3583
ighbor	-3584
Feature	-3585
▁region	-3586
▁getHost	-3587
▁LocaleUtil	-3588
IO	-3589
Len	-3590
Opt	-3591
▁ps	-3592
aded	-3593
▁All	-3594
▁MSG	-3595
lable	-3596
▁icon	-3597
lative	-3598
Objects	-3599
rgument	-3600
▁Socket	-3601
irection	-3602
▁Content	-3603
▁checkNotNull	-3604
3_	-3605
CC	-3606
_8	-3607
DEX	-3608
ays	-3609
ssue	-3610
▁pvm	-3611
Blank	-3612
COUNT	-3613
cheme	-3614
voker	-3615
▁Work	-3616
▁auto	-3617
▁seed	-3618
uation	-3619
▁chunk	-3620
refCell	-3621
▁change	-3622
Transfer	-3623
▁BaseInt	-3624
▁Operator	-3625
▁available	-3626
▁assertNull	-3627
▁getVersion	-3628
▁isInstance	-3629
ationRequest	-3630
▁application	-3631
▁constructor	-3632
wo	-3633
914	-3634
lue	-3635
▁AL	-3636
LIST	-3637
Seed	-3638
TEXT	-3639
ason	-3640
aven	-3641
ware	-3642
ABLED	-3643
ested	-3644
▁10000	-3645
▁level	-3646
HashSet	-3647
▁Executor	-3648
▁enumQuery	-3649
cr	-3650
ui	-3651
▁$	-3652
PUT	-3653
oom	-3654
Stop	-3655
▁Psi	-3656
▁Size	-3657
Sibling	-3658
REG	-3659
ott	-3660
▁ar	-3661
8494	-3662
8777	-3663
READ	-3664
exer	-3665
▁200	-3666
▁Bytes	-3667
ability	-3668
Consumer	-3669
Register	-3670
▁Properties	-3671
AY	-3672
▁%	-3673
ById	-3674
anch	-3675
emon	-3676
Combo	-3677
_3567	-3678
board	-3679
itude	-3680
tract	-3681
▁getW	-3682
Driver	-3683
▁range	-3684
Contact	-3685
▁toType	-3686
14208494	-3687
Operator	-3688
▁longValue	-3689
12282695574	-3690
▁transaction	-3691
_356714208494	-3692
▁ImmutableList	-3693
130	-3694
lip	-3695
▁cc	-3696
▁cf	-3697
ixel	-3698
ottom	-3699
Depend	-3700
Groups	-3701
ifiers	-3702
▁simple	-3703
▁myClass	-3704
▁directory	-3705
▁resources	-3706
LanguageTool	-3707
Authentication	-3708
ArgsConstructor	-3709
CA	-3710
Ms	-3711
Sk	-3712
xf	-3713
966	-3714
azy	-3715
cest	-3716
▁Pet	-3717
▁WAR	-3718
▁pla	-3719
Final	-3720
VALID	-3721
itter	-3722
▁clone	-3723
▁proxy	-3724
▁future	-3725
▁Mockito	-3726
▁collect	-3727
▁persist	-3728
▁setType	-3729
▁metadata	-3730
Persistence	-3731
▁logFailure	-3732
▁ClassLoader	-3733
▁JLanguageTool	-3734
wn	-3735
847	-3736
eet	-3737
oke	-3738
▁DR	-3739
7432	-3740
Cast	-3741
LINE	-3742
_686	-3743
▁the	-3744
47167	-3745
Flags	-3746
Ancest	-3747
Cursor	-3748
iation	-3749
Monitor	-3750
▁deploy	-3751
_6868777	-3752
▁finally	-3753
▁getNext	-3754
471677432	-3755
▁StringUtil	-3756
▁constraint	-3757
▁environment	-3758
LU	-3759
OO	-3760
Cmd	-3761
Dao	-3762
▁BL	-3763
aged	-3764
▁eng	-3765
ambig	-3766
▁getJ	-3767
Simple	-3768
▁Async	-3769
Columns	-3770
▁lookup	-3771
▁normal	-3772
Selector	-3773
cheduled	-3774
▁ResultSet	-3775
▁transition	-3776
▁Serializable	-3777
1_2	-3778
TED	-3779
dis	-3780
key	-3781
▁GC	-3782
▁Te	-3783
Bits	-3784
LOSE	-3785
Rect	-3786
alle	-3787
▁OUT	-3788
Encode	-3789
Events	-3790
FORMAT	-3791
ddress	-3792
Allowed	-3793
Success	-3794
▁Portlet	-3795
▁include	-3796
121447837	-3797
Collector	-3798
▁endpoint	-3799
▁username	-3800
▁Deployment	-3801
DBC	-3802
Mak	-3803
POS	-3804
Quo	-3805
gra	-3806
High	-3807
Float	-3808
▁expr	-3809
Vector	-3810
litude	-3811
▁forName	-3812
▁headers	-3813
Variables	-3814
▁Bytecode	-3815
12282695582	-3816
▁Concurrent	-3817
IM	-3818
▁'	-3819
120	-3820
Each	-3821
IGHT	-3822
Mark	-3823
oice	-3824
sole	-3825
▁AVM	-3826
Usage	-3827
_1213	-3828
aging	-3829
anyId	-3830
▁Line	-3831
▁rest	-3832
Commit	-3833
PROPER	-3834
▁reset	-3835
▁suite	-3836
Warning	-3837
▁enable	-3838
▁expand	-3839
▁helper	-3840
▁getPort	-3841
▁product	-3842
▁lonlitude	-3843
▁processInstance	-3844
41	-3845
DK	-3846
Uns	-3847
_34	-3848
amil	-3849
▁COM	-3850
argin	-3851
overy	-3852
verity	-3853
WithNode	-3854
▁comment	-3855
▁password	-3856
▁listeners	-3857
▁PatternUtil	-3858
▁generatedXML	-3859
▁writeElement	-3860
▁SModelReference	-3861
MD	-3862
ELD	-3863
FIG	-3864
Gen	-3865
▁EN	-3866
▁Mv	-3867
▁OR	-3868
Edit	-3869
NGTH	-3870
mark	-3871
quiv	-3872
ring	-3873
uator	-3874
▁alpha	-3875
▁world	-3876
▁errors	-3877
▁window	-3878
External	-3879
anonical	-3880
▁segment	-3881
TargetItem	-3882
▁ExpectNew	-3883
▁namespace	-3884
▁translate	-3885
_1225460301	-3886
▁getProject	-3887
▁LinkedHashMap	-3888
▁matchReferent	-3889
▁GraphTargetItem	-3890
43	-3891
Ac	-3892
Bu	-3893
CS	-3894
540	-3895
ged	-3896
▁15	-3897
▁CH	-3898
▁SH	-3899
▁SN	-3900
Edge	-3901
Insn	-3902
LOCK	-3903
rypt	-3904
utat	-3905
ynam	-3906
▁Reg	-3907
▁gen	-3908
enant	-3909
▁DRLL	-3910
▁Form	-3911
Remove	-3912
Screen	-3913
▁Random	-3914
▁counter	-3915
FieldName	-3916
▁DRLLexer	-3917
▁activity	-3918
▁timestamp	-3919
▁SReference	-3920
▁AnalyzedToken	-3921
▁getConnection	-3922
utatationRequest	-3923
go	-3924
pa	-3925
PRI	-3926
not	-3927
ATCH	-3928
Copy	-3929
▁Met	-3930
light	-3931
Factor	-3932
ration	-3933
ynamic	-3934
▁Utils	-3935
▁export	-3936
▁sample	-3937
Matching	-3938
TreeNode	-3939
▁Generic	-3940
▁getComp	-3941
▁callback	-3942
refNodeList	-3943
▁getClassName	-3944
ContainerParams	-3945
MO	-3946
BER	-3947
dges	-3948
here	-3949
▁Row	-3950
▁cls	-3951
▁sum	-3952
eturn	-3953
▁high	-3954
▁migr	-3955
LENGTH	-3956
▁Constr	-3957
▁feature	-3958
▁warning	-3959
Separator	-3960
TableName	-3961
12161583692	-3962
Representator	-3963
quationManager	-3964
oy	-3965
buf	-3966
▁CA	-3967
ouce	-3968
▁isS	-3969
Delta	-3970
Quick	-3971
grade	-3972
▁Print	-3973
▁begin	-3974
▁answer	-3975
▁cached	-3976
▁decode	-3977
Children	-3978
▁descriptor	-3979
▁Application	-3980
▁myClassMock	-3981
Co	-3982
Gr	-3983
dk	-3984
Ali	-3985
bar	-3986
oft	-3987
▁AR	-3988
rier	-3989
▁ing	-3990
▁lia	-3991
▁HTTP	-3992
▁pool	-3993
encies	-3994
version	-3995
▁engine	-3996
Fragment	-3997
ensitive	-3998
▁actions	-3999
▁storage	-4000
▁generator	-4001
StringArray	-4002
FER	-4003
cat	-4004
lot	-4005
▁COS	-4006
SPACE	-4007
▁Code	-4008
AsString	-4009
▁getFull	-4010
▁getHeight	-4011
12254608065	-4012
▁ByteBuffer	-4013
▁thenReturn	-4014
fs	-4015
ys	-4016
TES	-4017
agn	-4018
rie	-4019
Rows	-4020
olog	-4021
▁Flu	-4022
LIENT	-4023
ucene	-4024
▁coer	-4025
Global	-4026
▁mirror	-4027
▁SNodeId	-4028
▁VERSION	-4029
TypeError	-4030
▁getModule	-4031
12282695577	-4032
▁getSelected	-4033
BE	-4034
LY	-4035
au	-4036
904	-4037
Jar	-4038
▁RO	-4039
▁mi	-4040
6484	-4041
RENT	-4042
anit	-4043
lick	-4044
ores	-4045
▁500	-4046
▁ids	-4047
▁rem	-4048
Activ	-4049
amily	-4050
ancel	-4051
▁JDBC	-4052
▁STAT	-4053
▁menu	-4054
▁that	-4055
Weight	-4056
▁async	-4057
▁scale	-4058
▁Future	-4059
▁Plugin	-4060
▁GCEvent	-4061
▁Dependency	-4062
▁contentType	-4063
SY	-4064
ias	-4065
lin	-4066
▁LE	-4067
Post	-4068
Real	-4069
▁Mem	-4070
GROUP	-4071
quare	-4072
▁CONT	-4073
▁RULE	-4074
▁head	-4075
▁tool	-4076
Player	-4077
dential	-4078
▁caller	-4079
Declared	-4080
▁UNKNOWN	-4081
▁catalog	-4082
▁monitor	-4083
Formatter	-4084
Qualified	-4085
▁newValue	-4086
▁BigDecimal	-4087
SubstituteInfo	-4088
tax	-4089
▁cp	-4090
CESS	-4091
etwe	-4092
lice	-4093
▁SER	-4094
buted	-4095
field	-4096
inate	-4097
▁rval	-4098
Scroll	-4099
▁Files	-4100
▁batch	-4101
▁getSh	-4102
▁refer	-4103
▁Atomic	-4104
▁getRow	-4105
▁spring	-4106
Contents	-4107
MetaData	-4108
TestUtil	-4109
ByteArray	-4110
Connector	-4111
▁Location	-4112
▁Neighbor	-4113
▁getIndex	-4114
Quotations	-4115
_12161583692	-4116
▁getComponent	-4117
lf	-4118
LOAD	-4119
olyg	-4120
▁Not	-4121
Paint	-4122
▁Tool	-4123
▁poll	-4124
istics	-4125
orrect	-4126
▁MILLI	-4127
▁Matcher	-4128
▁manager	-4129
▁delegate	-4130
▁getWidth	-4131
▁andReturn	-4132
▁concurrent	-4133
_12254603013	-4134
▁getColumnNo	-4135
▁interceptor	-4136
BC	-4137
ym	-4138
Fac	-4139
Hex	-4140
vid	-4141
Zone	-4142
▁Str	-4143
▁avm	-4144
erval	-4145
ettle	-4146
stroy	-4147
ertype	-4148
quival	-4149
▁parts	-4150
▁theme	-4151
Strings	-4152
ibility	-4153
mmediate	-4154
▁CONTENT	-4155
▁Database	-4156
▁getStart	-4157
▁interval	-4158
▁getGroupId	-4159
▁setMessage	-4160
BagConstraints	-4161
▁ExpectNewDemo	-4162
▁createComponent	-4163
CLE	-4164
NAL	-4165
Syn	-4166
gor	-4167
▁40	-4168
9850	-4169
Jobs	-4170
VICE	-4171
atas	-4172
ular	-4173
unch	-4174
▁MPS	-4175
▁RES	-4176
▁ele	-4177
▁pet	-4178
Fixed	-4179
Right	-4180
igest	-4181
▁over	-4182
▁trig	-4183
adding	-4184
ferred	-4185
gorith	-4186
Forward	-4187
MESSAGE	-4188
Metrics	-4189
Tracker	-4190
typevar	-4191
▁Status	-4192
▁XField	-4193
▁driver	-4194
▁tested	-4195
▁getEntity	-4196
OP	-4197
VO	-4198
top	-4199
Prev	-4200
Wait	-4201
mail	-4202
ouse	-4203
▁DIS	-4204
▁VAR	-4205
angle	-4206
ernel	-4207
istri	-4208
lator	-4209
ByName	-4210
olygon	-4211
▁Basic	-4212
▁shard	-4213
Account	-4214
concept	-4215
olation	-4216
Modified	-4217
formation	-4218
▁injector	-4219
▁getSession	-4220
▁ClassDescriptor	-4221
21	-4222
Tx	-4223
806	-4224
ian	-4225
VENT	-4226
SSION	-4227
▁bind	-4228
Common	-4229
etween	-4230
▁topic	-4231
Priority	-4232
▁forFull	-4233
Structure	-4234
▁Material	-4235
▁packageName	-4236
▁verifyImport	-4237
GB	-4238
tf	-4239
573	-4240
IFI	-4241
IND	-4242
REN	-4243
_82	-4244
▁ws	-4245
ixed	-4246
pell	-4247
▁abs	-4248
▁isD	-4249
11395	-4250
Descr	-4251
atile	-4252
ected	-4253
rigin	-4254
▁perm	-4255
ublish	-4256
Javadoc	-4257
Seconds	-4258
▁Module	-4259
▁isNull	-4260
▁release	-4261
▁Constant	-4262
▁DateTime	-4263
▁Parameter	-4264
Destination	-4265
▁MILLISECONDS	-4266
▁addReference	-4267
▁forCheckpoint	-4268
hm	-4269
▁ds	-4270
CONT	-4271
Serv	-4272
ault	-4273
rite	-4274
▁908	-4275
▁foo	-4276
▁jar	-4277
63914	-4278
ambda	-4279
witch	-4280
▁flag	-4281
226484	-4282
▁shell	-4283
ignment	-4284
▁Widget	-4285
▁native	-4286
▁suffix	-4287
11652712	-4288
Ancestor	-4289
_1563914	-4290
▁account	-4291
▁getByte	-4292
▁getSize	-4293
▁success	-4294
▁getToken	-4295
▁getHeader	-4296
▁structure	-4297
Instruction	-4298
▁Comparable	-4299
Registration	-4300
BuilderFactory	-4301
_1563914226484	-4302
▁LoggerFactory	-4303
▁reportTypeError	-4304
02	-4305
Idle	-4306
aver	-4307
Fetch	-4308
▁SIZE	-4309
▁spec	-4310
Vertex	-4311
▁Stack	-4312
▁REQUEST	-4313
_11652712	-4314
component	-4315
▁Pipeline	-4316
▁operator	-4317
▁classLoader	-4318
▁setAttribute	-4319
OperationContext	-4320
di	-4321
rs	-4322
PEN	-4323
Sort	-4324
This	-4325
onar	-4326
_1197	-4327
idden	-4328
▁mode	-4329
Finder	-4330
ceived	-4331
▁World	-4332
Charset	-4333
AsStream	-4334
qMethods	-4335
▁trigger	-4336
UpperCase	-4337
istributed	-4338
izedMessage	-4339
▁visitToken	-4340
_12254608064	-4341
iod	-4342
▁PI	-4343
▁tw	-4344
Bind	-4345
Hand	-4346
gger	-4347
▁dev	-4348
▁img	-4349
32930	-4350
BJECT	-4351
aunch	-4352
ducer	-4353
istor	-4354
▁peek	-4355
DESCRI	-4356
Regexp	-4357
▁aName	-4358
▁flush	-4359
▁getDe	-4360
▁inner	-4361
imeType	-4362
olution	-4363
▁domain	-4364
Analysis	-4365
Injector	-4366
QuickFix	-4367
ToString	-4368
▁Mapping	-4369
▁WARNING	-4370
▁getError	-4371
▁getStatus	-4372
▁Authentication	-4373
75	-4374
▁Q	-4375
528	-4376
DIR	-4377
def	-4378
uli	-4379
Anim	-4380
CHAR	-4381
azel	-4382
lack	-4383
▁cre	-4384
▁FILE	-4385
GetAll	-4386
agnost	-4387
licate	-4388
▁Order	-4389
▁PARAM	-4390
REQUEST	-4391
▁Editor	-4392
▁Routes	-4393
▁setMax	-4394
Detector	-4395
FilePath	-4396
1182191264	-4397
Invocation	-4398
▁getServer	-4399
12254608064	-4400
_12282695574	-4401
▁isInstanceOf	-4402
FQ	-4403
ACK	-4404
ASK	-4405
▁HE	-4406
▁ai	-4407
▁ip	-4408
roov	-4409
▁AST	-4410
▁COL	-4411
▁PRE	-4412
▁Php	-4413
▁ioe	-4414
Agent	-4415
▁TEST	-4416
Points	-4417
▁aLine	-4418
CONNECT	-4419
eration	-4420
▁bundle	-4421
oucePool	-4422
▁require	-4423
Resources	-4424
12254603012	-4425
12254608062	-4426
_12254608065	-4427
oucePoolGetAll	-4428
▁ResponseEntity	-4429
▁getClassLoader	-4430
Ar	-4431
ii	-4432
IGN	-4433
Idx	-4434
ORM	-4435
▁SC	-4436
9791	-4437
Iter	-4438
gram	-4439
▁600	-4440
▁SWF	-4441
▁Sup	-4442
▁are	-4443
ARRAY	-4444
Paths	-4445
ments	-4446
▁Menu	-4447
▁Solr	-4448
▁fire	-4449
Domain	-4450
▁Activ	-4451
▁timer	-4452
Network	-4453
Private	-4454
gorithm	-4455
▁getRaw	-4456
▁notify	-4457
Accessor	-4458
▁Concept	-4459
▁charset	-4460
▁getRoot	-4461
▁pipeline	-4462
▁candidate	-4463
▁configure	-4464
_1225460807	-4465
▁additional	-4466
_12254603012	-4467
▁Constructor	-4468
▁instruction	-4469
ACT	-4470
RED	-4471
box	-4472
mit	-4473
4022	-4474
BASE	-4475
ENER	-4476
Many	-4477
▁Bit	-4478
84750	-4479
Owner	-4480
Tuple	-4481
agger	-4482
known	-4483
roovy	-4484
▁NONE	-4485
▁juli	-4486
▁TRANS	-4487
▁setId	-4488
Equival	-4489
Missing	-4490
_829791	-4491
istoric	-4492
▁author	-4493
roadcast	-4494
▁support	-4495
▁extension	-4496
_82979184750	-4497
▁wordRelation	-4498
EC	-4499
107	-4500
IOD	-4501
▁CO	-4502
Join	-4503
STAT	-4504
PARAM	-4505
Route	-4506
istic	-4507
sktop	-4508
value	-4509
▁TEXT	-4510
▁Unit	-4511
Active	-4512
ENABLED	-4513
connect	-4514
▁Kettle	-4515
▁loader	-4516
▁getItem	-4517
avigation	-4518
Generation	-4519
▁Reflection	-4520
▁stringValue	-4521
ls	-4522
me	-4523
825	-4524
CUR	-4525
▁ZL	-4526
Rate	-4527
ahoo	-4528
roid	-4529
▁swf	-4530
riend	-4531
▁MODE	-4532
▁inte	-4533
▁pair	-4534
654247	-4535
▁asset	-4536
Runtime	-4537
▁receiver	-4538
▁variables	-4539
12254603017	-4540
▁definition	-4541
UTH	-4542
▁UT	-4543
ADER	-4544
Stmt	-4545
rift	-4546
Delay	-4547
TRIBU	-4548
acing	-4549
aller	-4550
ctions	-4551
dicate	-4552
▁clean	-4553
▁yahoo	-4554
ertical	-4555
▁lucene	-4556
▁retVal	-4557
▁scroll	-4558
redicate	-4559
▁Version	-4560
▁compute	-4561
framework	-4562
▁duration	-4563
▁getInput	-4564
▁throwable	-4565
▁setEnabled	-4566
Subscription	-4567
_12282695577	-4568
▁errorMessage	-4569
▁getNamespace	-4570
48	-4571
ds	-4572
Off	-4573
ift	-4574
▁On	-4575
▁ts	-4576
8074	-4577
anel	-4578
ccur	-4579
last	-4580
▁net	-4581
▁win	-4582
Meter	-4583
allel	-4584
pings	-4585
store	-4586
▁Post	-4587
ACTION	-4588
Custom	-4589
▁DEBUG	-4590
▁getIs	-4591
agement	-4592
▁APPLIC	-4593
▁getApp	-4594
▁screen	-4595
entifier	-4596
▁mIgnore	-4597
▁getResult	-4598
▁JSONObject	-4599
▁getAddress	-4600
MB	-4601
PI	-4602
cp	-4603
fd	-4604
Bad	-4605
Eff	-4606
IME	-4607
cut	-4608
Disc	-4609
Uuid	-4610
When	-4611
ifec	-4612
▁uid	-4613
Quote	-4614
▁Spar	-4615
Failed	-4616
Public	-4617
imiter	-4618
▁Contr	-4619
▁bound	-4620
Indices	-4621
Matches	-4622
▁getMap	-4623
▁master	-4624
▁widget	-4625
PROPERTY	-4626
ifecycle	-4627
▁immediate	-4628
11650057052	-4629
12254603011	-4630
▁getDescription	-4631
RU	-4632
qn	-4633
373	-4634
Leg	-4635
▁ca	-4636
Home	-4637
_116	-4638
▁non	-4639
ColNo	-4640
ITIVE	-4641
▁getN	-4642
▁lval	-4643
▁peer	-4644
Insert	-4645
▁getLe	-4646
Problem	-4647
▁assume	-4648
▁getUrl	-4649
▁thrift	-4650
▁connect	-4651
▁forEach	-4652
▁methods	-4653
▁drawable	-4654
▁registry	-4655
▁setString	-4656
11654209360	-4657
Equivalence	-4658
01	-4659
8_	-4660
AC	-4661
▁ab	-4662
▁cr	-4663
1216	-4664
DENT	-4665
MPLE	-4666
Main	-4667
lers	-4668
mbed	-4669
▁NUM	-4670
▁sun	-4671
Alias	-4672
Rules	-4673
▁Case	-4674
▁READ	-4675
▁html	-4676
▁stmt	-4677
scribe	-4678
▁Meter	-4679
Replace	-4680
reshold	-4681
▁Upload	-4682
▁analyz	-4683
▁mAllow	-4684
Expected	-4685
Supplier	-4686
uplicate	-4687
▁CONTAIN	-4688
▁aParent	-4689
Arguments	-4690
Qualifier	-4691
▁Detector	-4692
▁Template	-4693
▁migrated	-4694
▁ClassNode	-4695
▁controller	-4696
_12254608062	-4697
▁getConstant	-4698
_829791847503	-4699
▁getCanonical	-4700
Representation	-4701
619	-4702
662	-4703
FIN	-4704
KET	-4705
OFF	-4706
lex	-4707
3820	-4708
EXCE	-4709
LECT	-4710
MODE	-4711
Side	-4712
refs	-4713
▁DBN	-4714
Brace	-4715
▁LINE	-4716
ocator	-4717
▁CLASS	-4718
▁Range	-4719
▁sonar	-4720
Barrier	-4721
Invalid	-4722
NonNull	-4723
▁checks	-4724
_1213877	-4725
ingClass	-4726
uggester	-4727
▁classes	-4728
▁analysis	-4729
▁priority	-4730
▁shutdown	-4731
▁getDatabase	-4732
▁getLanguage	-4733
▁OutputStream	-4734
▁LinkedHashSet	-4735
ExecutorService	-4736
tw	-4737
Bit	-4738
Gap	-4739
LOC	-4740
Sec	-4741
adi	-4742
ipp	-4743
now	-4744
▁24	-4745
▁dd	-4746
FFER	-4747
RITE	-4748
▁DOM	-4749
▁SSL	-4750
▁Ver	-4751
▁dst	-4752
▁lib	-4753
ARGET	-4754
CLOSE	-4755
Focus	-4756
Layer	-4757
Plane	-4758
▁getY	-4759
Models	-4760
agraph	-4761
Members	-4762
▁JLabel	-4763
▁folder	-4764
▁lambda	-4765
ReadOnly	-4766
azelcast	-4767
▁TreeMap	-4768
▁disable	-4769
▁isStatic	-4770
▁springframework	-4771
76	-4772
END	-4773
Two	-4774
arg	-4775
Flow	-4776
Mask	-4777
imel	-4778
▁ALL	-4779
▁Mon	-4780
Scale	-4781
Shape	-4782
coder	-4783
ixels	-4784
▁TRUE	-4785
▁help	-4786
Single	-4787
adient	-4788
▁delta	-4789
▁pager	-4790
Catalog	-4791
GCEvent	-4792
Upgrade	-4793
▁METHOD	-4794
▁replay	-4795
Complete	-4796
Duration	-4797
rimitive	-4798
▁GraphQL	-4799
▁adaptor	-4800
▁extract	-4801
▁payload	-4802
▁refresh	-4803
ClassPath	-4804
Signature	-4805
Transport	-4806
▁encoding	-4807
1214477655	-4808
Resolution	-4809
▁ClassName	-4810
▁Predicate	-4811
▁returnType	-4812
ConceptFqName	-4813
EquivalenceUtil	-4814
wt	-4815
ARD	-4816
ERO	-4817
ces	-4818
khm	-4819
lav	-4820
ulk	-4821
▁11	-4822
▁JS	-4823
▁pl	-4824
▁tp	-4825
COPE	-4826
Loop	-4827
thes	-4828
urly	-4829
▁SAX	-4830
Break	-4831
Edges	-4832
istog	-4833
▁INTER	-4834
▁Point	-4835
▁retry	-4836
▁round	-4837
Adaptor	-4838
Minimum	-4839
imeline	-4840
Unsigned	-4841
istogram	-4842
▁identity	-4843
▁material	-4844
▁putValue	-4845
_11650057052	-4846
▁Environment	-4847
▁ValueNumber	-4848
▁subscription	-4849
dc	-4850
eo	-4851
lt	-4852
Err	-4853
PAT	-4854
▁CR	-4855
ENCE	-4856
▁DFS	-4857
TRANS	-4858
UBLIC	-4859
▁Pojo	-4860
▁Step	-4861
Amount	-4862
Metric	-4863
ampler	-4864
ataset	-4865
gGraph	-4866
letion	-4867
▁aggreg	-4868
▁struct	-4869
Optional	-4870
Receiver	-4871
dentials	-4872
tachment	-4873
▁Company	-4874
▁getPage	-4875
▁Internal	-4876
▁testStep	-4877
▁Reference	-4878
▁RuleMatch	-4879
▁portletId	-4880
_1228269558	-4881
▁Repository	-4882
ActiongGraph	-4883
ErrorMessage	-4884
▁actionRequest	-4885
▁CommandContext	-4886
_9	-4887
404	-4888
Buf	-4889
Dbg	-4890
Pop	-4891
UMN	-4892
alk	-4893
umb	-4894
Prot	-4895
WORD	-4896
ourn	-4897
▁256	-4898
▁DBP	-4899
▁UTF	-4900
▁low	-4901
Timer	-4902
▁Flux	-4903
▁Util	-4904
▁self	-4905
Aggreg	-4906
Family	-4907
Master	-4908
formed	-4909
Between	-4910
Compile	-4911
Measure	-4912
Records	-4913
▁getMin	-4914
▁single	-4915
Dispatch	-4916
Platform	-4917
▁nextInt	-4918
▁ClassNot	-4919
▁printDbg	-4920
▁progress	-4921
▁schedule	-4922
_121447837	-4923
▁dependency	-4924
PH	-4925
_5	-4926
252	-4927
842	-4928
855	-4929
900	-4930
937	-4931
ANG	-4932
pmn	-4933
▁GL	-4934
Exit	-4935
RECT	-4936
card	-4937
pean	-4938
trib	-4939
▁SNQ	-4940
CKAGE	-4941
Merge	-4942
dated	-4943
▁Word	-4944
CONFIG	-4945
RESULT	-4946
_11395	-4947
▁Input	-4948
▁Opean	-4949
▁times	-4950
riendly	-4951
▁direct	-4952
▁routes	-4953
DateTime	-4954
▁commons	-4955
▁isValid	-4956
▁operand	-4957
ArrayList	-4958
odifiable	-4959
▁Identity	-4960
▁Opeanapi	-4961
▁addValue	-4962
▁mCurrent	-4963
▁volatile	-4964
1225460806	-4965
▁Statement	-4966
▁getAdapter	-4967
▁getServlet	-4968
▁parentType	-4969
▁snqMethods	-4970
▁getRequired	-4971
▁inputStream	-4972
▁noImplement	-4973
▁toUpperCase	-4974
▁ParseException	-4975
ServiceReference	-4976
gb	-4977
xa	-4978
846	-4979
oon	-4980
▁PO	-4981
▁UP	-4982
1164	-4983
CEPT	-4984
▁Ext	-4985
▁pkg	-4986
▁ssl	-4987
Latch	-4988
▁Expr	-4989
▁Page	-4990
ournal	-4991
▁aStart	-4992
▁global	-4993
▁getEdge	-4994
▁elements	-4995
▁existing	-4996
▁gcViewer	-4997
▁Operation	-4998
▁singleton	-4999
▁Transition	-5000
▁ActivityImpl	-5001
EP	-5002
ij	-5003
384	-5004
794	-5005
ero	-5006
▁AN	-5007
▁PD	-5008
ally	-5009
ctor	-5010
pted	-5011
ures	-5012
▁0.5	-5013
▁isC	-5014
▁jna	-5015
▁kel	-5016
Decor	-5017
_1240	-5018
ctual	-5019
ondro	-5020
▁Edge	-5021
▁Font	-5022
▁INFO	-5023
▁down	-5024
▁exit	-5025
▁scan	-5026
icator	-5027
▁CONST	-5028
▁Chain	-5029
▁aText	-5030
▁coerced	-5031
▁history	-5032
▁kelondro	-5033
▁typeName	-5034
▁companyId	-5035
▁increment	-5036
Information	-5037
▁getProcess	-5038
▁permission	-5039
▁setSelected	-5040
▁EntityManager	-5041
▁getAnnotation	-5042
▁getLineNumber	-5043
ARK	-5044
BLE	-5045
ILE	-5046
URN	-5047
__0	-5048
▁13	-5049
▁eq	-5050
1078	-5051
Sink	-5052
cell	-5053
clus	-5054
▁acc	-5055
adoop	-5056
otype	-5057
▁BASE	-5058
▁Find	-5059
▁getI	-5060
▁mMax	-5061
Border	-5062
amples	-5063
ialect	-5064
▁Asset	-5065
▁getBe	-5066
▁paths	-5067
▁route	-5068
TestCase	-5069
▁working	-5070
▁Criteria	-5071
▁MenuItem	-5072
▁TestTools	-5073
Definitions	-5074
InfoEnabled	-5075
▁CommonUtils	-5076
▁coercedNode	-5077
▁setResponse	-5078
Ab	-5079
RID	-5080
ins	-5081
kit	-5082
▁18	-5083
▁AT	-5084
▁ec	-5085
▁mk	-5086
▁ui	-5087
Eval	-5088
ICON	-5089
QUER	-5090
TEST	-5091
abil	-5092
aris	-5093
auth	-5094
▁TAG	-5095
▁Top	-5096
Aware	-5097
Parts	-5098
gnite	-5099
▁Icon	-5100
▁Lock	-5101
▁Read	-5102
PERIOD	-5103
stream	-5104
▁Person	-5105
▁button	-5106
▁member	-5107
MimeType	-5108
agnostic	-5109
▁aFormat	-5110
▁display	-5111
▁Activiti	-5112
▁getBlock	-5113
VersionUID	-5114
▁Composite	-5115
▁createNew	-5116
▁wrapThrow	-5117
Insensitive	-5118
▁BugInstance	-5119
▁unsupported	-5120
▁JavadocParser	-5121
▁isInfoEnabled	-5122
▁commandContext	-5123
IF	-5124
575	-5125
Age	-5126
USE	-5127
day	-5128
▁Al	-5129
▁Db	-5130
4783	-5131
9539	-5132
DATA	-5133
Fore	-5134
More	-5135
Span	-5136
ired	-5137
umul	-5138
with	-5139
▁Jpa	-5140
▁Sus	-5141
▁one	-5142
Topic	-5143
adius	-5144
enter	-5145
▁Fail	-5146
Delete	-5147
Escape	-5148
METHOD	-5149
Remote	-5150
1088613	-5151
IZATION	-5152
_118640	-5153
Readings	-5154
Vertical	-5155
anitizer	-5156
▁Subject	-5157
▁destroy	-5158
▁suggest	-5159
▁distance	-5160
▁getImage	-5161
Background	-5162
Processing	-5163
TokenTypes	-5164
▁condition	-5165
▁ModelReader	-5166
▁getDeclared	-5167
▁invokeSuper	-5168
▁currentThread	-5169
▁BufferedReader	-5170
OK	-5171
SU	-5172
ks	-5173
995	-5174
YLE	-5175
orn	-5176
▁14	-5177
Attr	-5178
LONG	-5179
TERN	-5180
itel	-5181
sule	-5182
▁DBD	-5183
CHECK	-5184
Coord	-5185
ORITY	-5186
Words	-5187
abeld	-5188
index	-5189
itial	-5190
Enable	-5191
Export	-5192
enured	-5193
▁Named	-5194
1214480	-5195
Enabeld	-5196
Threads	-5197
Writable	-5198
ecutable	-5199
▁FileNot	-5200
▁INVALID	-5201
▁filters	-5202
▁notNull	-5203
▁getCount	-5204
▁getTotal	-5205
Dictionary	-5206
12254603015	-5207
_1225460806	-5208
amelContext	-5209
▁getPosition	-5210
▁toByteArray	-5211
▁getIsNamespace	-5212
LocalServiceUtil	-5213
▁verifyException	-5214
36	-5215
bt	-5216
fu	-5217
509	-5218
Alt	-5219
hip	-5220
oss	-5221
ous	-5222
▁64	-5223
0072	-5224
HOST	-5225
atio	-5226
chor	-5227
▁255	-5228
▁300	-5229
▁dep	-5230
▁php	-5231
Cause	-5232
Cells	-5233
arted	-5234
icker	-5235
▁Mvcs	-5236
▁Term	-5237
007237	-5238
118640	-5239
_12012	-5240
▁annot	-5241
▁marsh	-5242
Checked	-5243
Trigger	-5244
▁OBJECT	-5245
▁Render	-5246
▁device	-5247
▁weight	-5248
79007237	-5249
TypeName	-5250
ferences	-5251
▁getCode	-5252
Available	-5253
▁deserial	-5254
▁getLength	-5255
12254608070	-5256
▁Comparator	-5257
▁fieldValue	-5258
DefaultValue	-5259
SecurityManager	-5260
PL	-5261
LIR	-5262
ONT	-5263
PLA	-5264
TRA	-5265
eep	-5266
▁SU	-5267
▁nr	-5268
▁rb	-5269
RULE	-5270
aled	-5271
raft	-5272
▁NEW	-5273
▁sec	-5274
LIRBu	-5275
ORDER	-5276
Recie	-5277
_4855	-5278
etter	-5279
olver	-5280
uting	-5281
▁INVO	-5282
▁Mode	-5283
▁PROP	-5284
▁curr	-5285
▁setD	-5286
Upload	-5287
config	-5288
gnored	-5289
▁Media	-5290
▁Multi	-5291
▁lower	-5292
▁shape	-5293
9044783	-5294
Browser	-5295
Without	-5296
ression	-5297
▁Portal	-5298
▁getJob	-5299
iderTool	-5300
▁control	-5301
ositories	-5302
▁Argument	-5303
▁Modifier	-5304
▁aCurrent	-5305
▁disambig	-5306
▁getLabel	-5307
▁logError	-5308
▁platform	-5309
▁sentence	-5310
▁NodeLIRBu	-5311
▁signature	-5312
12144783770	-5313
_1182191264	-5314
▁getDisplay	-5315
_48559044783	-5316
▁getResponse	-5317
▁Subscription	-5318
NO	-5319
by	-5320
884	-5321
Hit	-5322
ILD	-5323
KEN	-5324
▁31	-5325
ALSE	-5326
Docs	-5327
Such	-5328
Sync	-5329
llij	-5330
ongo	-5331
oost	-5332
▁ens	-5333
▁psi	-5334
Admin	-5335
gener	-5336
▁Link	-5337
▁calc	-5338
114022	-5339
CONTRO	-5340
gative	-5341
reater	-5342
▁ORDER	-5343
▁mkdir	-5344
▁realm	-5345
▁where	-5346
mbedded	-5347
▁finish	-5348
Capacity	-5349
Specific	-5350
▁android	-5351
▁getBase	-5352
▁Analysis	-5353
▁Validator	-5354
▁framework	-5355
▁getClient	-5356
▁translator	-5357
_12254608070	-5358
▁doubleValue	-5359
160	-5360
508	-5361
620	-5362
OLD	-5363
8210	-5364
FACT	-5365
NODE	-5366
Pojo	-5367
Send	-5368
TURN	-5369
acle	-5370
lyph	-5371
uses	-5372
ylin	-5373
▁NOT	-5374
▁bar	-5375
▁lat	-5376
▁rot	-5377
▁und	-5378
Apply	-5379
EVENT	-5380
ORMAL	-5381
bserv	-5382
PECTED	-5383
arning	-5384
okemon	-5385
▁flags	-5386
▁fname	-5387
▁latch	-5388
Decoder	-5389
History	-5390
Illegal	-5391
▁Inject	-5392
▁Remote	-5393
Contains	-5394
PRIORITY	-5395
Redirect	-5396
▁aIndent	-5397
▁created	-5398
▁measure	-5399
Threshold	-5400
▁addError	-5401
▁complete	-5402
QueryParam	-5403
▁PropsKeys	-5404
▁isPresent	-5405
▁remaining	-5406
▁serverLog	-5407
Transformer	-5408
▁CacheModel	-5409
▁invocation	-5410
▁getActivity	-5411
▁organization	-5412
▁ServletContext	-5413
▁CaseInsensitive	-5414
ty	-5415
808	-5416
864	-5417
ADD	-5418
eed	-5419
erc	-5420
▁bl	-5421
▁fc	-5422
▁ok	-5423
Skip	-5424
sets	-5425
used	-5426
▁Syn	-5427
▁enc	-5428
33950	-5429
Asset	-5430
Realm	-5431
▁Cast	-5432
▁Html	-5433
▁Inet	-5434
▁Sort	-5435
▁diff	-5436
▁face	-5437
▁getX	-5438
▁seen	-5439
Device	-5440
orning	-5441
▁getSt	-5442
▁getUn	-5443
▁isNot	-5444
▁netty	-5445
▁point	-5446
▁usage	-5447
Closure	-5448
Filters	-5449
Subject	-5450
▁Global	-5451
▁getSup	-5452
▁memory	-5453
▁reason	-5454
▁binding	-5455
▁invalid	-5456
▁returns	-5457
▁testGet	-5458
▁intellij	-5459
ClassNames	-5460
▁CONTAINER	-5461
▁XMLWriter	-5462
▁serialize	-5463
▁setHeader	-5464
▁arrayArray	-5465
▁assumeTrue	-5466
▁createMock	-5467
_11654209360	-5468
_12254603015	-5469
▁NullPointer	-5470
▁getResources	-5471
▁checkArgument	-5472
▁disambiguation	-5473
DD	-5474
El	-5475
354	-5476
TRY	-5477
eOp	-5478
olt	-5479
▁25	-5480
▁by	-5481
3763	-5482
9313	-5483
atic	-5484
▁dto	-5485
Inner	-5486
Other	-5487
Outer	-5488
PAREN	-5489
Phase	-5490
Print	-5491
START	-5492
UMENT	-5493
Users	-5494
Watch	-5495
going	-5496
licit	-5497
▁done	-5498
CLIENT	-5499
Exists	-5500
Normal	-5501
Stroke	-5502
create	-5503
▁ExeOp	-5504
▁Tuple	-5505
▁force	-5506
▁mRule	-5507
▁quote	-5508
▁slice	-5509
Summary	-5510
iration	-5511
▁Mutable	-5512
▁network	-5513
▁setLong	-5514
Publisher	-5515
▁Instance	-5516
▁OStorage	-5517
▁getScope	-5518
TypesOffset	-5519
▁DetailNode	-5520
▁XMLHandler	-5521
▁comparator	-5522
▁APPLICATION	-5523
▁isDirectory	-5524
RequestHeader	-5525
ModelDescriptor	-5526
xx	-5527
922	-5528
944	-5529
ANK	-5530
Pla	-5531
lem	-5532
▁IM	-5533
▁TO	-5534
▁ms	-5535
▁rc	-5536
Fill	-5537
Peer	-5538
Trie	-5539
boss	-5540
orer	-5541
peed	-5542
▁Dat	-5543
ILURE	-5544
Maker	-5545
Stamp	-5546
Tests	-5547
_1078	-5548
atest	-5549
leted	-5550
olved	-5551
▁prin	-5552
FQName	-5553
Sorted	-5554
Tester	-5555
viders	-5556
▁alloc	-5557
▁jboss	-5558
▁maven	-5559
▁tasks	-5560
Configs	-5561
Creator	-5562
Operand	-5563
ucumber	-5564
▁NoSuch	-5565
▁prompt	-5566
Previous	-5567
▁article	-5568
▁getProp	-5569
Direction	-5570
TestSuite	-5571
isibility	-5572
▁DateFormat	-5573
▁getTargets	-5574
▁constraints	-5575
71	-5576
IR	-5577
008	-5578
BAL	-5579
NUM	-5580
UTE	-5581
__1	-5582
oad	-5583
USER	-5584
ways	-5585
▁ABC	-5586
▁ACC	-5587
▁Del	-5588
▁Env	-5589
▁Gau	-5590
▁Man	-5591
▁mon	-5592
Links	-5593
other	-5594
otion	-5595
▁addC	-5596
▁edit	-5597
▁hand	-5598
▁home	-5599
▁sink	-5600
Suffix	-5601
▁isSub	-5602
▁panel	-5603
▁stats	-5604
CONTENT	-5605
Execute	-5606
handler	-5607
▁Indent	-5608
▁putAll	-5609
_1214480	-5610
▁NkColor	-5611
▁Virtual	-5612
▁onError	-5613
Algorithm	-5614
▁isCompat	-5615
▁mOptions	-5616
▁ODocument	-5617
▁Timestamp	-5618
▁expectNew	-5619
rganization	-5620
▁PsiElement	-5621
▁SModelUtil	-5622
▁PrintWriter	-5623
▁processEngine	-5624
▁SizeExpression	-5625
AF	-5626
ux	-5627
007	-5628
638	-5629
CLA	-5630
Enc	-5631
MIT	-5632
ROM	-5633
Tip	-5634
eak	-5635
▁dl	-5636
▁nk	-5637
6564	-5638
QUAL	-5639
RUCT	-5640
Show	-5641
_846	-5642
udio	-5643
▁EOL	-5644
▁MET	-5645
▁age	-5646
92654	-5647
INDEX	-5648
Times	-5649
ables	-5650
group	-5651
lated	-5652
ology	-5653
AndGet	-5654
Widget	-5655
▁mLine	-5656
3293047	-5657
TRIBUTE	-5658
clusive	-5659
▁Button	-5660
▁Create	-5661
▁JMeter	-5662
▁Vertex	-5663
▁dialog	-5664
▁getMet	-5665
▁locked	-5666
11767180	-5667
Iterable	-5668
Required	-5669
▁JOption	-5670
▁ORecord	-5671
▁visible	-5672
▁Position	-5673
▁filePath	-5674
▁getState	-5675
▁numberOf	-5676
yQualified	-5677
▁Dimension	-5678
▁Processor	-5679
▁collector	-5680
▁getOffset	-5681
▁loadClass	-5682
▁DataStream	-5683
_12254603017	-5684
ingException	-5685
▁JOptionPane	-5686
▁accessToken	-5687
▁getAncestor	-5688
▁getLocation	-5689
▁parseResult	-5690
▁expectMessage	-5691
▁streamFactory	-5692
ConceptProperty	-5693
he	-5694
Dot	-5695
cfo	-5696
lap	-5697
▁IS	-5698
▁mt	-5699
1591	-5700
cfoj	-5701
ench	-5702
just	-5703
lust	-5704
stim	-5705
▁Exp	-5706
▁PER	-5707
TYPES	-5708
eeded	-5709
▁cube	-5710
▁vert	-5711
Nested	-5712
Setter	-5713
ighter	-5714
istrib	-5715
rivile	-5716
▁Audit	-5717
▁FALSE	-5718
▁INDEX	-5719
▁Types	-5720
Imports	-5721
licable	-5722
lusters	-5723
▁Direct	-5724
▁STATUS	-5725
▁Cluster	-5726
▁entries	-5727
Utilities	-5728
▁KeyValue	-5729
▁enumForm	-5730
MultipleOr	-5731
Multiplier	-5732
ThreadPool	-5733
▁getSystem	-5734
▁processor	-5735
_12282695582	-5736
▁Enumeration	-5737
▁getTimestamp	-5738
▁headerLength	-5739
▁groupGraphics	-5740
▁FileInputStream	-5741
▁ReflectionUtils	-5742
07	-5743
3.	-5744
Ev	-5745
GN	-5746
627	-5747
994	-5748
EXC	-5749
Has	-5750
Pet	-5751
RGB	-5752
SCA	-5753
ten	-5754
web	-5755
xff	-5756
Rele	-5757
_300	-5758
elen	-5759
rase	-5760
▁Dao	-5761
▁unm	-5762
Chars	-5763
OutOf	-5764
TABLE	-5765
avers	-5766
strap	-5767
▁5000	-5768
▁coll	-5769
▁dist	-5770
▁move	-5771
Altern	-5772
ential	-5773
lastic	-5774
▁IDENT	-5775
▁Timer	-5776
AllJobs	-5777
CONTROL	-5778
Contain	-5779
Primary	-5780
allback	-5781
defined	-5782
▁hadoop	-5783
TextArea	-5784
ootstrap	-5785
riterion	-5786
▁isBlank	-5787
▁matched	-5788
▁printil	-5789
▁safeGet	-5790
CellModel	-5791
EXCEPTION	-5792
Scheduler	-5793
Serialize	-5794
orization	-5795
▁Listener	-5796
▁consumer	-5797
▁getCache	-5798
▁getQuery	-5799
▁selection	-5800
▁DataSource	-5801
▁Validation	-5802
▁WorldPoint	-5803
Notification	-5804
▁ActionEvent	-5805
▁Persistence	-5806
_829791847503320	-5807
fh	-5808
100	-5809
105	-5810
133	-5811
AVM	-5812
ogn	-5813
req	-5814
▁Co	-5815
▁cb	-5816
ATED	-5817
Html	-5818
hook	-5819
item	-5820
mise	-5821
▁BOO	-5822
▁gwt	-5823
12012	-5824
ippet	-5825
match	-5826
▁Soot	-5827
▁Trie	-5828
▁best	-5829
▁dump	-5830
BUFFER	-5831
Branch	-5832
DIRECT	-5833
Defined	-5834
Keyword	-5835
Logging	-5836
PARATOR	-5837
terUtil	-5838
▁Reader	-5839
▁detail	-5840
▁ensure	-5841
▁myNode	-5842
▁printf	-5843
Revision	-5844
position	-5845
▁getRole	-5846
▁metrics	-5847
▁reflect	-5848
ResultSet	-5849
▁getColor	-5850
BufferSize	-5851
▁Condition	-5852
▁getActive	-5853
▁transport	-5854
▁JavadocTag	-5855
▁enumHeader	-5856
_4855904478357	-5857
▁SecurityContext	-5858
vi	-5859
545	-5860
931	-5861
Cla	-5862
Env	-5863
GHT	-5864
ful	-5865
ret	-5866
▁Di	-5867
▁SY	-5868
▁TH	-5869
▁Up	-5870
▁fn	-5871
ATER	-5872
Find	-5873
RESH	-5874
Self	-5875
_573	-5876
args	-5877
book	-5878
ents	-5879
ideo	-5880
size	-5881
▁400	-5882
▁CHE	-5883
▁GET	-5884
▁MOD	-5885
▁cfg	-5886
▁fac	-5887
▁inv	-5888
▁rsp	-5889
dater	-5890
icode	-5891
inter	-5892
xture	-5893
▁LEFT	-5894
▁Rest	-5895
▁bits	-5896
▁pres	-5897
008327	-5898
Invoke	-5899
LEMENT	-5900
LOGGER	-5901
Notify	-5902
Worker	-5903
▁BLANK	-5904
▁OAuth	-5905
▁klass	-5906
Percent	-5907
▁getEnd	-5908
▁getPro	-5909
▁parsed	-5910
▁indexed	-5911
008327192	-5912
_11767180	-5913
▁areEqual	-5914
▁sequence	-5915
▁setColor	-5916
▁yacyCore	-5917
▁character	-5918
▁transMeta	-5919
▁getService	-5920
Repositories	-5921
_12254603011	-5922
_12282695530	-5923
_573008327192	-5924
▁setResponseData	-5925
EM	-5926
db	-5927
ef	-5928
gr	-5929
MPL	-5930
OUB	-5931
SSE	-5932
▁By	-5933
▁ON	-5934
▁mC	-5935
Sign	-5936
aret	-5937
aved	-5938
ingS	-5939
oriz	-5940
ught	-5941
ummy	-5942
▁Xml	-5943
60597	-5944
OUBLE	-5945
Patch	-5946
▁uuid	-5947
SERVER	-5948
_34528	-5949
losing	-5950
ountry	-5951
▁Chunk	-5952
▁MODEL	-5953
▁Queue	-5954
▁admin	-5955
▁chars	-5956
▁ident	-5957
PATTERN	-5958
auncher	-5959
isation	-5960
issions	-5961
▁Record	-5962
▁mkdirs	-5963
▁toJson	-5964
▁worker	-5965
93138210	-5966
DemoMock	-5967
654247794	-5968
▁getStyle	-5969
▁writeInt	-5970
JSONObject	-5971
▁Collector	-5972
▁lineCount	-5973
▁modifiers	-5974
12282695578	-5975
stituteInfo	-5976
▁getExchange	-5977
▁Modification	-5978
▁resourceName	-5979
▁setParameter	-5980
_3452893138210	-5981
▁securityContext	-5982
UL	-5983
343	-5984
824	-5985
860	-5986
952	-5987
960	-5988
ATA	-5989
CRE	-5990
ITS	-5991
Pay	-5992
ROW	-5993
bed	-5994
for	-5995
▁Go	-5996
▁ID	-5997
▁Sk	-5998
▁Sw	-5999
▁bs	-6000
INIT	-6001
UUID	-6002
oung	-6003
▁Ins	-6004
▁day	-6005
Alive	-6006
Infos	-6007
World	-6008
ontal	-6009
param	-6010
pring	-6011
tempt	-6012
▁Jdbc	-6013
▁NULL	-6014
▁Open	-6015
▁USER	-6016
▁kind	-6017
▁libr	-6018
DArray	-6019
Margin	-6020
Stores	-6021
▁Names	-6022
▁Proxy	-6023
▁RIGHT	-6024
▁upper	-6025
▁users	-6026
▁Memory	-6027
▁Metric	-6028
▁Window	-6029
▁concat	-6030
▁copyOf	-6031
▁doTest	-6032
▁player	-6033
TagValue	-6034
▁Network	-6035
▁toBytes	-6036
Increment	-6037
mentGroup	-6038
▁excludes	-6039
▁patterns	-6040
Statistics	-6041
▁Assertion	-6042
▁FileUtils	-6043
▁construct	-6044
▁parseTrie	-6045
▁TrieParser	-6046
▁initialize	-6047
▁validation	-6048
EncodeMethod	-6049
▁ErrorDialog	-6050
▁MappingField	-6051
▁Transactional	-6052
5_	-6053
IK	-6054
PK	-6055
sl	-6056
155	-6057
331	-6058
340	-6059
ARE	-6060
Any	-6061
Dig	-6062
LOS	-6063
Pkg	-6064
VEL	-6065
bus	-6066
cfu	-6067
ium	-6068
ony	-6069
▁NL	-6070
▁gl	-6071
6057	-6072
LEAN	-6073
MARK	-6074
ONLY	-6075
VATE	-6076
_123	-6077
ants	-6078
▁red	-6079
Begin	-6080
QUERY	-6081
▁Lazy	-6082
▁Susi	-6083
▁uidl	-6084
Chunks	-6085
Lookup	-6086
caster	-6087
▁Spark	-6088
BadDest	-6089
_119792	-6090
▁Player	-6091
▁millis	-6092
Comments	-6093
DataType	-6094
Download	-6095
INTERVAL	-6096
▁failure	-6097
▁orderBy	-6098
Classpath	-6099
Supported	-6100
▁compiler	-6101
▁getTable	-6102
▁resolver	-6103
Initializer	-6104
▁GetterUtil	-6105
▁LogFactory	-6106
▁getArgument	-6107
isationHelper	-6108
▁getModifiers	-6109
▁isCompatable	-6110
_345289313821050	-6111
▁AbstractGCEvent	-6112
Do	-6113
GC	-6114
bl	-6115
324	-6116
328	-6117
AVA	-6118
DEN	-6119
apt	-6120
gre	-6121
▁la	-6122
▁pe	-6123
▁pi	-6124
LUST	-6125
URLY	-6126
empt	-6127
ital	-6128
▁850	-6129
▁CRE	-6130
▁uns	-6131
REGEX	-6132
STORE	-6133
Shard	-6134
build	-6135
rough	-6136
▁TIME	-6137
▁Wait	-6138
▁jdbc	-6139
▁roll	-6140
▁span	-6141
▁urls	-6142
OFFSET	-6143
SOURCE	-6144
Scheme	-6145
active	-6146
ixture	-6147
oldier	-6148
▁offer	-6149
▁words	-6150
Connect	-6151
FERENCE	-6152
Section	-6153
▁Change	-6154
▁binary	-6155
▁broker	-6156
▁cookie	-6157
▁debugf	-6158
▁getNum	-6159
▁hidden	-6160
▁Pointer	-6161
▁Segment	-6162
▁acquire	-6163
▁addTest	-6164
▁visitor	-6165
orizontal	-6166
▁analyzer	-6167
HttpServer	-6168
Validation	-6169
roadcaster	-6170
▁JDBCUtils	-6171
JobExecutor	-6172
▁Diagnostic	-6173
▁getPackage	-6174
▁ProcessEngine	-6175
ObjectException	-6176
▁getInputStream	-6177
Ok	-6178
aL	-6179
472	-6180
DTO	-6181
Lat	-6182
iki	-6183
lhs	-6184
▁AC	-6185
▁rt	-6186
AUTH	-6187
CKET	-6188
LTER	-6189
Site	-6190
copy	-6191
oose	-6192
ours	-6193
void	-6194
▁For	-6195
▁Ini	-6196
▁PRI	-6197
49850	-6198
Black	-6199
DEFIN	-6200
While	-6201
ceive	-6202
verse	-6203
▁2000	-6204
▁mask	-6205
▁must	-6206
▁tail	-6207
Marker	-6208
Switch	-6209
Tenant	-6210
▁Close	-6211
▁Paint	-6212
▁Write	-6213
▁addTo	-6214
▁train	-6215
Working	-6216
▁Active	-6217
▁getMem	-6218
▁mapped	-6219
Segments	-6220
▁backend	-6221
▁primary	-6222
▁xmlItem	-6223
Principal	-6224
ToProcess	-6225
▁Sentence	-6226
▁Settings	-6227
▁asString	-6228
▁fromJson	-6229
Dispatcher	-6230
Connections	-6231
ContentType	-6232
_1214477655	-6233
▁ScopeUtils	-6234
▁addElement	-6235
▁bufferSize	-6236
▁checkState	-6237
▁setVisible	-6238
▁ThreadLocal	-6239
▁annotations	-6240
▁SNodePointer	-6241
ServletRequest	-6242
▁defaultLocale	-6243
conceptProperty	-6244
955	-6245
MAN	-6246
TON	-6247
asc	-6248
esd	-6249
gle	-6250
sql	-6251
▁FA	-6252
▁IF	-6253
Diff	-6254
NULL	-6255
Vars	-6256
alth	-6257
conf	-6258
lide	-6259
ojos	-6260
▁Win	-6261
▁box	-6262
32090	-6263
ENTRY	-6264
IABLE	-6265
ORTED	-6266
crete	-6267
image	-6268
ivery	-6269
lipse	-6270
model	-6271
query	-6272
state	-6273
▁jndi	-6274
159100	-6275
Broker	-6276
Effort	-6277
Origin	-6278
Pixels	-6279
RegExp	-6280
Replic	-6281
arness	-6282
▁petId	-6283
Setting	-6284
_116526	-6285
edState	-6286
▁Script	-6287
▁depend	-6288
Commands	-6289
TreeItem	-6290
_1088613	-6291
▁BAssert	-6292
▁illegal	-6293
▁publish	-6294
▁twitter	-6295
376332090	-6296
HitStores	-6297
▁Callable	-6298
▁Platform	-6299
▁calendar	-6300
▁refactor	-6301
Processors	-6302
reaterThan	-6303
▁Namespace	-6304
▁getRemote	-6305
_12254603024	-6306
▁BAssertUtil	-6307
▁getFileName	-6308
▁BufferedImage	-6309
▁TypeQualifier	-6310
ToProcessAllJobs	-6311
dq	-6312
119	-6313
157	-6314
Ioc	-6315
NEW	-6316
Src	-6317
Vol	-6318
WID	-6319
com	-6320
fax	-6321
new	-6322
▁42	-6323
▁md	-6324
▁ti	-6325
▁zk	-6326
4414	-6327
Help	-6328
Pars	-6329
Rest	-6330
SENT	-6331
Zero	-6332
duce	-6333
iate	-6334
qnle	-6335
▁REG	-6336
▁inj	-6337
▁lhs	-6338
ALLOW	-6339
Extra	-6340
_1216	-6341
cache	-6342
chive	-6343
ocker	-6344
twfax	-6345
▁Full	-6346
▁UUID	-6347
▁drop	-6348
▁need	-6349
116526	-6350
Facade	-6351
Letter	-6352
Random	-6353
▁MySQL	-6354
▁Stage	-6355
▁aType	-6356
▁getTo	-6357
▁issue	-6358
▁toHex	-6359
Harness	-6360
bserver	-6361
ingMode	-6362
rawable	-6363
▁FailTo	-6364
▁Header	-6365
▁margin	-6366
Deserial	-6367
FromRoot	-6368
cellMenu	-6369
▁getPrev	-6370
▁javadoc	-6371
▁section	-6372
▁wrapped	-6373
806159100	-6374
OrPattern	-6375
▁SConcept	-6376
▁addChild	-6377
▁cucumber	-6378
▁filtered	-6379
▁localReg	-6380
ObjectType	-6381
▁Publisher	-6382
▁getNumber	-6383
▁setStatus	-6384
▁AuditEvent	-6385
▁Classifier	-6386
DefinitionId	-6387
▁deserialize	-6388
▁getProtocol	-6389
▁ChannelBuffer	-6390
▁getProperties	-6391
▁servletContext	-6392
px	-6393
123	-6394
378	-6395
895	-6396
963	-6397
ASH	-6398
ITH	-6399
_54	-6400
▁NE	-6401
▁fd	-6402
ARCH	-6403
Conn	-6404
Gate	-6405
IZED	-6406
Inte	-6407
LISH	-6408
bugs	-6409
lave	-6410
mous	-6411
▁809	-6412
▁Red	-6413
80832	-6414
CACHE	-6415
CONST	-6416
Pages	-6417
ality	-6418
ssian	-6419
▁DATE	-6420
▁book	-6421
▁each	-6422
▁isUn	-6423
904414	-6424
Closed	-6425
Consum	-6426
LUSTER	-6427
TARGET	-6428
cision	-6429
▁Lists	-6430
▁STATE	-6431
▁outer	-6432
Exclude	-6433
Scanner	-6434
ierarch	-6435
onymous	-6436
▁INVOKE	-6437
▁bucket	-6438
▁isWarn	-6439
▁origin	-6440
Defaults	-6441
Disabled	-6442
Extended	-6443
▁Charset	-6444
▁getCell	-6445
▁instant	-6446
904414662	-6447
EXCPECTED	-6448
Languages	-6449
_11979251	-6450
ingBuffer	-6451
▁Exchange	-6452
▁TestCase	-6453
▁WidgetID	-6454
▁fragment	-6455
▁hostname	-6456
1225460807	-6457
riendlyURL	-6458
▁ModelNode	-6459
▁Selection	-6460
▁getDeclar	-6461
▁getFields	-6462
▁getSchema	-6463
▁principal	-6464
_1225460805	-6465
▁floatValue	-6466
▁getChannel	-6467
SecurityTest	-6468
SocketAddress	-6469
_300904414662	-6470
▁artifactType	-6471
▁baseLanguage	-6472
▁isWarnEnabled	-6473
▁validateError	-6474
EditorComponent	-6475
Vi	-6476
ht	-6477
▁^	-6478
525	-6479
866	-6480
KER	-6481
LAG	-6482
MOD	-6483
RST	-6484
UST	-6485
UTO	-6486
ird	-6487
ood	-6488
pos	-6489
way	-6490
▁CS	-6491
▁DI	-6492
▁US	-6493
▁pw	-6494
1194	-6495
1582	-6496
CENT	-6497
Clue	-6498
Stub	-6499
ives	-6500
▁REP	-6501
▁cam	-6502
▁zip	-6503
ATIVE	-6504
CURLY	-6505
Flush	-6506
Hints	-6507
INDOW	-6508
POINT	-6509
Roles	-6510
anges	-6511
cknow	-6512
ertif	-6513
inish	-6514
lorer	-6515
types	-6516
▁Mono	-6517
▁Part	-6518
▁prim	-6519
OrNull	-6520
Shared	-6521
Struct	-6522
Tagger	-6523
lapsed	-6524
urable	-6525
weight	-6526
▁Longs	-6527
▁Paths	-6528
▁Style	-6529
▁codec	-6530
1176717	-6531
ELEMENT	-6532
Modules	-6533
Started	-6534
gration	-6535
ildcard	-6536
itelist	-6537
▁NORMAL	-6538
▁cancel	-6539
▁linked	-6540
▁metric	-6541
▁packet	-6542
▁policy	-6543
▁vertex	-6544
OfString	-6545
Producer	-6546
RESOURCE	-6547
Services	-6548
▁aLineNo	-6549
▁adapter	-6550
▁getView	-6551
▁inspect	-6552
▁invoker	-6553
Composite	-6554
Predicate	-6555
abilities	-6556
▁Workflow	-6557
▁getShort	-6558
Dependency	-6559
Interfaces	-6560
Registered	-6561
Statements	-6562
ertificate	-6563
▁DateUtils	-6564
▁ErrorCode	-6565
▁MediaType	-6566
▁arraycopy	-6567
▁nextToken	-6568
▁subscribe	-6569
▁FailToCast	-6570
▁checkpoint	-6571
▁ClassHelper	-6572
▁Instruction	-6573
▁parseDouble	-6574
EditorBuilder	-6575
FunctionTypes	-6576
▁alphaGraphics	-6577
Ns	-6578
127	-6579
546	-6580
674	-6581
869	-6582
Abs	-6583
ied	-6584
pol	-6585
▁js	-6586
▁zz	-6587
3317	-6588
Pass	-6589
RESS	-6590
Tick	-6591
aesd	-6592
hash	-6593
iber	-6594
uate	-6595
▁New	-6596
▁nut	-6597
12145	-6598
Least	-6599
Price	-6600
STATE	-6601
anced	-6602
emant	-6603
ented	-6604
ooser	-6605
rient	-6606
▁Load	-6607
▁ROOT	-6608
▁cons	-6609
▁flow	-6610
▁loop	-6611
▁used	-6612
DataBy	-6613
inator	-6614
loader	-6615
▁Frame	-6616
▁SHORT	-6617
▁agent	-6618
▁depth	-6619
▁extra	-6620
▁proto	-6621
▁reply	-6622
▁stage	-6623
ApplyTo	-6624
Generic	-6625
Listing	-6626
Travers	-6627
▁bottom	-6628
▁thrown	-6629
▁unique	-6630
MenuItem	-6631
Modifier	-6632
Pipeline	-6633
Releaesd	-6634
▁Logging	-6635
▁PdfName	-6636
▁SERVICE	-6637
▁contact	-6638
▁getFrom	-6639
▁clusters	-6640
▁yacySeed	-6641
▁PropsUtil	-6642
▁isNotNull	-6643
▁validator	-6644
DESCRIPTION	-6645
▁artifactId	-6646
▁StringTools	-6647
▁AbstractCell	-6648
▁CharSequence	-6649
▁HttpResponse	-6650
▁getException	-6651
▁getReference	-6652
▁instructions	-6653
▁propertyName	-6654
▁themeDisplay	-6655
▁ExecutionImpl	-6656
▁checkReleaesd	-6657
MatchingPattern	-6658
EA	-6659
OB	-6660
hi	-6661
848	-6662
873	-6663
Day	-6664
Lon	-6665
REE	-6666
arr	-6667
sma	-6668
▁1.	-6669
▁17	-6670
▁23	-6671
▁RT	-6672
▁ln	-6673
3252	-6674
Chat	-6675
HTTP	-6676
OPEN	-6677
OVER	-6678
PTOR	-6679
ZERO	-6680
atis	-6681
beat	-6682
iven	-6683
▁One	-6684
▁ddm	-6685
▁unt	-6686
Retry	-6687
aring	-6688
chain	-6689
▁Bits	-6690
▁Join	-6691
▁disc	-6692
▁fold	-6693
▁inst	-6694
▁site	-6695
Sample	-6696
achine	-6697
ipient	-6698
latoon	-6699
search	-6700
ymbols	-6701
▁IMAGE	-6702
▁delay	-6703
▁isNew	-6704
▁utils	-6705
Console	-6706
tractor	-6707
▁Border	-6708
▁Cookie	-6709
▁Ignite	-6710
▁assign	-6711
▁getBin	-6712
▁getCOS	-6713
▁reload	-6714
Analyzed	-6715
Compiler	-6716
Negative	-6717
Shutdown	-6718
ccurence	-6719
▁dynamic	-6720
▁eclipse	-6721
▁getCall	-6722
▁hashMap	-6723
▁addBasic	-6724
▁checkObj	-6725
▁disabled	-6726
▁getDebug	-6727
▁getGroup	-6728
▁getSuper	-6729
▁setAllow	-6730
▁vertices	-6731
Navigation	-6732
WebUpgrade	-6733
▁DBSEntity	-6734
▁connector	-6735
▁makeThrow	-6736
OutOfBounds	-6737
▁assertions	-6738
▁lineNumber	-6739
▁newBuilder	-6740
MetaInterface	-6741
▁AllTestSuite	-6742
▁aIndentCheck	-6743
▁variableName	-6744
ChangeListener	-6745
▁AtomicInteger	-6746
▁addBasicClass	-6747
▁getNextSibling	-6748
▁IdentityHashMap	-6749
TT	-6750
103	-6751
163	-6752
164	-6753
544	-6754
673	-6755
812	-6756
924	-6757
INK	-6758
VAR	-6759
ids	-6760
obj	-6761
▁22	-6762
▁EC	-6763
▁Js	-6764
▁sd	-6765
3070	-6766
Hook	-6767
LEFT	-6768
URLs	-6769
aker	-6770
mand	-6771
reet	-6772
▁128	-6773
▁dot	-6774
▁ent	-6775
FIELD	-6776
Place	-6777
TOKEN	-6778
Where	-6779
sList	-6780
▁Atom	-6781
▁Eval	-6782
▁HIVE	-6783
▁Make	-6784
▁Rout	-6785
▁mess	-6786
_81582	-6787
arison	-6788
ignKey	-6789
▁SEVER	-6790
▁coord	-6791
▁mLast	-6792
Caption	-6793
Creater	-6794
Queries	-6795
Resolve	-6796
▁Oracle	-6797
▁PUBLIC	-6798
▁Parser	-6799
▁Sorted	-6800
▁Target	-6801
▁anchor	-6802
▁events	-6803
30703252	-6804
Mappings	-6805
NOTATION	-6806
▁BOOLEAN	-6807
▁aIgnore	-6808
▁getBack	-6809
▁library	-6810
▁locator	-6811
▁newLine	-6812
▁offsets	-6813
Scheduled	-6814
▁GCViewer	-6815
▁Priority	-6816
▁dispatch	-6817
ArgsParser	-6818
Whitespace	-6819
xxPlatform	-6820
▁Generated	-6821
▁getBundle	-6822
▁getRecord	-6823
▁localData	-6824
▁setTarget	-6825
verityLevel	-6826
▁BigInteger	-6827
▁Invocation	-6828
▁JComponent	-6829
▁MethodInfo	-6830
▁background	-6831
▁messagebus	-6832
_12254603014	-6833
▁DBDAttribute	-6834
▁SAXException	-6835
▁newArrayList	-6836
_8158230703252	-6837
▁getRawResponse	-6838
Ct	-6839
Nr	-6840
XY	-6841
do	-6842
1_4	-6843
452	-6844
600	-6845
805	-6846
838	-6847
Bal	-6848
DOC	-6849
ENG	-6850
Ind	-6851
ORD	-6852
▁MP	-6853
▁Ws	-6854
3754	-6855
5894	-6856
8232	-6857
Coll	-6858
Exce	-6859
INFO	-6860
Leaf	-6861
Void	-6862
_000	-6863
part	-6864
uter	-6865
▁DOT	-6866
▁FST	-6867
▁LOC	-6868
▁PMD	-6869
▁ord	-6870
35426	-6871
COLOR	-6872
Named	-6873
QUARE	-6874
WIDTH	-6875
alias	-6876
▁Logs	-6877
▁NODE	-6878
281194	-6879
966950	-6880
COLUMN	-6881
OfWork	-6882
Symbol	-6883
Syntax	-6884
inated	-6885
object	-6886
ressed	-6887
▁Agent	-6888
▁STYLE	-6889
▁WRITE	-6890
▁aRoot	-6891
Correct	-6892
FAILURE	-6893
ToolTip	-6894
scriber	-6895
▁Delete	-6896
▁RESULT	-6897
▁aAllow	-6898
▁iField	-6899
▁radius	-6900
▁sorted	-6901
69235426	-6902
Existing	-6903
Identity	-6904
Received	-6905
resolved	-6906
▁IModule	-6907
▁getMeta	-6908
▁keyword	-6909
▁synthes	-6910
▁varArgs	-6911
ATTRIBUTE	-6912
ViewModel	-6913
_11966950	-6914
mMaterial	-6915
▁evaluate	-6916
▁findbugs	-6917
▁imported	-6918
▁mContext	-6919
▁marshall	-6920
▁selector	-6921
BaseEffort	-6922
Classifier	-6923
dStatement	-6924
▁Scheduled	-6925
▁addAction	-6926
▁fileEntry	-6927
Credentials	-6928
_1225460302	-6929
▁dateFormat	-6930
Dependencies	-6931
_12282695578	-6932
▁getEdgeProps	-6933
▁getPartition	-6934
▁getTableName	-6935
ParseException	-6936
▁getExchangeId	-6937
▁ServletRequest	-6938
▁getBinArtifact	-6939
Ip	-6940
PR	-6941
mx	-6942
401	-6943
611	-6944
DIS	-6945
GAN	-6946
IKI	-6947
JDK	-6948
MEM	-6949
VED	-6950
▁BU	-6951
▁VK	-6952
▁WH	-6953
▁am	-6954
▁df	-6955
▁ls	-6956
3062	-6957
6800	-6958
Book	-6959
Bund	-6960
PING	-6961
Save	-6962
_268	-6963
▁Com	-6964
▁POS	-6965
▁bad	-6966
▁gui	-6967
▁irs	-6968
12295	-6969
93619	-6970
BLOCK	-6971
BYTES	-6972
Clazz	-6973
Click	-6974
Login	-6975
Shift	-6976
atter	-6977
erved	-6978
▁Remo	-6979
▁WIKI	-6980
TypeOf	-6981
UPDATE	-6982
▁ALLOW	-6983
▁FIELD	-6984
▁audit	-6985
▁camel	-6986
▁getAt	-6987
▁getSk	-6988
▁getTh	-6989
▁media	-6990
▁units	-6991
1305894	-6992
Capsule	-6993
emantic	-6994
ifiable	-6995
section	-6996
▁Animal	-6997
▁Static	-6998
▁addAPI	-6999
▁consum	-7000
▁loaded	-7001
▁plasma	-7002
ComboBox	-7003
Relative	-7004
▁Control	-7005
▁Streams	-7006
▁UIUtils	-7007
▁hasMore	-7008
▁jobMeta	-7009
Performed	-7010
▁addClass	-7011
▁capacity	-7012
▁langTool	-7013
1225460302	-7014
1225460805	-7015
BadDestDir	-7016
Components	-7017
Concurrent	-7018
ambiguator	-7019
▁DBSObject	-7020
▁ODatabase	-7021
▁delimiter	-7022
▁formatter	-7023
▁normalize	-7024
▁resultSet	-7025
▁sessionId	-7026
11821912645	-7027
Translation	-7028
_2681305894	-7029
istribution	-7030
▁assertSame	-7031
_12144783770	-7032
▁aAnnotation	-7033
▁createImage	-7034
▁currentNode	-7035
▁toHexString	-7036
▁getCOSObject	-7037
▁getSelection	-7038
▁getDataSource	-7039
▁getContextPath	-7040
▁migratedContent	-7041
08	-7042
77	-7043
It	-7044
pn	-7045
pu	-7046
154	-7047
539	-7048
872	-7049
874	-7050
Now	-7051
TOP	-7052
UPP	-7053
uns	-7054
▁RB	-7055
▁mr	-7056
▁ns	-7057
1810	-7058
9811	-7059
Deps	-7060
Done	-7061
MILL	-7062
Seen	-7063
_107	-7064
acer	-7065
data	-7066
iant	-7067
yper	-7068
▁API	-7069
▁Pos	-7070
▁RED	-7071
▁Rec	-7072
▁Url	-7073
▁lex	-7074
▁tok	-7075
00000	-7076
60412	-7077
Annot	-7078
DEBUG	-7079
Inspe	-7080
lavor	-7081
level	-7082
phere	-7083
▁Bpmn	-7084
▁Fast	-7085
▁Sets	-7086
▁aEnd	-7087
▁func	-7088
▁mTag	-7089
▁pack	-7090
▁setL	-7091
▁sync	-7092
CLASSE	-7093
Making	-7094
SELECT	-7095
antile	-7096
holder	-7097
rypted	-7098
▁Split	-7099
▁Store	-7100
▁email	-7101
▁kylin	-7102
▁tuple	-7103
▁under	-7104
Dataset	-7105
Plugins	-7106
Suggest	-7107
Utility	-7108
ickName	-7109
letable	-7110
▁Driver	-7111
▁aLines	-7112
▁andKey	-7113
12163820	-7114
Builders	-7115
Bytecode	-7116
Recieved	-7117
▁CONNECT	-7118
▁Castors	-7119
▁Postgre	-7120
▁TextGen	-7121
▁Timeout	-7122
▁Warning	-7123
▁cleanup	-7124
▁getBean	-7125
▁summary	-7126
▁updated	-7127
Discovery	-7128
DownLatch	-7129
Framework	-7130
INTERCEPT	-7131
Traversal	-7132
▁dbResult	-7133
▁getBuild	-7134
▁parallel	-7135
Accessible	-7136
GANIZATION	-7137
PropertyAs	-7138
▁Hazelcast	-7139
▁IocMaking	-7140
▁Provision	-7141
▁getFormat	-7142
▁myProject	-7143
12282695575	-7144
▁columnName	-7145
▁isSelected	-7146
▁addTagValue	-7147
▁executionId	-7148
▁replacement	-7149
▁testHarness	-7150
▁addCriterion	-7151
▁getCharacter	-7152
▁registration	-7153
▁getDescriptor	-7154
▁getStackTrace	-7155
▁commandExecutor	-7156
Gu	-7157
IE	-7158
MM	-7159
RC	-7160
670	-7161
702	-7162
Occ	-7163
loy	-7164
▁ev	-7165
▁ir	-7166
▁nl	-7167
Else	-7168
Fine	-7169
Heap	-7170
TIAL	-7171
UNIT	-7172
bose	-7173
ince	-7174
isor	-7175
iver	-7176
poch	-7177
scii	-7178
▁ONE	-7179
▁PIX	-7180
▁aop	-7181
▁pts	-7182
Facet	-7183
Tasks	-7184
UTION	-7185
andra	-7186
ffect	-7187
ipher	-7188
▁Flow	-7189
▁Tank	-7190
▁buck	-7191
▁getV	-7192
▁pref	-7193
108074	-7194
OPTION	-7195
SQUARE	-7196
STATIC	-7197
Throws	-7198
cessor	-7199
cluded	-7200
▁aFile	-7201
▁prime	-7202
▁spark	-7203
Bundler	-7204
Encoder	-7205
Example	-7206
Indexes	-7207
Running	-7208
elenium	-7209
etailed	-7210
▁Single	-7211
▁Writer	-7212
▁getArg	-7213
▁getTag	-7214
▁shared	-7215
AndPatch	-7216
HashCode	-7217
Runnable	-7218
TypeImpl	-7219
currency	-7220
▁GCModel	-7221
▁MESSAGE	-7222
▁Package	-7223
▁Registr	-7224
▁newNode	-7225
Preferred	-7226
SEPARATOR	-7227
Workspace	-7228
▁allocate	-7229
▁contents	-7230
▁dateTime	-7231
▁errorMsg	-7232
▁getSNode	-7233
▁iCluster	-7234
▁redirect	-7235
DESCRIPTOR	-7236
▁Extension	-7237
▁UISupport	-7238
▁getLayout	-7239
▁getReturn	-7240
▁startTime	-7241
ImageParams	-7242
▁MethodNode	-7243
▁createFile	-7244
▁getPattern	-7245
▁whitespace	-7246
DataByModule	-7247
▁checkConfig	-7248
GapMultiplier	-7249
▁arrayArrayOf	-7250
▁StringBundler	-7251
▁getRepository	-7252
▁workingMemory	-7253
▁ElementHandler	-7254
Bi	-7255
FG	-7256
UD	-7257
ae	-7258
fL	-7259
414	-7260
Div	-7261
Sum	-7262
chn	-7263
ose	-7264
▁NV	-7265
▁sq	-7266
ILED	-7267
Live	-7268
Slot	-7269
erve	-7270
icon	-7271
wrap	-7272
▁Api	-7273
▁Jsp	-7274
▁USE	-7275
▁Uns	-7276
▁Zip	-7277
▁ops	-7278
▁slf	-7279
▁std	-7280
▁sur	-7281
RIGHT	-7282
aming	-7283
cTest	-7284
filer	-7285
mploy	-7286
▁CASE	-7287
▁HTML	-7288
▁Volt	-7289
▁same	-7290
Cached	-7291
Intent	-7292
Unique	-7293
▁hbase	-7294
CONTEXT	-7295
CURRENT	-7296
Locator	-7297
Refresh	-7298
▁Shorts	-7299
▁branch	-7300
▁getOut	-7301
▁leader	-7302
▁toList	-7303
Handlers	-7304
Resolved	-7305
cknowled	-7306
iteBlack	-7307
▁getLeft	-7308
▁iRecord	-7309
▁members	-7310
▁pending	-7311
▁setPath	-7312
▁setTime	-7313
Candidate	-7314
Duplicate	-7315
Prototype	-7316
ategories	-7317
ationTime	-7318
▁MockHttp	-7319
▁facebook	-7320
▁getEvent	-7321
▁getStack	-7322
▁iterable	-7323
▁pageSize	-7324
▁userName	-7325
References	-7326
▁canonical	-7327
▁transient	-7328
ToolTipText	-7329
Transitions	-7330
▁CellLayout	-7331
▁ObjectType	-7332
▁marshallAs	-7333
▁referenced	-7334
iteBlackList	-7335
▁ElementType	-7336
▁nodeToCheck	-7337
▁setPosition	-7338
Specification	-7339
▁byteArrayOne	-7340
▁byteArrayTwo	-7341
▁getColumnName	-7342
AccessException	-7343
▁TransitionImpl	-7344
▁getApplication	-7345
▁getDisplayName	-7346
Fr	-7347
fe	-7348
ka	-7349
443	-7350
679	-7351
890	-7352
Ann	-7353
Det	-7354
EXP	-7355
Inf	-7356
QUI	-7357
RAP	-7358
Sig	-7359
ear	-7360
eno	-7361
oto	-7362
▁19	-7363
▁Tw	-7364
▁pc	-7365
5170	-7366
Addr	-7367
COND	-7368
FACE	-7369
Math	-7370
PART	-7371
▁APP	-7372
▁CSV	-7373
▁dat	-7374
▁fix	-7375
FOUND	-7376
NSION	-7377
eaver	-7378
ineno	-7379
inner	-7380
rools	-7381
▁mail	-7382
▁mini	-7383
▁refs	-7384
▁supp	-7385
331754	-7386
Should	-7387
THREAD	-7388
buffer	-7389
constr	-7390
preter	-7391
▁Count	-7392
▁Mongo	-7393
▁added	-7394
▁mFile	-7395
▁multi	-7396
▁qName	-7397
▁react	-7398
▁roles	-7399
Overlay	-7400
Product	-7401
Startup	-7402
Testing	-7403
polator	-7404
▁Orient	-7405
▁declar	-7406
▁intent	-7407
▁isAuto	-7408
▁kernel	-7409
Bindings	-7410
Configur	-7411
Delegate	-7412
MultiMap	-7413
yperlink	-7414
▁PACKAGE	-7415
▁PARTIAL	-7416
▁XMethod	-7417
▁console	-7418
▁polygon	-7419
▁swagger	-7420
▁tenured	-7421
erManager	-7422
▁Gaussian	-7423
▁behavior	-7424
▁download	-7425
▁modified	-7426
▁oldValue	-7427
Completion	-7428
ContentMap	-7429
▁Undefined	-7430
▁allPlayer	-7431
▁fieldType	-7432
▁getFilter	-7433
12254603014	-7434
Classifiers	-7435
Compilation	-7436
▁Descriptor	-7437
▁conversion	-7438
▁projectDir	-7439
▁ringBuffer	-7440
▁testSimple	-7441
▁JMeterUtils	-7442
▁getAnalyzed	-7443
▁visitMethod	-7444
▁addComponent	-7445
▁streamWriter	-7446
HandlerContext	-7447
▁GeneratedJava	-7448
▁fullyQualified	-7449
▁parameterTypes	-7450
▁setToolTipText	-7451
▁AbstractConcept	-7452
▁actionPerformed	-7453
05	-7454
ea	-7455
EMA	-7456
Hop	-7457
IDE	-7458
SUB	-7459
pre	-7460
uts	-7461
▁7.	-7462
▁Me	-7463
BACK	-7464
Dump	-7465
MARY	-7466
Migr	-7467
Move	-7468
Stam	-7469
dapt	-7470
irth	-7471
▁43.	-7472
▁682	-7473
▁Aop	-7474
▁DAY	-7475
▁Imp	-7476
▁our	-7477
MPORT	-7478
UTTON	-7479
anded	-7480
▁3000	-7481
▁Dart	-7482
▁Rect	-7483
▁born	-7484
▁dead	-7485
▁keep	-7486
▁soot	-7487
375462	-7488
Append	-7489
Expand	-7490
Period	-7491
ursive	-7492
▁CHECK	-7493
▁Inner	-7494
▁SCOPE	-7495
▁deflt	-7496
▁equal	-7497
▁getAc	-7498
▁hours	-7499
▁paint	-7500
▁pause	-7501
▁popup	-7502
Persist	-7503
Publish	-7504
Release	-7505
artbeat	-7506
▁Remove	-7507
▁propag	-7508
▁seedDB	-7509
▁submit	-7510
60597329	-7511
Blocking	-7512
TempFile	-7513
Username	-7514
▁ALLOWED	-7515
▁PROJECT	-7516
▁Persist	-7517
▁caption	-7518
▁isError	-7519
▁missing	-7520
Supertype	-7521
▁INDArray	-7522
▁getRight	-7523
▁iContext	-7524
▁iRequest	-7525
Exceptions	-7526
Extensions	-7527
HttpClient	-7528
MethodName	-7529
ScreenImpl	-7530
ScrollPane	-7531
▁682375462	-7532
▁Directory	-7533
▁edgeValue	-7534
▁getOutput	-7535
▁isEnabled	-7536
▁parseLong	-7537
▁recipient	-7538
12254603024	-7539
CommandLine	-7540
Distributed	-7541
▁serializer	-7542
ORGANIZATION	-7543
tingSettings	-7544
▁GroupLayout	-7545
▁getSettings	-7546
▁dependencies	-7547
▁unmodifiable	-7548
BinaryProtocol	-7549
▁ActionContext	-7550
▁UndefinedType	-7551
▁PipelineConfig	-7552
▁ProcessInstance	-7553
▁edgeValueOrNull	-7554
gt	-7555
193	-7556
307	-7557
317	-7558
677	-7559
737	-7560
926	-7561
977	-7562
GIN	-7563
Gui	-7564
ODY	-7565
Red	-7566
SSL	-7567
max	-7568
sOf	-7569
▁cd	-7570
▁fp	-7571
▁tv	-7572
5816	-7573
6552	-7574
BOTH	-7575
EXEC	-7576
EXTE	-7577
FFFF	-7578
Head	-7579
Pets	-7580
VIEW	-7581
etic	-7582
null	-7583
orph	-7584
sign	-7585
time	-7586
▁FIN	-7587
▁GRE	-7588
▁Min	-7589
▁SUB	-7590
▁WND	-7591
▁dim	-7592
▁lst	-7593
EMAIL	-7594
Email	-7595
Exact	-7596
TOCOL	-7597
check	-7598
herit	-7599
ident	-7600
illed	-7601
ready	-7602
shake	-7603
▁Demo	-7604
▁OPER	-7605
▁Perm	-7606
▁aTag	-7607
▁lazy	-7608
▁maps	-7609
▁pipe	-7610
▁repo	-7611
Absent	-7612
Linked	-7613
_54995	-7614
method	-7615
▁Crypt	-7616
▁INode	-7617
▁PIXEL	-7618
▁Swing	-7619
▁mapOf	-7620
▁strip	-7621
CLASSEX	-7622
PROJECT	-7623
achable	-7624
entions	-7625
raction	-7626
▁CLIENT	-7627
▁Groovy	-7628
▁Update	-7629
▁aValue	-7630
_1214931	-7631
▁MISSING	-7632
▁Soldier	-7633
▁aColumn	-7634
▁allowed	-7635
▁isLocal	-7636
▁removed	-7637
▁virtual	-7638
CharArray	-7639
Dimension	-7640
FetchPlan	-7641
Highlight	-7642
Indicator	-7643
▁getFloat	-7644
▁readLine	-7645
Additional	-7646
Attachment	-7647
CONNECTION	-7648
Containing	-7649
InProgress	-7650
LineNumber	-7651
LogManager	-7652
ProjectDir	-7653
_549956552	-7654
▁TypeUtils	-7655
▁setSource	-7656
▁testPoint	-7657
VariableDef	-7658
▁HttpClient	-7659
▁Serializer	-7660
▁WNDCLASSEX	-7661
▁lowResults	-7662
▁management	-7663
▁positional	-7664
▁promptText	-7665
▁PIXELFORMAT	-7666
▁elementType	-7667
▁findForward	-7668
▁getDocument	-7669
▁nextElement	-7670
Transactional	-7671
▁ImmutableSet	-7672
▁getExecution	-7673
▁readUnsigned	-7674
▁calculateItem	-7675
▁transformation	-7676
▁modelDescriptor	-7677
CP	-7678
GL	-7679
Sn	-7680
VN	-7681
dp	-7682
nd	-7683
sv	-7684
132	-7685
455	-7686
537	-7687
555	-7688
661	-7689
693	-7690
972	-7691
999	-7692
ASC	-7693
ASS	-7694
Big	-7695
IGH	-7696
Inc	-7697
Put	-7698
Seq	-7699
WAR	-7700
__3	-7701
eom	-7702
ike	-7703
jor	-7704
mem	-7705
ros	-7706
sBy	-7707
▁45	-7708
▁Ad	-7709
▁cg	-7710
▁ef	-7711
▁es	-7712
▁fb	-7713
▁ll	-7714
▁vp	-7715
3417	-7716
ATEG	-7717
Comm	-7718
ITEM	-7719
LETE	-7720
PROP	-7721
eded	-7722
ived	-7723
▁Def	-7724
▁Per	-7725
▁cas	-7726
▁rev	-7727
▁rgb	-7728
Curly	-7729
LEVEL	-7730
Later	-7731
aemon	-7732
aries	-7733
empty	-7734
entry	-7735
ifest	-7736
mento	-7737
ooter	-7738
▁Auto	-7739
▁CLOS	-7740
▁DATA	-7741
▁JAVA	-7742
▁LONG	-7743
▁PEST	-7744
▁addr	-7745
▁anim	-7746
▁chat	-7747
▁pugh	-7748
▁slot	-7749
Needed	-7750
PetsBy	-7751
anking	-7752
arDown	-7753
coming	-7754
filter	-7755
verage	-7756
▁Maven	-7757
ALLOWED	-7758
Article	-7759
Attempt	-7760
RESHOLD	-7761
irthday	-7762
▁Import	-7763
▁findBy	-7764
▁matrix	-7765
▁myThis	-7766
▁tenant	-7767
IfAbsent	-7768
InMillis	-7769
Versions	-7770
▁Factory	-7771
▁HRESULT	-7772
▁Initial	-7773
▁Journal	-7774
▁OrderBy	-7775
▁Product	-7776
▁integer	-7777
▁wrapper	-7778
654209359	-7779
ClassNode	-7780
FileEntry	-7781
PathParam	-7782
Sanitizer	-7783
Violation	-7784
ableValue	-7785
collected	-7786
statement	-7787
▁commands	-7788
▁criteria	-7789
▁metaData	-7790
▁renderer	-7791
anDistance	-7792
▁emptyList	-7793
▁getUserId	-7794
11652712116	-7795
▁addDefault	-7796
▁exceptions	-7797
▁findPetsBy	-7798
▁getContain	-7799
▁iFetchPlan	-7800
ListenerIndex	-7801
▁ImmutableMap	-7802
DefinitionImpl	-7803
▁addAPIPackage	-7804
▁getElementRole	-7805
▁setDescription	-7806
▁AnnotationValue	-7807
▁DetectorFactory	-7808
▁ExecutorService	-7809
9_	-7810
MQ	-7811
ca	-7812
hv	-7813
nt	-7814
wh	-7815
504	-7816
Ack	-7817
LEG	-7818
LET	-7819
NON	-7820
Pen	-7821
Seg	-7822
app	-7823
▁DD	-7824
▁El	-7825
▁pp	-7826
▁so	-7827
▁sr	-7828
DESC	-7829
FFIX	-7830
Freq	-7831
HAND	-7832
Have	-7833
PASS	-7834
SENS	-7835
Solr	-7836
TIES	-7837
_344	-7838
peat	-7839
ural	-7840
▁0.1	-7841
▁Add	-7842
▁cat	-7843
▁csv	-7844
▁dom	-7845
▁myF	-7846
▁pfd	-7847
▁seq	-7848
41164	-7849
Based	-7850
Corre	-7851
Cycle	-7852
INFIN	-7853
INGLE	-7854
Popup	-7855
SCOPE	-7856
Shell	-7857
Using	-7858
erged	-7859
iddle	-7860
inese	-7861
ullet	-7862
▁DOWN	-7863
▁Jive	-7864
▁Stop	-7865
▁bulk	-7866
▁comb	-7867
▁walk	-7868
Loaded	-7869
OUTPUT	-7870
RATION	-7871
Reason	-7872
_12414	-7873
ilight	-7874
uclide	-7875
▁Empty	-7876
▁Start	-7877
▁boost	-7878
▁fixed	-7879
▁getOr	-7880
▁prefs	-7881
▁until	-7882
Chooser	-7883
Descend	-7884
Globals	-7885
Removed	-7886
Updater	-7887
culator	-7888
osphere	-7889
▁Before	-7890
▁Binary	-7891
▁Select	-7892
▁addSub	-7893
▁labels	-7894
▁multip	-7895
▁orElse	-7896
▁scaled	-7897
▁setter	-7898
▁smodel	-7899
▁square	-7900
Director	-7901
INFINITY	-7902
Requests	-7903
▁History	-7904
▁forward	-7905
▁getAuth	-7906
▁getInit	-7907
▁jobName	-7908
▁putByte	-7909
411643417	-7910
AndMethod	-7911
ConceptIn	-7912
Lifecycle	-7913
Providers	-7914
SENSITIVE	-7915
attribute	-7916
▁getTitle	-7917
▁graphics	-7918
▁resolved	-7919
▁setTitle	-7920
PositionIn	-7921
▁JCheckBox	-7922
▁JavaClass	-7923
▁Transform	-7924
▁convertTo	-7925
47167743240	-7926
DataContext	-7927
Descriptors	-7928
SearchScope	-7929
▁Collectors	-7930
▁getPointer	-7931
▁schemaName	-7932
▁setMinimum	-7933
▁visitclass	-7934
PointCreater	-7935
▁Completable	-7936
▁createCells	-7937
▁getExternal	-7938
_344411643417	-7939
▁getOperation	-7940
paredStatement	-7941
▁setProperties	-7942
_57300832719293	-7943
▁catalogService	-7944
▁getConstructor	-7945
▁getPersistence	-7946
QueriesGenerated	-7947
uclideanDistance	-7948
CL	-7949
FX	-7950
624	-7951
648	-7952
727	-7953
845	-7954
915	-7955
942	-7956
LOW	-7957
Psi	-7958
STR	-7959
add	-7960
xdc	-7961
xhv	-7962
▁AS	-7963
▁BO	-7964
▁Os	-7965
▁fr	-7966
▁hr	-7967
▁ri	-7968
2964	-7969
4088	-7970
6930	-7971
MAND	-7972
STEM	-7973
adow	-7974
anos	-7975
arge	-7976
ases	-7977
body	-7978
entr	-7979
host	-7980
init	-7981
pear	-7982
util	-7983
▁ENG	-7984
▁Res	-7985
▁exc	-7986
▁inf	-7987
Actor	-7988
Delet	-7989
Fault	-7990
Issue	-7991
Proto	-7992
_4540	-7993
ecute	-7994
pplet	-7995
▁Book	-7996
▁hint	-7997
Author	-7998
Inputs	-7999
NUMBER	-8000
PARAME	-8001
RETURN	-8002
quency	-8003
wagger	-8004
▁60000	-8005
▁attrs	-8006
▁toURL	-8007
▁track	-8008
4088130	-8009
8232807	-8010
9265497	-8011
Changes	-8012
Loading	-8013
ismatch	-8014
▁MODIFI	-8015
▁Matrix	-8016
▁Native	-8017
▁STATIC	-8018
▁Schema	-8019
▁conDef	-8020
▁nested	-8021
Calendar	-8022
_4540508	-8023
assandra	-8024
otential	-8025
▁Counter	-8026
▁Instant	-8027
▁MvcTest	-8028
▁PApplet	-8029
▁VARCHAR	-8030
▁aMethod	-8031
▁getList	-8032
▁modules	-8033
▁scanner	-8034
▁setIcon	-8035
THRESHOLD	-8036
▁Matchers	-8037
▁OChannel	-8038
▁external	-8039
▁gradient	-8040
▁hostName	-8041
▁strategy	-8042
izedObject	-8043
▁Lifecycle	-8044
▁aggregate	-8045
▁paragraph	-8046
▁setIgnore	-8047
▁synthesis	-8048
▁Checkstyle	-8049
▁Controller	-8050
▁JsonFormat	-8051
▁getPortlet	-8052
▁modelChart	-8053
▁newContent	-8054
Organization	-8055
Presentation	-8056
▁DefaultJava	-8057
▁MvcTestPojo	-8058
▁OLogManager	-8059
▁PrintStream	-8060
▁getFunction	-8061
▁highResults	-8062
PathSanitizer	-8063
_268130589428	-8064
▁booleanValue	-8065
▁processEvent	-8066
Initialization	-8067
Transformation	-8068
▁PlayerDetails	-8069
▁securityCheck	-8070
FormatException	-8071
▁AssertionError	-8072
▁attributeValue	-8073
▁ServletResponse	-8074
LS	-8075
WE	-8076
dl	-8077
145	-8078
173	-8079
602	-8080
626	-8081
JMS	-8082
NDI	-8083
OUS	-8084
Zip	-8085
_26	-8086
irm	-8087
▁Is	-8088
▁SM	-8089
▁mm	-8090
▁tt	-8091
3061	-8092
ANGE	-8093
Fact	-8094
Grid	-8095
RACT	-8096
Scan	-8097
ceaf	-8098
ello	-8099
full	-8100
java	-8101
ruid	-8102
step	-8103
utom	-8104
▁ASS	-8105
▁Geo	-8106
▁VIS	-8107
▁css	-8108
▁dup	-8109
▁jdk	-8110
▁spi	-8111
53922	-8112
PLACE	-8113
Stage	-8114
agram	-8115
erman	-8116
iiuth	-8117
▁ENUM	-8118
▁Keys	-8119
▁LANG	-8120
▁OPEN	-8121
▁baos	-8122
▁card	-8123
▁free	-8124
▁leaf	-8125
▁pass	-8126
▁rate	-8127
▁serv	-8128
AndSet	-8129
Bucket	-8130
Counts	-8131
FILTER	-8132
Finish	-8133
MILLIS	-8134
MPLATE	-8135
Packet	-8136
TECTED	-8137
_12295	-8138
client	-8139
hanced	-8140
▁START	-8141
▁aNode	-8142
▁getPh	-8143
▁leave	-8144
▁login	-8145
▁mouse	-8146
▁oauth	-8147
3395017	-8148
5392264	-8149
6041234	-8150
Created	-8151
PRESENT	-8152
urrence	-8153
▁ACTION	-8154
▁LineTo	-8155
▁OUTPUT	-8156
▁Return	-8157
▁SEVERE	-8158
▁amount	-8159
▁fileId	-8160
▁isTrue	-8161
▁runner	-8162
▁scheme	-8163
▁sender	-8164
▁setAll	-8165
Compound	-8166
DataList	-8167
FileSize	-8168
UPPORTED	-8169
UriParam	-8170
actoring	-8171
mosphere	-8172
register	-8173
umulator	-8174
▁Closure	-8175
▁ENGLISH	-8176
▁encoded	-8177
▁getDate	-8178
▁maxSize	-8179
▁seconds	-8180
▁snippet	-8181
Decorator	-8182
LineFiles	-8183
Locations	-8184
NullValue	-8185
▁protobuf	-8186
▁FullIdent	-8187
▁ParamUtil	-8188
▁WebSocket	-8189
▁bitsquare	-8190
▁functions	-8191
▁getOrigin	-8192
▁getTypeOf	-8193
▁hasOption	-8194
▁occurence	-8195
▁predicate	-8196
▁systemErr	-8197
12254603018	-8198
▁ModelChart	-8199
▁dataLength	-8200
▁disconnect	-8201
▁getCluster	-8202
▁newHashSet	-8203
ParameterMap	-8204
▁JiveGlobals	-8205
▁UserService	-8206
▁addListener	-8207
▁columnIndex	-8208
▁distributed	-8209
▁getEndpoint	-8210
▁setLocation	-8211
▁outputStream	-8212
▁taskExecutor	-8213
PositionInLine	-8214
▁MessageFormat	-8215
▁getMethodName	-8216
▁setAccessible	-8217
ContentMapReader	-8218
_356714208494455	-8219
JQ	-8220
NN	-8221
cL	-8222
616	-8223
802	-8224
888	-8225
940	-8226
Att	-8227
Dev	-8228
Dom	-8229
aml	-8230
bre	-8231
sha	-8232
▁34	-8233
▁BY	-8234
▁OK	-8235
▁cm	-8236
▁cv	-8237
▁ft	-8238
▁kv	-8239
6062	-8240
Maps	-8241
ROLL	-8242
Sets	-8243
WITH	-8244
elow	-8245
pred	-8246
▁ALI	-8247
▁ENT	-8248
▁RBF	-8249
▁SPE	-8250
▁TRA	-8251
▁att	-8252
▁lnk	-8253
▁ste	-8254
▁txn	-8255
▁wal	-8256
12715	-8257
Ratio	-8258
Trust	-8259
vance	-8260
vided	-8261
ysics	-8262
▁ARTI	-8263
▁Bean	-8264
▁EXEC	-8265
▁LAST	-8266
▁PORT	-8267
▁bool	-8268
▁grpc	-8269
▁proc	-8270
Aspect	-8271
Bottom	-8272
Digits	-8273
Expect	-8274
ISTORY	-8275
Stamps	-8276
WINDOW	-8277
cedure	-8278
pector	-8279
▁Coerc	-8280
▁GENER	-8281
▁Route	-8282
▁Shard	-8283
▁TABLE	-8284
▁aCell	-8285
▁saved	-8286
▁typed	-8287
Backend	-8288
Invoker	-8289
LITERAL	-8290
Polygon	-8291
SERVICE	-8292
mployee	-8293
▁BUTTON	-8294
▁CONFIG	-8295
▁HEADER	-8296
▁OneRun	-8297
▁digest	-8298
▁orient	-8299
▁tables	-8300
Abstract	-8301
Presence	-8302
▁Account	-8303
▁EnvUtil	-8304
▁PRIVATE	-8305
▁Toolkit	-8306
▁Twitter	-8307
▁decoder	-8308
▁dialect	-8309
▁example	-8310
▁routing	-8311
Delimiter	-8312
GetMethod	-8313
SessionId	-8314
▁DataType	-8315
▁Historic	-8316
▁IocValue	-8317
▁mappings	-8318
1079007237	-8319
EqualsNull	-8320
FileSystem	-8321
▁Structure	-8322
▁TextBlock	-8323
▁converter	-8324
▁getOption	-8325
INSENSITIVE	-8326
Termination	-8327
description	-8328
▁RBFNetwork	-8329
▁getHeaders	-8330
Deserializer	-8331
JsonProperty	-8332
StateService	-8333
▁Uncollected	-8334
▁DefaultClass	-8335
▁ODistributed	-8336
▁typeSettings	-8337
RuleEqualsNull	-8338
▁Authorization	-8339
▁renderRequest	-8340
GetMethodTypeOf	-8341
▁getFullCatalog	-8342
▁expectedResults	-8343
FE	-8344
RS	-8345
Ws	-8346
jt	-8347
017	-8348
187	-8349
630	-8350
650	-8351
695	-8352
840	-8353
971	-8354
Ent	-8355
Evt	-8356
REC	-8357
REF	-8358
isy	-8359
vas	-8360
▁lc	-8361
▁ta	-8362
▁yy	-8363
9253	-8364
DING	-8365
Drop	-8366
Urls	-8367
ajor	-8368
raal	-8369
▁NON	-8370
▁Ret	-8371
▁Rpc	-8372
▁cla	-8373
▁isH	-8374
▁rhs	-8375
EXIST	-8376
IdMap	-8377
Media	-8378
RACLE	-8379
ather	-8380
count	-8381
isygg	-8382
usion	-8383
▁6000	-8384
▁Conf	-8385
▁Cube	-8386
▁Exit	-8387
▁Spec	-8388
▁only	-8389
▁opts	-8390
▁plid	-8391
▁take	-8392
953960	-8393
Clause	-8394
Expert	-8395
STATUS	-8396
ighted	-8397
normal	-8398
ocused	-8399
▁CACHE	-8400
▁Pojos	-8401
▁align	-8402
▁click	-8403
▁fails	-8404
▁getID	-8405
▁watch	-8406
COMMENT	-8407
Contrib	-8408
Managed	-8409
Ordered	-8410
PACKAGE	-8411
Texture	-8412
angling	-8413
rawling	-8414
▁Actual	-8415
▁CREATE	-8416
▁PROPER	-8417
▁Report	-8418
▁apiKey	-8419
▁attach	-8420
▁drools	-8421
▁marker	-8422
POSITION	-8423
Parallel	-8424
PoolSize	-8425
enchmark	-8426
sequence	-8427
▁BasicDB	-8428
▁COSName	-8429
▁DBUtils	-8430
▁Options	-8431
▁aImport	-8432
▁details	-8433
▁elapsed	-8434
▁getRule	-8435
▁getSolr	-8436
▁getUnit	-8437
EXTENSION	-8438
Histogram	-8439
LayerSize	-8440
bservable	-8441
▁Category	-8442
▁Coercing	-8443
▁Metadata	-8444
▁examples	-8445
▁getNodes	-8446
▁iocValue	-8447
▁nodeName	-8448
▁outgoing	-8449
▁relative	-8450
Comparable	-8451
ForeignKey	-8452
▁Container	-8453
▁ModelType	-8454
▁NutConfig	-8455
▁SootClass	-8456
▁getSModel	-8457
▁getSearch	-8458
▁suggested	-8459
12144783797	-8460
CheckConfig	-8461
ServiceImpl	-8462
_4540508509	-8463
afeSupplier	-8464
▁CheckUtils	-8465
▁ThreadPool	-8466
▁getProfile	-8467
lasticsearch	-8468
▁CommandLine	-8469
▁TRANSACTION	-8470
▁endActivity	-8471
▁resNegative	-8472
▁childConcept	-8473
CallExpression	-8474
ServletContext	-8475
SessionFactory	-8476
ValueException	-8477
▁ByteArrayImpl	-8478
▁getSuperclass	-8479
▁separatorChar	-8480
FailedException	-8481
▁EditorLanguage	-8482
▁createActivity	-8483
▁getTransaction	-8484
▁CoreAnnotations	-8485
▁LocaleException	-8486
▁WarningProperty	-8487
▁hiddenLayerSize	-8488
▁incrementAndGet	-8489
▁visitMethodInsn	-8490
LF	-8491
NC	-8492
VR	-8493
YE	-8494
qv	-8495
001	-8496
277	-8497
323	-8498
786	-8499
Bus	-8500
DAY	-8501
GET	-8502
Mon	-8503
NER	-8504
QUO	-8505
RLF	-8506
UCE	-8507
__2	-8508
ilt	-8509
ota	-8510
uzz	-8511
▁AD	-8512
▁Gu	-8513
▁LA	-8514
▁pk	-8515
5900	-8516
6385	-8517
BITS	-8518
Dist	-8519
LOAT	-8520
PLAY	-8521
Pack	-8522
Punc	-8523
Room	-8524
STRI	-8525
icip	-8526
uted	-8527
▁FOR	-8528
▁Jar	-8529
▁NVG	-8530
▁TEN	-8531
▁cnd	-8532
▁exe	-8533
▁hop	-8534
▁jav	-8535
▁rpc	-8536
▁swt	-8537
54110	-8538
AMING	-8539
Below	-8540
Known	-8541
udson	-8542
▁EASE	-8543
▁FULL	-8544
▁clip	-8545
▁flat	-8546
▁getZ	-8547
▁href	-8548
▁qual	-8549
STRACT	-8550
porter	-8551
socket	-8552
▁IFile	-8553
▁Issue	-8554
▁LOCAL	-8555
▁Pager	-8556
▁mText	-8557
▁maker	-8558
▁place	-8559
▁setUp	-8560
▁trust	-8561
DEFINED	-8562
Encoded	-8563
EqualTo	-8564
Machine	-8565
Sampler	-8566
ighbors	-8567
▁BitSet	-8568
▁MILLIS	-8569
▁ORACLE	-8570
▁SOURCE	-8571
▁Spring	-8572
▁Symbol	-8573
▁bitext	-8574
▁bullet	-8575
▁getAss	-8576
▁iLevel	-8577
▁street	-8578
▁unwrap	-8579
Generics	-8580
NodeList	-8581
Readable	-8582
Shortcut	-8583
ierarchy	-8584
mentLink	-8585
ognition	-8586
▁CLOSING	-8587
▁classOf	-8588
▁cpDelta	-8589
▁getConf	-8590
▁getFont	-8591
▁getHits	-8592
▁getIcon	-8593
▁getJava	-8594
▁getMain	-8595
▁newName	-8596
▁payment	-8597
▁setting	-8598
▁tpDelta	-8599
REPRESENT	-8600
▁Sequence	-8601
▁iCurrent	-8602
▁optional	-8603
Membership	-8604
Positional	-8605
Visibility	-8606
ferability	-8607
identifier	-8608
▁BaseModel	-8609
▁Executors	-8610
▁LocalData	-8611
▁MODIFIERS	-8612
▁NamedList	-8613
▁addButton	-8614
▁classNode	-8615
▁classpath	-8616
▁getAction	-8617
▁getUpdate	-8618
▁setConfig	-8619
12254603016	-8620
BugReporter	-8621
GreaterThan	-8622
resentation	-8623
▁RenderInfo	-8624
▁components	-8625
▁getPrimary	-8626
▁httpClient	-8627
▁paramTypes	-8628
▁safeGetInt	-8629
▁Interceptor	-8630
▁contextPath	-8631
▁friendlyURL	-8632
▁getIdentity	-8633
▁getPrevious	-8634
▁productName	-8635
▁Interpolator	-8636
▁aStartLineNo	-8637
▁parseBoolean	-8638
LibraryBuilder	-8639
REPRESENTATION	-8640
SchemaStrategy	-8641
▁ResourceBundle	-8642
▁createTempFile	-8643
LinkLocalService	-8644
SubstituteAction	-8645
▁returnStatement	-8646
AO	-8647
IV	-8648
RM	-8649
108	-8650
144	-8651
182	-8652
342	-8653
520	-8654
578	-8655
645	-8656
665	-8657
Agg	-8658
BET	-8659
Inv	-8660
LIB	-8661
Mgr	-8662
RAW	-8663
SPE	-8664
awn	-8665
bit	-8666
esc	-8667
pan	-8668
▁Ab	-8669
▁NS	-8670
▁XR	-8671
▁ci	-8672
8350	-8673
Bugs	-8674
Dict	-8675
ENCO	-8676
REMO	-8677
befL	-8678
eref	-8679
imed	-8680
nate	-8681
ness	-8682
pers	-8683
prot	-8684
▁102	-8685
▁2.0	-8686
▁Bad	-8687
▁OPE	-8688
▁Sky	-8689
▁det	-8690
▁jde	-8691
▁jms	-8692
ByKey	-8693
Codec	-8694
Estim	-8695
GENER	-8696
INARY	-8697
LIMIT	-8698
Optim	-8699
Pager	-8700
RETRY	-8701
Sheet	-8702
array	-8703
chunk	-8704
entic	-8705
orary	-8706
print	-8707
width	-8708
xFFFF	-8709
▁Heap	-8710
▁Mary	-8711
▁PIPE	-8712
▁POST	-8713
▁ROLE	-8714
▁ctxt	-8715
▁note	-8716
384331	-8717
680832	-8718
OfType	-8719
ToLive	-8720
_12086	-8721
_12145	-8722
idence	-8723
ptions	-8724
▁CLOSE	-8725
▁EQUAL	-8726
▁Light	-8727
▁Times	-8728
▁alias	-8729
▁fatal	-8730
▁isJDK	-8731
▁young	-8732
Buffers	-8733
InBytes	-8734
▁Aggreg	-8735
▁Kernel	-8736
▁Multip	-8737
▁Sample	-8738
▁Street	-8739
▁Switch	-8740
▁Tagger	-8741
▁bitmap	-8742
▁castTo	-8743
▁person	-8744
▁rename	-8745
▁symbol	-8746
CloseTag	-8747
Textures	-8748
Timeline	-8749
ibernate	-8750
▁Browser	-8751
▁DBNNode	-8752
▁aObject	-8753
▁consume	-8754
▁getRead	-8755
▁indices	-8756
▁isArray	-8757
▁logInfo	-8758
▁ruleDao	-8759
▁sampler	-8760
▁weights	-8761
▁writeTo	-8762
498508350	-8763
AndReturn	-8764
Animation	-8765
Broadcast	-8766
DIRECTORY	-8767
Instances	-8768
ullParams	-8769
▁Injector	-8770
▁Provider	-8771
▁argTypes	-8772
▁extended	-8773
▁getQueue	-8774
▁getWorld	-8775
▁jdesktop	-8776
▁rollback	-8777
▁rowCount	-8778
▁tearDown	-8779
Expiration	-8780
JComponent	-8781
_121493195	-8782
▁IocObject	-8783
▁JComboBox	-8784
▁Principal	-8785
▁eventName	-8786
▁getChunks	-8787
▁listFiles	-8788
▁setLayout	-8789
▁supertype	-8790
68083254110	-8791
MultipleNew	-8792
PackageName	-8793
ProcessorEx	-8794
_1079007237	-8795
▁VertexType	-8796
▁hasMessage	-8797
▁timeStamps	-8798
▁Compilation	-8799
▁ObjectProxy	-8800
▁VirtualFile	-8801
▁compilation	-8802
▁elementList	-8803
▁getAllEdges	-8804
▁getAsString	-8805
▁getRelative	-8806
▁getTypeName	-8807
▁getCompanyId	-8808
▁getContainer	-8809
▁getGenerator	-8810
▁transferStep	-8811
▁SolrException	-8812
ConstantOperand	-8813
IndexOutOfBounds	-8814
▁KettleException	-8815
▁hasMoreElements	-8816
IB	-8817
ha	-8818
ny	-8819
tn	-8820
xc	-8821
zs	-8822
396	-8823
507	-8824
579	-8825
644	-8826
828	-8827
957	-8828
970	-8829
CEx	-8830
CSV	-8831
Cpu	-8832
Cur	-8833
Raw	-8834
The	-8835
eff	-8836
gen	-8837
ndi	-8838
omb	-8839
rig	-8840
scr	-8841
xis	-8842
▁WE	-8843
▁bg	-8844
▁dc	-8845
▁dn	-8846
▁dp	-8847
▁dx	-8848
▁nv	-8849
1719	-8850
6492	-8851
7314	-8852
9200	-8853
Comb	-8854
DOWN	-8855
Into	-8856
Like	-8857
MASK	-8858
Tran	-8859
_414	-8860
afka	-8861
aits	-8862
aybe	-8863
lone	-8864
loud	-8865
role	-8866
rupt	-8867
uzzy	-8868
▁ADD	-8869
▁DSL	-8870
▁IGN	-8871
▁MAP	-8872
▁asm	-8873
▁fId	-8874
▁fmt	-8875
▁fqn	-8876
▁hex	-8877
▁ini	-8878
▁jme	-8879
▁nio	-8880
▁rpn	-8881
▁tex	-8882
11864	-8883
13368	-8884
CCESS	-8885
CODEC	-8886
Const	-8887
ISTRY	-8888
IfNot	-8889
Restr	-8890
Spell	-8891
Terms	-8892
WRITE	-8893
_1237	-8894
ancer	-8895
bound	-8896
ithub	-8897
paren	-8898
parms	-8899
▁ICON	-8900
▁Kind	-8901
▁Push	-8902
▁STAN	-8903
▁Weak	-8904
▁ning	-8905
▁plus	-8906
▁qPos	-8907
▁rect	-8908
▁side	-8909
▁zoom	-8910
373373	-8911
Always	-8912
Sender	-8913
Strict	-8914
icture	-8915
▁Fault	-8916
▁crypt	-8917
▁flink	-8918
▁glyph	-8919
▁minus	-8920
▁month	-8921
▁pData	-8922
▁sanit	-8923
▁toInt	-8924
▁voice	-8925
1719926	-8926
9361993	-8927
Ignored	-8928
Maximum	-8929
Mutable	-8930
Payment	-8931
Replica	-8932
Written	-8933
_108074	-8934
_121387	-8935
csField	-8936
▁Bucket	-8937
▁UPDATE	-8938
▁ZLText	-8939
▁adjust	-8940
▁getEnc	-8941
▁getUri	-8942
▁mapMap	-8943
Animator	-8944
Creation	-8945
Terminal	-8946
_4146564	-8947
ceptable	-8948
provider	-8949
▁CLUSTER	-8950
▁Dynamic	-8951
▁Handler	-8952
▁Library	-8953
▁OPENING	-8954
▁capital	-8955
▁isAsync	-8956
▁mColumn	-8957
▁objects	-8958
▁verbose	-8959
Exclusive	-8960
enticated	-8961
▁Dataflow	-8962
▁OCluster	-8963
▁aMessage	-8964
▁aRootAST	-8965
▁getItems	-8966
▁relation	-8967
▁rotation	-8968
▁skipPunc	-8969
▁solution	-8970
ExecParams	-8971
FieldValue	-8972
comparable	-8973
oException	-8974
▁ClassInfo	-8975
▁DebugInfo	-8976
▁Scheduler	-8977
▁getDouble	-8978
▁getPlugin	-8979
▁getPrefix	-8980
▁isPrivate	-8981
▁orPattern	-8982
▁shortName	-8983
▁shouldNot	-8984
▁userAgent	-8985
ModelAccess	-8986
▁DataReader	-8987
▁MethodBody	-8988
▁getCatalog	-8989
▁jsonObject	-8990
Configration	-8991
StaticMethod	-8992
▁commandLine	-8993
▁getClientId	-8994
▁getParentId	-8995
▁instantiate	-8996
▁mappedField	-8997
▁preferences	-8998
▁writeObject	-8999
QualifiedName	-9000
▁BorderLayout	-9001
▁getSignature	-9002
iationStrategy	-9003
▁singletonList	-9004
_41465641719926	-9005
▁DeploymentImpl	-9006
▁writeAttribute	-9007
RT	-9008
mv	-9009
xd	-9010
102	-9011
334	-9012
958	-9013
ALF	-9014
Acc	-9015
IES	-9016
LER	-9017
NEL	-9018
Rad	-9019
SDK	-9020
Vec	-9021
__5	-9022
alm	-9023
era	-9024
med	-9025
sci	-9026
tqv	-9027
▁LT	-9028
▁Nd	-9029
▁TE	-9030
▁ix	-9031
▁jk	-9032
▁lt	-9033
▁pb	-9034
▁pm	-9035
▁sv	-9036
8252	-9037
CALL	-9038
Func	-9039
SERT	-9040
Sent	-9041
Tabs	-9042
cont	-9043
fill	-9044
gate	-9045
pack	-9046
rule	-9047
sFor	-9048
unda	-9049
vers	-9050
▁404	-9051
▁_2_	-9052
▁alt	-9053
▁ham	-9054
▁joo	-9055
▁leg	-9056
▁qpm	-9057
ANODE	-9058
FIRST	-9059
LOBAL	-9060
LOCAL	-9061
SHORT	-9062
VIOUS	-9063
color	-9064
etype	-9065
ledge	-9066
stack	-9067
▁AUTO	-9068
▁Coin	-9069
▁Supp	-9070
▁blue	-9071
▁getK	-9072
▁none	-9073
▁nutz	-9074
▁objs	-9075
▁solr	-9076
Deploy	-9077
GROUND	-9078
PUBLIC	-9079
Protos	-9080
Quotes	-9081
SUFFIX	-9082
column	-9083
erator	-9084
ocated	-9085
sCount	-9086
server	-9087
typing	-9088
▁COLOR	-9089
▁OHttp	-9090
▁Redis	-9091
▁Scene	-9092
▁getCh	-9093
▁getDb	-9094
▁layer	-9095
6564583	-9096
Compact	-9097
Matched	-9098
OpenTag	-9099
Parsing	-9100
VarInsn	-9101
ascript	-9102
default	-9103
dispose	-9104
inality	-9105
oftware	-9106
vidence	-9107
▁Cursor	-9108
▁IGNORE	-9109
▁Intent	-9110
▁JPanel	-9111
▁Linear	-9112
▁Syntax	-9113
▁aEvent	-9114
▁coerce	-9115
▁docker	-9116
▁getWeb	-9117
▁inline	-9118
▁stroke	-9119
AppState	-9120
Continue	-9121
DATANODE	-9122
IntArray	-9123
Launcher	-9124
Penality	-9125
Searcher	-9126
Standard	-9127
alformed	-9128
ineseSeg	-9129
requency	-9130
▁Binding	-9131
▁Catalog	-9132
▁Example	-9133
▁deleteP	-9134
▁generic	-9135
▁getTask	-9136
▁maxIdle	-9137
▁mockito	-9138
▁myModel	-9139
▁preload	-9140
▁promise	-9141
▁readInt	-9142
▁spacing	-9143
▁subList	-9144
▁targets	-9145
▁trimmed	-9146
FieldType	-9147
Isolation	-9148
_12163820	-9149
arshaller	-9150
▁Terminal	-9151
▁classOfT	-9152
▁findView	-9153
▁historic	-9154
▁propName	-9155
▁setImage	-9156
▁setParam	-9157
▁testEnum	-9158
1214477638	-9159
Assignment	-9160
SharedLock	-9161
TargetText	-9162
TestEntity	-9163
Translator	-9164
ationCheck	-9165
▁BuildRule	-9166
▁ClassPath	-9167
▁ImageIcon	-9168
▁Rectangle	-9169
▁acknowled	-9170
▁dimension	-9171
▁firstChar	-9172
▁getBuffer	-9173
▁isSubtype	-9174
▁removeAll	-9175
▁setBorder	-9176
CallContext	-9177
Expressions	-9178
_1165271211	-9179
▁ANNOTATION	-9180
▁CONNECTION	-9181
▁Executable	-9182
▁HttpStatus	-9183
▁HttpString	-9184
▁KeyedState	-9185
▁MPSProject	-9186
▁attachment	-9187
▁getPadding	-9188
▁instanceOf	-9189
▁targetStep	-9190
113953293047	-9191
122546080604	-9192
ConnectionOn	-9193
_12282695575	-9194
disposeBlock	-9195
▁HttpHeaders	-9196
▁getMessages	-9197
▁getVariable	-9198
▁mustApplyTo	-9199
▁taskService	-9200
▁testProject	-9201
▁transformer	-9202
ConceptInList	-9203
TypeException	-9204
_113953293047	-9205
▁addParameter	-9206
▁visitVarInsn	-9207
ChangeProperty	-9208
▁SparkTestUtil	-9209
▁fetchPriority	-9210
▁getVersionNum	-9211
▁setBackground	-9212
▁assertContains	-9213
▁enumFormString	-9214
ActivityBehavior	-9215
▁AnalysisContext	-9216
▁enumQueryDouble	-9217
▁enumQueryString	-9218
▁linkDeclaration	-9219
Di	-9220
WO	-9221
gy	-9222
ng	-9223
rd	-9224
rz	-9225
140	-9226
150	-9227
161	-9228
185	-9229
304	-9230
338	-9231
572	-9232
868	-9233
879	-9234
ALE	-9235
Dif	-9236
LOB	-9237
Lex	-9238
MIS	-9239
PON	-9240
ROP	-9241
Tok	-9242
UME	-9243
_74	-9244
__4	-9245
cel	-9246
eel	-9247
esh	-9248
tag	-9249
▁AB	-9250
▁DL	-9251
▁ES	-9252
▁LI	-9253
▁pg	-9254
1473	-9255
COMP	-9256
Cons	-9257
EDED	-9258
EXPI	-9259
Hits	-9260
Mess	-9261
Push	-9262
ROOT	-9263
Safe	-9264
bind	-9265
elem	-9266
oard	-9267
qube	-9268
▁Cre	-9269
▁Lex	-9270
▁Tab	-9271
▁mid	-9272
▁pat	-9273
▁pdf	-9274
DELAY	-9275
OLDER	-9276
Produ	-9277
SCAPE	-9278
Trail	-9279
ading	-9280
arded	-9281
enger	-9282
▁Call	-9283
▁FIRE	-9284
▁High	-9285
▁Kill	-9286
▁Pref	-9287
▁ZERO	-9288
▁arch	-9289
▁city	-9290
▁elem	-9291
▁emit	-9292
▁hits	-9293
▁pets	-9294
▁ping	-9295
▁tabs	-9296
▁vars	-9297
Digest	-9298
Effect	-9299
Flavor	-9300
Footer	-9301
HEADER	-9302
Locked	-9303
ansion	-9304
attery	-9305
cepted	-9306
ulfill	-9307
▁BLOCK	-9308
▁HUtil	-9309
▁basic	-9310
▁cells	-9311
▁jkiss	-9312
▁lexer	-9313
9539604	-9314
BALANCE	-9315
Include	-9316
Numbers	-9317
Pending	-9318
RowMeta	-9319
Spacing	-9320
UNCTION	-9321
Wrapped	-9322
antType	-9323
▁BORDER	-9324
▁DOUBLE	-9325
▁Digest	-9326
▁ENABLE	-9327
▁RETURN	-9328
▁Recent	-9329
▁STRUCT	-9330
▁TARGET	-9331
▁aArray	-9332
▁define	-9333
▁isDone	-9334
▁latest	-9335
▁lineNo	-9336
▁models	-9337
▁upload	-9338
▁volume	-9339
65424779	-9340
Features	-9341
Observer	-9342
PREVIOUS	-9343
rounding	-9344
sciption	-9345
▁addWord	-9346
▁isFinal	-9347
▁reverse	-9348
▁setFont	-9349
Positions	-9350
▁Encoding	-9351
▁Graphics	-9352
▁Protocol	-9353
▁Supplier	-9354
▁aComment	-9355
▁birthday	-9356
▁boundary	-9357
▁declared	-9358
▁getStore	-9359
▁handlers	-9360
▁myReader	-9361
▁nextNode	-9362
▁toMillis	-9363
▁toSorted	-9364
CallTarget	-9365
ColumnName	-9366
ObjectName	-9367
isionShape	-9368
▁PARAMETER	-9369
▁addMethod	-9370
▁getStream	-9371
▁hazelcast	-9372
▁myFixture	-9373
▁neighbors	-9374
▁openGroup	-9375
▁potential	-9376
▁requested	-9377
▁sanitizer	-9378
11654247794	-9379
AccessToken	-9380
ApiResponse	-9381
Directories	-9382
Identifiers	-9383
Refactoring	-9384
ThreadLocal	-9385
TypeAdapter	-9386
▁ActionInfo	-9387
▁addContent	-9388
▁expiration	-9389
▁projection	-9390
▁readString	-9391
aretPosition	-9392
▁DBNDatabase	-9393
▁ModelAccess	-9394
▁addProperty	-9395
▁showMessage	-9396
▁toCharArray	-9397
ConceptFQName	-9398
QueryFunction	-9399
SecurityCheck	-9400
▁QueryOptions	-9401
▁columnFamily	-9402
▁findViewById	-9403
▁getLastChild	-9404
Configurations	-9405
Implementation	-9406
RequestMapping	-9407
▁BasicDBObject	-9408
▁RequestMethod	-9409
▁attributeName	-9410
▁CountDownLatch	-9411
▁JavadocTagInfo	-9412
▁addSubsciption	-9413
▁SimpleAttribute	-9414
▁StreetTraversal	-9415
▁getOutputStream	-9416
Em	-9417
MX	-9418
fg	-9419
no	-9420
▁#	-9421
137	-9422
138	-9423
688	-9424
923	-9425
968	-9426
CAN	-9427
ERT	-9428
FOX	-9429
Fan	-9430
ILA	-9431
MET	-9432
OIN	-9433
VOL	-9434
_20	-9435
_51	-9436
_86	-9437
cdq	-9438
▁26	-9439
▁54	-9440
▁84	-9441
▁MY	-9442
▁ie	-9443
▁je	-9444
▁pv	-9445
▁sf	-9446
▁wb	-9447
1767	-9448
3092	-9449
5660	-9450
Cols	-9451
Decl	-9452
JAVA	-9453
OWER	-9454
auge	-9455
ense	-9456
imap	-9457
lark	-9458
ocab	-9459
reds	-9460
tree	-9461
utor	-9462
▁NoV	-9463
▁Pay	-9464
▁YES	-9465
▁bpm	-9466
▁ind	-9467
▁mgt	-9468
▁txt	-9469
80757	-9470
84900	-9471
96612	-9472
PONSE	-9473
Pause	-9474
Power	-9475
anged	-9476
cdqxf	-9477
graph	-9478
wners	-9479
▁FLAG	-9480
▁Hive	-9481
▁MASK	-9482
▁Maps	-9483
▁iobj	-9484
▁jump	-9485
▁rand	-9486
▁sign	-9487
▁tile	-9488
ATIONS	-9489
Quoted	-9490
SCRIPT	-9491
Ticket	-9492
atible	-9493
lucent	-9494
sEntry	-9495
▁Email	-9496
▁Mouse	-9497
▁Poshi	-9498
▁Theme	-9499
▁WHITE	-9500
▁alert	-9501
▁audio	-9502
▁tests	-9503
▁toURI	-9504
3179200	-9505
Disable	-9506
OLUTION	-9507
Overrid	-9508
Receive	-9509
Stopped	-9510
innable	-9511
ossible	-9512
▁Binder	-9513
▁COLUMN	-9514
▁Errors	-9515
▁Insets	-9516
▁NUMBER	-9517
▁REGEXP	-9518
▁SIZEOF	-9519
▁Shared	-9520
▁Sparse	-9521
▁TENANT	-9522
▁depose	-9523
▁getStr	-9524
▁groovy	-9525
▁mFirst	-9526
▁ranges	-9527
80696612	-9528
Mismatch	-9529
function	-9530
generate	-9531
iableAlt	-9532
perating	-9533
utomatic	-9534
▁Feature	-9535
▁SESSION	-9536
▁camunda	-9537
▁classPK	-9538
▁createH	-9539
▁dbeaver	-9540
▁flatMap	-9541
▁getChar	-9542
▁getJson	-9543
▁mParent	-9544
▁openapi	-9545
▁ordinal	-9546
NotStatic	-9547
Paragraph	-9548
Statistic	-9549
ValuePair	-9550
_11864024	-9551
ingMethod	-9552
rivileged	-9553
▁COSArray	-9554
▁Progress	-9555
▁ReadOnly	-9556
▁VARIABLE	-9557
▁defaults	-9558
▁fallback	-9559
▁isActive	-9560
▁mMessage	-9561
▁received	-9562
▁standard	-9563
▁testutil	-9564
▁timeline	-9565
Applicable	-9566
Categories	-9567
▁SortedSet	-9568
▁Tokenizer	-9569
▁addString	-9570
▁bootstrap	-9571
▁confusion	-9572
▁deletePet	-9573
▁direction	-9574
▁scheduler	-9575
11376332090	-9576
12144776555	-9577
Alternation	-9578
Alternative	-9579
▁AnalyzingS	-9580
▁MethodType	-9581
▁ObjectName	-9582
▁objectName	-9583
▁persistent	-9584
▁targetType	-9585
Constructors	-9586
_11652712116	-9587
▁NoViableAlt	-9588
▁bugReporter	-9589
▁createEmpty	-9590
▁documentapi	-9591
▁getFilename	-9592
▁getMetadata	-9593
▁getTestStep	-9594
▁isPrimitive	-9595
▁userSession	-9596
roundingScope	-9597
▁AttributeMap	-9598
▁SocketAction	-9599
▁getSkinnable	-9600
▁initialValue	-9601
▁lastModified	-9602
ResultRecieved	-9603
▁getStyleClass	-9604
▁propertyValue	-9605
TargetException	-9606
_34441164341746	-9607
ulfillmentGroup	-9608
▁cacheHitStores	-9609
▁persistedModel	-9610
▁requireNonNull	-9611
▁StringTokenizer	-9612
FW	-9613
GR	-9614
pl	-9615
2_1	-9616
870	-9617
93_	-9618
AIT	-9619
CHA	-9620
IOR	-9621
Mic	-9622
NCE	-9623
Ops	-9624
PTS	-9625
VID	-9626
bon	-9627
cha	-9628
chh	-9629
rer	-9630
url	-9631
▁85	-9632
▁CL	-9633
▁SR	-9634
▁ld	-9635
▁nd	-9636
▁ve	-9637
1653	-9638
6162	-9639
BYTE	-9640
Cert	-9641
FORD	-9642
Fold	-9643
HOME	-9644
Plus	-9645
Refs	-9646
Roll	-9647
Spot	-9648
VERY	-9649
WORK	-9650
_119	-9651
bird	-9652
head	-9653
ierd	-9654
inct	-9655
iner	-9656
less	-9657
lict	-9658
osed	-9659
sPer	-9660
uman	-9661
vere	-9662
▁101	-9663
▁And	-9664
▁CAN	-9665
▁End	-9666
▁Has	-9667
▁Rtf	-9668
▁SVN	-9669
▁Tra	-9670
▁cid	-9671
▁mse	-9672
▁two	-9673
49937	-9674
ASTER	-9675
Angle	-9676
Codes	-9677
Evict	-9678
ILITY	-9679
PTCHA	-9680
Slash	-9681
ToInt	-9682
Voice	-9683
conds	-9684
crest	-9685
eeper	-9686
isson	-9687
izard	-9688
posed	-9689
ridge	-9690
scope	-9691
trans	-9692
write	-9693
▁1005	-9694
▁PATH	-9695
▁Root	-9696
▁SELE	-9697
▁atom	-9698
▁days	-9699
▁hide	-9700
▁hive	-9701
▁kill	-9702
▁newX	-9703
▁setM	-9704
605786	-9705
Backup	-9706
CLOSED	-9707
CURITY	-9708
Cancel	-9709
Cookie	-9710
DOUBLE	-9711
ILABLE	-9712
SEARCH	-9713
Tables	-9714
enters	-9715
ercise	-9716
output	-9717
urface	-9718
▁Actor	-9719
▁COUNT	-9720
▁Money	-9721
▁authc	-9722
▁black	-9723
▁getOp	-9724
▁opens	-9725
▁space	-9726
▁wierd	-9727
MAPPING	-9728
Servers	-9729
VarArgs	-9730
Virtual	-9731
antiles	-9732
ownload	-9733
▁SELECT	-9734
▁aFirst	-9735
▁absent	-9736
▁effect	-9737
▁expert	-9738
▁getSql	-9739
▁mScope	-9740
▁opened	-9741
▁period	-9742
▁states	-9743
▁unbind	-9744
Absolute	-9745
Callable	-9746
Explorer	-9747
Prefixes	-9748
ashboard	-9749
bability	-9750
▁ByteBuf	-9751
▁Problem	-9752
▁SqlType	-9753
▁checker	-9754
▁ignored	-9755
▁maximum	-9756
▁putHTML	-9757
▁running	-9758
▁setItem	-9759
▁toolbar	-9760
Connected	-9761
Extractor	-9762
FullIdent	-9763
Rectangle	-9764
TextColor	-9765
Whitelist	-9766
▁Consumer	-9767
▁NameUtil	-9768
▁STANFORD	-9769
▁crawling	-9770
▁endIndex	-9771
▁firstLeg	-9772
▁getLevel	-9773
▁hamcrest	-9774
▁readOnly	-9775
▁startPos	-9776
▁supports	-9777
Configured	-9778
DepthLevel	-9779
Management	-9780
Suppressor	-9781
constraint	-9782
▁Directive	-9783
▁Generator	-9784
▁TableName	-9785
▁broadcast	-9786
▁fetchSelf	-9787
▁firstName	-9788
▁getCustom	-9789
▁iocObject	-9790
▁isDefault	-9791
▁localRegs	-9792
▁secondLeg	-9793
▁sendError	-9794
▁systemOut	-9795
Initialized	-9796
▁UnitOfWork	-9797
▁formatTest	-9798
▁getForward	-9799
▁getMethods	-9800
▁invalidate	-9801
▁remotePath	-9802
▁sourceStep	-9803
▁statusCode	-9804
_11654247794	-9805
_11821912645	-9806
_12254603016	-9807
_12254603018	-9808
▁BaseAdapter	-9809
▁PoshiRunner	-9810
▁Preferences	-9811
▁mavenBundle	-9812
▁reportError	-9813
▁setVariable	-9814
_116527121165	-9815
_122546030167	-9816
mentGroupTime	-9817
yperlinkLabel	-9818
▁682375462378	-9819
▁CommonParams	-9820
▁ddmStructure	-9821
▁deploymentId	-9822
▁numberString	-9823
▁setCharacter	-9824
LineAnnotation	-9825
MessageHandler	-9826
▁JSONException	-9827
▁JpaTestEntity	-9828
▁getReturnType	-9829
▁getTestConfig	-9830
▁parsedRecords	-9831
▁wierdDateTime	-9832
ActionException	-9833
PropertiesClass	-9834
linkDeclaration	-9835
▁assertFunction	-9836
▁getContentType	-9837
▁iLevelFromRoot	-9838
▁toSortedString	-9839
WorkingDirectory	-9840
▁DBNDatabaseNode	-9841
▁confusionMatrix	-9842
PC	-9843
ci	-9844
wd	-9845
112	-9846
162	-9847
346	-9848
656	-9849
DEP	-9850
DOM	-9851
Gpx	-9852
Old	-9853
PAH	-9854
bro	-9855
lab	-9856
mar	-9857
opt	-9858
sup	-9859
uff	-9860
wnl	-9861
▁Ac	-9862
▁MB	-9863
▁RS	-9864
▁bb	-9865
▁ce	-9866
▁iw	-9867
▁nb	-9868
▁nc	-9869
1768	-9870
3200	-9871
5117	-9872
9317	-9873
BETS	-9874
Fire	-9875
HASH	-9876
Inst	-9877
Mill	-9878
Norm	-9879
ONTH	-9880
OPER	-9881
PAGE	-9882
Ping	-9883
RAME	-9884
Zoom	-9885
broc	-9886
ceed	-9887
edis	-9888
lags	-9889
luid	-9890
oned	-9891
page	-9892
▁899	-9893
▁Pkg	-9894
▁cmp	-9895
▁pow	-9896
▁sdk	-9897
▁utf	-9898
Audit	-9899
Calls	-9900
Catch	-9901
Hosts	-9902
ITORY	-9903
Prote	-9904
Setup	-9905
Speed	-9906
bench	-9907
force	-9908
track	-9909
▁8080	-9910
▁AUTH	-9911
▁HOUR	-9912
▁Mark	-9913
▁Role	-9914
▁Temp	-9915
▁cols	-9916
309284	-9917
320157	-9918
877960	-9919
Blocks	-9920
ByUser	-9921
Decode	-9922
Modify	-9923
SYSTEM	-9924
Strong	-9925
ToNode	-9926
ainter	-9927
ceeded	-9928
illing	-9929
layout	-9930
mvbroc	-9931
ookies	-9932
return	-9933
verted	-9934
▁ALIGN	-9935
▁ALPAH	-9936
▁Codec	-9937
▁Cover	-9938
▁RETRY	-9939
▁Reply	-9940
▁SMALL	-9941
▁Visit	-9942
▁canBe	-9943
▁edges	-9944
▁getBy	-9945
▁links	-9946
▁optim	-9947
▁phase	-9948
▁press	-9949
▁slash	-9950
▁slave	-9951
▁thumb	-9952
1810193	-9953
5117616	-9954
AsGroup	-9955
PERCENT	-9956
Routing	-9957
Special	-9958
cluding	-9959
ercises	-9960
▁Cached	-9961
▁DELETE	-9962
▁Define	-9963
▁bounds	-9964
▁canvas	-9965
▁caught	-9966
▁getTop	-9967
▁iValue	-9968
▁isShow	-9969
Checkbox	-9970
Dataflow	-9971
Debugger	-9972
Detailed	-9973
Drawable	-9974
EventSet	-9975
Explicit	-9976
Finished	-9977
INSTANCE	-9978
NumberOf	-9979
POSITORY	-9980
Severity	-9981
Validate	-9982
avigator	-9983
thesizer	-9984
▁Invoker	-9985
▁argList	-9986
▁atLeast	-9987
▁battery	-9988
▁colName	-9989
▁docBase	-9990
▁getTree	-9991
▁hasText	-9992
▁logFine	-9993
▁texture	-9994
AccountId	-9995
Protected	-9996
Requested	-9997
_51877960	-9998
pellCheck	-9999
quotation	-10000
▁KeyEvent	-10001
▁TimeZone	-10002
▁drawLine	-10003
▁getOrder	-10004
▁getTrans	-10005
▁incoming	-10006
▁lastName	-10007
▁rootNode	-10008
▁rowIndex	-10009
▁selenium	-10010
▁setStyle	-10011
PROPERTIES	-10012
▁ALPAHBETS	-10013
▁LogRecord	-10014
▁cassandra	-10015
▁getThread	-10016
▁highlight	-10017
▁isVisible	-10018
▁productId	-10019
11806159100	-10020
Inspections	-10021
▁autoCommit	-10022
▁closeGroup	-10023
▁getMinimum	-10024
▁identifier	-10025
▁setCurrent	-10026
▁shouldHave	-10027
▁strProblem	-10028
▁unregister	-10029
▁writeBytes	-10030
122826955770	-10031
ConstantPool	-10032
Localization	-10033
PathVariable	-10034
WhileNotNull	-10035
mandSettings	-10036
▁ByReference	-10037
▁CheckResult	-10038
▁Expectation	-10039
▁NutResource	-10040
▁Switchboard	-10041
▁numTextures	-10042
▁startOffset	-10043
▁typeMapping	-10044
BlockingQueue	-10045
Disambiguator	-10046
IteratorState	-10047
ObjectFactory	-10048
typingManager	-10049
▁OperatorImpl	-10050
▁isAnnotation	-10051
▁setLongitude	-10052
Characteristic	-10053
ManagerAdapter	-10054
▁SqlExpression	-10055
ChangeListeners	-10056
ProgressMonitor	-10057
▁ActionListener	-10058
▁LinkedIntArray	-10059
▁getPropDefault	-10060
▁SecurityManager	-10061
▁getAbsoluteFile	-10062
CY	-10063
Ca	-10064
SQ	-10065
WI	-10066
129	-10067
153	-10068
622	-10069
969	-10070
DSL	-10071
Lib	-10072
OID	-10073
Rel	-10074
_88	-10075
bot	-10076
ips	-10077
iry	-10078
orr	-10079
riw	-10080
sub	-10081
uch	-10082
wmt	-10083
▁56	-10084
▁Cg	-10085
▁Op	-10086
▁PL	-10087
▁VT	-10088
▁gt	-10089
▁na	-10090
6590	-10091
6919	-10092
BODY	-10093
DELI	-10094
FROM	-10095
Free	-10096
HEAD	-10097
IMUM	-10098
ORIZ	-10099
POOL	-10100
Proc	-10101
URES	-10102
alar	-10103
come	-10104
gers	-10105
gree	-10106
mode	-10107
this	-10108
user	-10109
▁Att	-10110
▁BAD	-10111
▁CUR	-10112
▁DDM	-10113
▁Uri	-10114
▁ant	-10115
▁cmt	-10116
▁kal	-10117
▁was	-10118
82637	-10119
94462	-10120
95564	-10121
BATCH	-10122
Camel	-10123
Cover	-10124
MATCH	-10125
Manag	-10126
NAMES	-10127
PLAIN	-10128
Storm	-10129
crriw	-10130
ecure	-10131
ertow	-10132
essil	-10133
icast	-10134
otate	-10135
ycler	-10136
▁CHAR	-10137
▁FROM	-10138
▁Main	-10139
▁Span	-10140
▁ance	-10141
110396	-10142
119850	-10143
Bitmap	-10144
CATION	-10145
CharAt	-10146
FAILED	-10147
Manage	-10148
Phrase	-10149
Proper	-10150
VOLUME	-10151
_10884	-10152
aptcha	-10153
erRule	-10154
escape	-10155
icense	-10156
parent	-10157
wnlwmt	-10158
▁COMMA	-10159
▁Datum	-10160
▁Druid	-10161
▁Fuzzy	-10162
▁MATCH	-10163
▁coeff	-10164
▁corre	-10165
▁descr	-10166
▁focus	-10167
▁getAl	-10168
▁getPr	-10169
▁iface	-10170
▁named	-10171
▁needs	-10172
▁plain	-10173
▁ratio	-10174
▁xpath	-10175
1176800	-10176
6492963	-10177
ACCOUNT	-10178
NString	-10179
Symbols	-10180
TagName	-10181
UNKNOWN	-10182
ervisor	-10183
icsType	-10184
liferay	-10185
umulate	-10186
vention	-10187
▁Format	-10188
▁HStore	-10189
▁Mapper	-10190
▁Member	-10191
▁ancest	-10192
▁atomic	-10193
▁fqName	-10194
▁incomp	-10195
▁mrbird	-10196
▁mySeed	-10197
▁nodeId	-10198
▁points	-10199
▁reduce	-10200
▁retrie	-10201
▁setInt	-10202
▁solver	-10203
11864024	-10204
70295564	-10205
Concrete	-10206
Contexts	-10207
Entities	-10208
Excludes	-10209
Fraction	-10210
Patterns	-10211
Solution	-10212
executor	-10213
pearance	-10214
▁ENumber	-10215
▁FIREFOX	-10216
▁Measure	-10217
▁Pokemon	-10218
▁accepts	-10219
▁browser	-10220
▁closure	-10221
▁getTemp	-10222
▁literal	-10223
▁minimum	-10224
▁setData	-10225
▁setRole	-10226
ClassInfo	-10227
EmptyLine	-10228
Including	-10229
Migration	-10230
NAMESPACE	-10231
Remaining	-10232
agination	-10233
▁Currency	-10234
▁getEntry	-10235
▁indirect	-10236
▁isLetter	-10237
▁kalessil	-10238
▁newState	-10239
▁override	-10240
▁phpStorm	-10241
▁setCount	-10242
1214480452	-10243
4716774324	-10244
Activation	-10245
Aggregator	-10246
Disconnect	-10247
Filesystem	-10248
JavaSerial	-10249
OuterClass	-10250
PrivateKey	-10251
Terminated	-10252
losingNode	-10253
▁ItemStack	-10254
▁Multipart	-10255
▁SQLSERVER	-10256
▁WaitState	-10257
▁batchSize	-10258
▁beginTree	-10259
▁fromIndex	-10260
▁getScheme	-10261
▁layoutSet	-10262
▁miniBatch	-10263
▁ownerType	-10264
▁reportBug	-10265
▁supported	-10266
12254603023	-10267
MemoryError	-10268
Permissions	-10269
ScmMaterial	-10270
Unsupported	-10271
annotations	-10272
entIterable	-10273
osedMessage	-10274
▁BugPattern	-10275
▁Predicates	-10276
▁getActions	-10277
▁ignoreNull	-10278
▁operations	-10279
▁registered	-10280
▁twitterAPI	-10281
Identifiable	-10282
weightThread	-10283
▁IndentLevel	-10284
▁JobInstance	-10285
▁PESTCONTROL	-10286
▁PortletKeys	-10287
▁aStartColNo	-10288
▁collections	-10289
▁jobExecutor	-10290
▁scriptIndex	-10291
▁serviceName	-10292
EntityManager	-10293
InspectionsEA	-10294
▁APIException	-10295
▁BaseLanguage	-10296
▁activeEditor	-10297
▁encodeNested	-10298
_3567142084945	-10299
▁defaultLayout	-10300
▁getAcceptable	-10301
▁scoreDirector	-10302
_30090441466212	-10303
▁AbstractAction	-10304
▁authentication	-10305
▁hyperlinkLabel	-10306
InequationStrong	-10307
▁DetectorOptions	-10308
AK	-10309
BT	-10310
Gc	-10311
Ol	-10312
Pl	-10313
SA	-10314
SM	-10315
lh	-10316
109	-10317
128	-10318
134	-10319
156	-10320
159	-10321
197	-10322
222	-10323
321	-10324
355	-10325
473	-10326
642	-10327
676	-10328
728	-10329
754	-10330
857	-10331
920	-10332
AMP	-10333
Ans	-10334
CHO	-10335
Cop	-10336
GRA	-10337
HAV	-10338
LAB	-10339
LSH	-10340
ORS	-10341
Req	-10342
SHI	-10343
Suc	-10344
TIC	-10345
Uid	-10346
alt	-10347
ano	-10348
asm	-10349
cho	-10350
del	-10351
emi	-10352
iav	-10353
off	-10354
phj	-10355
plg	-10356
▁55	-10357
▁Gr	-10358
▁VI	-10359
▁dy	-10360
▁ep	-10361
▁lp	-10362
▁pd	-10363
▁rm	-10364
▁rv	-10365
▁we	-10366
8683	-10367
ASET	-10368
BEAT	-10369
CHED	-10370
Cost	-10371
FORE	-10372
IBLE	-10373
Lang	-10374
Nums	-10375
POCH	-10376
TAGS	-10377
WARD	-10378
amma	-10379
enda	-10380
eric	-10381
ette	-10382
from	-10383
loor	-10384
miss	-10385
onge	-10386
ried	-10387
rong	-10388
task	-10389
vide	-10390
▁DBe	-10391
▁Doc	-10392
▁GUI	-10393
▁Leg	-10394
▁Non	-10395
▁aux	-10396
▁avg	-10397
▁pie	-10398
▁sig	-10399
96668	-10400
Ascii	-10401
Guard	-10402
LEGAL	-10403
Large	-10404
Shelf	-10405
Until	-10406
_2472	-10407
acted	-10408
allow	-10409
anted	-10410
apter	-10411
aterm	-10412
iness	-10413
ingId	-10414
ither	-10415
oggle	-10416
pping	-10417
ssion	-10418
stone	-10419
ubSub	-10420
ulary	-10421
ulate	-10422
▁Back	-10423
▁GLFW	-10424
▁LIST	-10425
▁META	-10426
▁WARN	-10427
▁WRAP	-10428
▁buff	-10429
▁cert	-10430
▁dict	-10431
▁gray	-10432
▁setB	-10433
▁setT	-10434
Accept	-10435
Adjust	-10436
Arrays	-10437
Center	-10438
DOMAIN	-10439
FINDER	-10440
_11770	-10441
acters	-10442
anager	-10443
errain	-10444
icClue	-10445
jected	-10446
writer	-10447
▁Batch	-10448
▁EXTRA	-10449
▁FLOAT	-10450
▁Items	-10451
▁Realm	-10452
▁Tools	-10453
▁Trace	-10454
▁adapt	-10455
▁decor	-10456
▁getAd	-10457
8251768	-10458
ATEGORY	-10459
Exactly	-10460
Loaders	-10461
Padding	-10462
Readers	-10463
Require	-10464
Restore	-10465
Targets	-10466
Unknown	-10467
ognizer	-10468
ventory	-10469
▁100000	-10470
▁Insert	-10471
▁NAMING	-10472
▁Opcode	-10473
▁Sponge	-10474
▁border	-10475
▁footer	-10476
▁stored	-10477
ABSTRACT	-10478
Evidence	-10479
Expander	-10480
LOCATION	-10481
atermark	-10482
enticate	-10483
rivilege	-10484
sContext	-10485
▁Address	-10486
▁DBeaver	-10487
▁Managed	-10488
▁actived	-10489
▁curator	-10490
▁dataset	-10491
▁disconf	-10492
▁getCore	-10493
▁getSite	-10494
▁isFalse	-10495
▁isFirst	-10496
▁managed	-10497
▁platoon	-10498
▁program	-10499
▁records	-10500
▁setSize	-10501
566096668	-10502
AVAILABLE	-10503
ClazzInfo	-10504
Evaluator	-10505
GroupName	-10506
Multipart	-10507
TreeTable	-10508
enMethods	-10509
ocabulary	-10510
▁Distance	-10511
▁Endpoint	-10512
▁Splitter	-10513
▁TextView	-10514
▁absolute	-10515
▁callable	-10516
▁dataType	-10517
▁enhanced	-10518
▁expanded	-10519
▁findFile	-10520
▁findNext	-10521
▁mAllowed	-10522
▁modifier	-10523
▁referrer	-10524
▁reserved	-10525
▁sendBody	-10526
▁setLevel	-10527
▁useProxy	-10528
▁wildcard	-10529
Executions	-10530
Regression	-10531
StyleSheet	-10532
Subscriber	-10533
▁ClassSize	-10534
▁Malformed	-10535
▁PROTECTED	-10536
▁Paintable	-10537
▁addHeader	-10538
▁configXml	-10539
▁dbSession	-10540
▁firstLine	-10541
▁getRegion	-10542
▁nullValue	-10543
▁setMethod	-10544
▁workspace	-10545
EscapeUtils	-10546
SpellerRule	-10547
▁FileWriter	-10548
▁classifier	-10549
▁completion	-10550
▁containing	-10551
▁fileUpload	-10552
▁getAccount	-10553
▁getCommand	-10554
▁getControl	-10555
▁getSubject	-10556
▁interfaces	-10557
▁normalized	-10558
Capabilities	-10559
FilterConfig	-10560
_11806159100	-10561
▁CrypticClue	-10562
▁InetAddress	-10563
▁JobSnapshot	-10564
▁OrientGraph	-10565
▁broadcaster	-10566
▁createError	-10567
▁expectation	-10568
▁getCategory	-10569
▁getCurrency	-10570
▁logDetailed	-10571
▁serviceMock	-10572
▁setPathInfo	-10573
▁targetClass	-10574
▁writeString	-10575
ModelAccessor	-10576
▁FSTClazzInfo	-10577
▁HttpMultiMap	-10578
▁ValueAdaptor	-10579
▁assetManager	-10580
▁getPrecision	-10581
▁modification	-10582
▁replaceFirst	-10583
▁versionNames	-10584
ListExpression	-10585
_2472566096668	-10586
_5499565529811	-10587
liferayVersion	-10588
▁entityManager	-10589
▁getIdentifier	-10590
▁getInputModel	-10591
▁getParameters	-10592
▁getParentFile	-10593
▁getStatusCode	-10594
▁stepExecution	-10595
ByConceptFQName	-10596
▁SwingUtilities	-10597
▁WhiteBlackList	-10598
▁runtimeService	-10599
_300904414662123	-10600
▁executorService	-10601
▁getColumnNumber	-10602
▁localRepository	-10603
Ap	-10604
Av	-10605
Go	-10606
Js	-10607
ne	-10608
0_1	-10609
10_	-10610
256	-10611
367	-10612
820	-10613
876	-10614
Cfg	-10615
Jmx	-10616
Mat	-10617
RON	-10618
oco	-10619
orf	-10620
ote	-10621
zip	-10622
▁99	-10623
▁Io	-10624
▁LD	-10625
▁Sy	-10626
▁_1	-10627
▁ee	-10628
▁fm	-10629
▁jo	-10630
▁ks	-10631
▁mT	-10632
▁tc	-10633
▁wl	-10634
4044	-10635
6238	-10636
6592	-10637
ATTR	-10638
Cond	-10639
Dirs	-10640
IZER	-10641
KEEP	-10642
Mail	-10643
Need	-10644
Once	-10645
SCHE	-10646
THER	-10647
ToBe	-10648
UTES	-10649
bove	-10650
lish	-10651
nail	-10652
uess	-10653
▁160	-10654
▁DBR	-10655
▁Hop	-10656
▁LAB	-10657
▁PGL	-10658
▁Tri	-10659
▁UNI	-10660
▁bag	-10661
▁dif	-10662
▁inc	-10663
▁pin	-10664
▁zzh	-10665
ANCEL	-10666
ANNEL	-10667
Alpha	-10668
Coder	-10669
Fails	-10670
Nanos	-10671
OCKET	-10672
PAINT	-10673
STYLE	-10674
Video	-10675
after	-10676
amage	-10677
crumb	-10678
gable	-10679
ience	-10680
iname	-10681
odies	-10682
stanc	-10683
thing	-10684
udent	-10685
▁Wsdl	-10686
▁aUse	-10687
▁fake	-10688
▁hook	-10689
▁live	-10690
▁more	-10691
▁plan	-10692
▁sqls	-10693
▁what	-10694
▁wiki	-10695
329304	-10696
604117	-10697
ATFORM	-10698
ESCAPE	-10699
Frames	-10700
Getter	-10701
HAVIOR	-10702
Health	-10703
Higher	-10704
Kernel	-10705
KeyMap	-10706
LAYOUT	-10707
Labels	-10708
PARENT	-10709
QUENCE	-10710
Signal	-10711
Signed	-10712
Square	-10713
ackson	-10714
istent	-10715
mapped	-10716
▁ALOAD	-10717
▁Alert	-10718
▁Merge	-10719
▁SNLSH	-10720
▁Space	-10721
▁VALID	-10722
▁aFlag	-10723
▁delim	-10724
▁deter	-10725
▁invok	-10726
▁isSet	-10727
▁maybe	-10728
Helpers	-10729
IALIZED	-10730
Memento	-10731
OrEqual	-10732
RECTION	-10733
SESSION	-10734
Tenured	-10735
Toolbar	-10736
mediate	-10737
▁Attach	-10738
▁Commit	-10739
▁Ignore	-10740
▁Invoke	-10741
▁Packet	-10742
▁aChild	-10743
▁closed	-10744
▁getRun	-10745
▁github	-10746
▁isJava	-10747
▁merged	-10748
▁myName	-10749
▁opcode	-10750
▁recent	-10751
▁secure	-10752
▁urlSet	-10753
BindView	-10754
Delivery	-10755
Disposed	-10756
GroupCmd	-10757
Matchers	-10758
REGISTRY	-10759
Statuses	-10760
TRIBUTES	-10761
VARIABLE	-10762
_1240252	-10763
atedTime	-10764
filtered	-10765
iseconds	-10766
▁CURRENT	-10767
▁Storage	-10768
▁company	-10769
▁correct	-10770
▁getBody	-10771
▁getLink	-10772
▁itemSet	-10773
▁minutes	-10774
▁outputs	-10775
▁percent	-10776
▁visited	-10777
Expansion	-10778
Functions	-10779
Hierarchy	-10780
IocLoader	-10781
MetaClass	-10782
Modifiers	-10783
Suggester	-10784
TextField	-10785
UserGroup	-10786
_12138773	-10787
readcrumb	-10788
▁ByteSize	-10789
▁Compound	-10790
▁IntRange	-10791
▁Interval	-10792
▁UNCLOSED	-10793
▁addField	-10794
▁attrName	-10795
▁beanName	-10796
▁currency	-10797
▁features	-10798
▁getInter	-10799
▁getPause	-10800
▁getWrite	-10801
▁jndiName	-10802
▁logBasic	-10803
▁pageInfo	-10804
▁payloads	-10805
▁sanitize	-10806
▁setError	-10807
▁severity	-10808
1165271211	-10809
Breakpoint	-10810
FileFilter	-10811
annotation	-10812
createNode	-10813
resentable	-10814
▁Iterables	-10815
▁KeyStroke	-10816
▁TimeValue	-10817
▁addSource	-10818
▁authority	-10819
▁classPath	-10820
▁getFolder	-10821
▁getSecond	-10822
▁histogram	-10823
▁javaClass	-10824
▁localLast	-10825
▁replayAll	-10826
▁sonarqube	-10827
▁tagByName	-10828
11395331754	-10829
12254608063	-10830
HeaderParam	-10831
Restriction	-10832
_5187796033	-10833
▁AppStrings	-10834
▁DataWriter	-10835
▁FileReader	-10836
▁FileSystem	-10837
▁getHistory	-10838
▁isFunction	-10839
▁parentNode	-10840
▁primaryKey	-10841
▁setRequest	-10842
Declarations	-10843
InvalidValue	-10844
PropertyName	-10845
ResourcePath	-10846
Serializable	-10847
_11376332090	-10848
_12144783797	-10849
_12254603023	-10850
_12254608059	-10851
▁GCViewerGui	-10852
▁HttpSession	-10853
▁RuleTesting	-10854
▁certificate	-10855
▁getHostName	-10856
▁getOriginal	-10857
▁switchboard	-10858
EventListener	-10859
▁SearchResult	-10860
▁classContext	-10861
▁currentState	-10862
▁frameHandler	-10863
ActionsFactory	-10864
ClassifierType	-10865
ExceptionCount	-10866
▁PriorityQueue	-10867
▁ThreadContext	-10868
▁getAttributes	-10869
▁getExpression	-10870
▁ServiceWrapper	-10871
▁getHostAddress	-10872
▁mapMapOfString	-10873
▁deployAndReturn	-10874
▁registerProblem	-10875
▁setDefaultValue	-10876
AW	-10877
CN	-10878
MN	-10879
jn	-10880
vh	-10881
vs	-10882
zv	-10883
121	-10884
287	-10885
322	-10886
379	-10887
551	-10888
606	-10889
935	-10890
976	-10891
BAR	-10892
BOX	-10893
BRA	-10894
IFY	-10895
LAP	-10896
LED	-10897
Net	-10898
Ord	-10899
Ptr	-10900
Ser	-10901
Ssl	-10902
USH	-10903
UTC	-10904
ZIP	-10905
_33	-10906
ctx	-10907
ien	-10908
iet	-10909
ina	-10910
lib	-10911
met	-10912
oap	-10913
qtt	-10914
rox	-10915
sud	-10916
▁21	-10917
▁38	-10918
▁95	-10919
▁HO	-10920
▁LO	-10921
▁PE	-10922
▁PH	-10923
▁YE	-10924
▁aC	-10925
▁iv	-10926
▁rd	-10927
▁si	-10928
▁va	-10929
▁vm	-10930
▁vn	-10931
3162	-10932
7545	-10933
9074	-10934
CAST	-10935
Days	-10936
LUDE	-10937
MINE	-10938
Note	-10939
RARY	-10940
RIDE	-10941
Tail	-10942
Uplo	-10943
cern	-10944
drfi	-10945
mine	-10946
reed	-10947
rees	-10948
ries	-10949
rior	-10950
uest	-10951
wise	-10952
▁AND	-10953
▁Cap	-10954
▁DOC	-10955
▁Gui	-10956
▁Hex	-10957
▁Mut	-10958
▁Put	-10959
▁Unm	-10960
▁VOL	-10961
▁bas	-10962
▁bcp	-10963
▁bin	-10964
▁div	-10965
▁fab	-10966
▁isM	-10967
▁pks	-10968
▁ram	-10969
ADMIN	-10970
ATURE	-10971
Above	-10972
Beans	-10973
Deleg	-10974
IDDEN	-10975
LUGIN	-10976
ONTAL	-10977
ORAGE	-10978
QUOTE	-10979
Theme	-10980
Typed	-10981
UCENE	-10982
endor	-10983
files	-10984
genda	-10985
inger	-10986
iring	-10987
later	-10988
lines	-10989
right	-10990
sudxd	-10991
▁CENT	-10992
▁Chat	-10993
▁Edit	-10994
▁FINE	-10995
▁HSQL	-10996
▁Host	-10997
▁JNDI	-10998
▁Migr	-10999
▁docs	-11000
▁math	-11001
▁msgs	-11002
▁quad	-11003
▁soft	-11004
Advice	-11005
Atomic	-11006
Cipher	-11007
DSLMap	-11008
Detect	-11009
GATIVE	-11010
IMPORT	-11011
Inside	-11012
Latest	-11013
Mirror	-11014
OBJECT	-11015
Series	-11016
aching	-11017
atural	-11018
curity	-11019
dValue	-11020
drfijn	-11021
imited	-11022
overed	-11023
riends	-11024
ysical	-11025
▁QUERY	-11026
▁combo	-11027
▁cycle	-11028
▁facet	-11029
▁hints	-11030
▁jobId	-11031
▁known	-11032
▁lRate	-11033
▁openg	-11034
ARTBEAT	-11035
Instant	-11036
Payload	-11037
RetType	-11038
Streams	-11039
ToWords	-11040
Vectors	-11041
ampling	-11042
cedence	-11043
icipant	-11044
ingRule	-11045
portlet	-11046
▁Assume	-11047
▁LUCENE	-11048
▁NkRect	-11049
▁SERVER	-11050
▁SINGLE	-11051
▁SYBASE	-11052
▁aClass	-11053
▁always	-11054
▁colors	-11055
▁facade	-11056
▁factor	-11057
▁finder	-11058
▁getNew	-11059
▁getter	-11060
▁ignite	-11061
▁interr	-11062
▁isOpen	-11063
Criteria	-11064
ENCODING	-11065
Generate	-11066
Gradient	-11067
JQColumn	-11068
Keywords	-11069
Reciever	-11070
UserInfo	-11071
formance	-11072
ightMode	-11073
nowledge	-11074
uggested	-11075
▁Console	-11076
▁Contact	-11077
▁Convert	-11078
▁IOUtils	-11079
▁PROCESS	-11080
▁Unknown	-11081
▁addRule	-11082
▁centers	-11083
▁chapter	-11084
▁deleted	-11085
▁getHttp	-11086
▁indexes	-11087
▁isQuote	-11088
▁joinSql	-11089
▁setBody	-11090
▁setLast	-11091
▁strings	-11092
▁testNew	-11093
Aggregate	-11094
Benchmark	-11095
ORIZONTAL	-11096
Recursive	-11097
Transient	-11098
ternative	-11099
websocket	-11100
yclerView	-11101
▁JobEntry	-11102
▁MockUnit	-11103
▁PROPERTY	-11104
▁PROTOCOL	-11105
▁Register	-11106
▁ToString	-11107
▁addPoint	-11108
▁clientId	-11109
▁describe	-11110
▁entities	-11111
▁getLimit	-11112
▁nickName	-11113
▁selectBy	-11114
▁tokenVal	-11115
▁warnings	-11116
▁workflow	-11117
ByteBuffer	-11118
Configurer	-11119
Dependents	-11120
LanguageId	-11121
NotifyNums	-11122
PathPrefix	-11123
PsiElement	-11124
Selectable	-11125
izedString	-11126
ysicsSpace	-11127
▁Available	-11128
▁INTERFACE	-11129
▁LinkField	-11130
▁NAMESPACE	-11131
▁Partition	-11132
▁WebDriver	-11133
▁addOption	-11134
▁anyString	-11135
▁exeptions	-11136
▁getWidget	-11137
▁textPaint	-11138
▁totalSize	-11139
11369235426	-11140
EditorInput	-11141
MappingRule	-11142
ReturnValue	-11143
_1165281194	-11144
_1197925194	-11145
▁Attributes	-11146
▁CacheEntry	-11147
▁Calculator	-11148
▁Conversion	-11149
▁Generation	-11150
▁JsonEntity	-11151
▁OHttpUtils	-11152
▁Observable	-11153
▁TRANSITION	-11154
▁aEndLineNo	-11155
▁actualType	-11156
▁assignment	-11157
▁classIndex	-11158
▁errorCount	-11159
▁fetchLinks	-11160
▁getBaseURL	-11161
▁httpMethod	-11162
▁iFieldPath	-11163
▁isNotEmpty	-11164
▁javascript	-11165
▁jsonobject	-11166
▁setMaximum	-11167
▁simpleBean	-11168
▁sourcePath	-11169
116527121165	-11170
CompileFlags	-11171
MacroContext	-11172
URLException	-11173
▁ContentUtil	-11174
▁arrayNumber	-11175
▁createQuery	-11176
▁initialized	-11177
▁translation	-11178
DefinitionKey	-11179
SourceBuilder	-11180
▁AbstractRule	-11181
▁FileContents	-11182
▁applications	-11183
▁cachedMethod	-11184
▁executeQuery	-11185
▁getArguments	-11186
▁getAvailable	-11187
MessageAsGroup	-11188
ParameterNames	-11189
ResourceParams	-11190
▁BugAnnotation	-11191
▁ConcurrentMap	-11192
▁Instantiation	-11193
▁SecurityCheck	-11194
▁argumentClass	-11195
▁contentLength	-11196
▁createNewNode	-11197
▁elasticsearch	-11198
▁iCurrentLevel	-11199
▁parameterType	-11200
▁FormAttachment	-11201
▁ModelChartImpl	-11202
▁RoutingContext	-11203
▁SubstituteInfo	-11204
▁eventListeners	-11205
▁portletRequest	-11206
_549956552981135	-11207
▁CollectionUtils	-11208
▁GaussianProcess	-11209
▁getDefaultValue	-11210
▁securityManager	-11211
PY	-11212
nf	-11213
zc	-11214
003	-11215
114	-11216
158	-11217
577	-11218
885	-11219
906	-11220
964	-11221
974	-11222
AIL	-11223
Car	-11224
Ctx	-11225
Fee	-11226
ICE	-11227
IDs	-11228
KIP	-11229
_78	-11230
asy	-11231
ely	-11232
ooX	-11233
yms	-11234
▁29	-11235
▁IL	-11236
▁OB	-11237
▁Of	-11238
▁bu	-11239
▁ib	-11240
▁sy	-11241
▁tl	-11242
1660	-11243
2281	-11244
3890	-11245
6345	-11246
8384	-11247
8954	-11248
9230	-11249
Buck	-11250
FONT	-11251
Gram	-11252
ICAL	-11253
IMAL	-11254
Jump	-11255
Keep	-11256
LASH	-11257
None	-11258
Tier	-11259
Tile	-11260
_665	-11261
affe	-11262
boot	-11263
case	-11264
ceps	-11265
nots	-11266
ogic	-11267
ools	-11268
opzc	-11269
sMap	-11270
▁120	-11271
▁ACT	-11272
▁CUB	-11273
▁Cli	-11274
▁Jst	-11275
▁LAR	-11276
▁ace	-11277
▁den	-11278
▁fee	-11279
▁giv	-11280
▁rid	-11281
▁scr	-11282
▁seg	-11283
▁sel	-11284
18732	-11285
32100	-11286
53983	-11287
Added	-11288
CANIC	-11289
LABEL	-11290
LEASE	-11291
Lived	-11292
Mouse	-11293
OAuth	-11294
Roots	-11295
STAMP	-11296
THING	-11297
Units	-11298
atory	-11299
ember	-11300
ibase	-11301
iling	-11302
ivity	-11303
javax	-11304
sheet	-11305
▁ATTR	-11306
▁COMP	-11307
▁Dump	-11308
▁Fold	-11309
▁HALF	-11310
▁HEAD	-11311
▁INIT	-11312
▁INTE	-11313
▁Loop	-11314
▁MULT	-11315
▁Mime	-11316
▁SCRI	-11317
▁VIEW	-11318
▁aKey	-11319
▁fact	-11320
▁fore	-11321
▁idle	-11322
▁norm	-11323
▁sent	-11324
994848	-11325
ASSIGN	-11326
Binder	-11327
InNode	-11328
Micros	-11329
OURNAL	-11330
Picker	-11331
Prompt	-11332
Spring	-11333
UMMARY	-11334
Volume	-11335
_72281	-11336
alance	-11337
crease	-11338
itemap	-11339
number	-11340
olaris	-11341
orrent	-11342
otSpot	-11343
owHigh	-11344
rypter	-11345
twopzc	-11346
update	-11347
urator	-11348
▁Caffe	-11349
▁EPOCH	-11350
▁LABEL	-11351
▁Prest	-11352
▁Score	-11353
▁WinNT	-11354
▁aExpr	-11355
▁aList	-11356
▁actor	-11357
▁angle	-11358
▁peers	-11359
▁pfdIn	-11360
▁rever	-11361
▁setAs	-11362
▁small	-11363
▁spoon	-11364
3281420	-11365
6590504	-11366
Aliases	-11367
Archive	-11368
COMMAND	-11369
DATASET	-11370
Deleted	-11371
FACTORY	-11372
LIBRARY	-11373
Program	-11374
REPLACE	-11375
Related	-11376
Toolkit	-11377
URATION	-11378
Unicode	-11379
atitude	-11380
avigate	-11381
execute	-11382
ositive	-11383
swagger	-11384
▁Deploy	-11385
▁Folder	-11386
▁JpaDao	-11387
▁Legacy	-11388
▁Region	-11389
▁center	-11390
▁exceps	-11391
▁getTab	-11392
▁pathTo	-11393
▁replic	-11394
▁taskId	-11395
12143062	-11396
Activate	-11397
Balancer	-11398
Charsets	-11399
DataKeys	-11400
Eviction	-11401
Managers	-11402
OrHigher	-11403
PASSWORD	-11404
PRESSION	-11405
Packages	-11406
SEQUENCE	-11407
TEMPLATE	-11408
abilites	-11409
fullogic	-11410
validate	-11411
▁ILLEGAL	-11412
▁Routing	-11413
▁SUCCESS	-11414
▁advance	-11415
▁another	-11416
▁archive	-11417
▁buffers	-11418
▁changed	-11419
▁encoder	-11420
▁focused	-11421
▁hilight	-11422
▁insight	-11423
▁newXooX	-11424
▁ownerId	-11425
▁rebuild	-11426
▁ruleDto	-11427
▁runRead	-11428
▁setAuto	-11429
▁setNext	-11430
▁subtype	-11431
Alignment	-11432
ByDefault	-11433
ListModel	-11434
PublicKey	-11435
Throwable	-11436
TimeStamp	-11437
TimeoutMs	-11438
_66518732	-11439
initBlock	-11440
parameter	-11441
▁ARTIFACT	-11442
▁Embedded	-11443
▁IProject	-11444
▁Semantic	-11445
▁Solution	-11446
▁Username	-11447
▁VOLCANIC	-11448
▁activate	-11449
▁embedded	-11450
▁getAsInt	-11451
▁givetype	-11452
▁ioResult	-11453
▁isPublic	-11454
▁mIllegal	-11455
▁monthStr	-11456
▁opengrok	-11457
▁prefixNs	-11458
▁referent	-11459
▁requires	-11460
▁runnable	-11461
▁sessions	-11462
▁setField	-11463
▁timespan	-11464
1229265497	-11465
AbovePlane	-11466
AccessFile	-11467
BelowPlane	-11468
Conversion	-11469
Coordinate	-11470
Validators	-11471
_866590504	-11472
▁Arguments	-11473
▁FaultType	-11474
▁Sortables	-11475
▁classInfo	-11476
▁determine	-11477
▁endObject	-11478
▁exercises	-11479
▁getGlobal	-11480
▁getRoleId	-11481
▁iocLoader	-11482
▁localName	-11483
▁nextScope	-11484
▁onSuccess	-11485
▁testQuery	-11486
12144775170	-11487
Activations	-11488
ProxyConfig	-11489
StaticField	-11490
_1214477638	-11491
▁JdbcExpert	-11492
▁ValueProxy	-11493
▁activities	-11494
▁comparison	-11495
▁generation	-11496
▁httpHeader	-11497
▁isAbstract	-11498
▁recipients	-11499
▁serverCore	-11500
▁setLowHigh	-11501
▁statistics	-11502
122826955744	-11503
InternalName	-11504
QueryBuilder	-11505
TraceElement	-11506
ValidatorFor	-11507
_11660597329	-11508
_12282695573	-11509
typeSettings	-11510
▁JScrollPane	-11511
▁PropsValues	-11512
▁RefNodeList	-11513
▁Transformer	-11514
▁capabilites	-11515
▁getEncoding	-11516
▁isInterface	-11517
▁maxFileSize	-11518
▁maxIdleTime	-11519
▁opensolaris	-11520
▁queryResult	-11521
▁userService	-11522
Authorization	-11523
ExclusiveLock	-11524
PropertyValue	-11525
_122546080604	-11526
_722813281420	-11527
▁LinearSearch	-11528
▁LoggerManage	-11529
▁errorHandler	-11530
▁getSessionId	-11531
▁isWhitespace	-11532
MaterialConfig	-11533
MessageChannel	-11534
_6651873253983	-11535
comparableWith	-11536
▁OIdentifiable	-11537
▁ObjectProcess	-11538
▁ResourceUtils	-11539
▁SeverityLevel	-11540
▁addressHolder	-11541
▁argsIncluding	-11542
▁getBackground	-11543
▁remoteAddress	-11544
▁serialization	-11545
▁DiagnosticType	-11546
▁getEnvironment	-11547
▁getPresentable	-11548
▁setContentType	-11549
▁testPointFixed	-11550
▁StyleAttributes	-11551
▁SystemException	-11552
▁insightfullogic	-11553
06	-11554
09	-11555
DF	-11556
Im	-11557
JS	-11558
eL	-11559
nr	-11560
tc	-11561
▁~	-11562
326	-11563
522	-11564
700	-11565
704	-11566
Aff	-11567
Dep	-11568
HEL	-11569
HER	-11570
KED	-11571
LIN	-11572
PLE	-11573
Rid	-11574
TAB	-11575
TEM	-11576
WAY	-11577
__6	-11578
fit	-11579
ich	-11580
irc	-11581
nbr	-11582
syn	-11583
yon	-11584
▁CT	-11585
▁ke	-11586
6115	-11587
9290	-11588
AGER	-11589
ARTI	-11590
AndS	-11591
ERIC	-11592
ITOR	-11593
Lazy	-11594
MULT	-11595
PROC	-11596
UAGE	-11597
acos	-11598
agon	-11599
apse	-11600
brev	-11601
hphj	-11602
html	-11603
lare	-11604
only	-11605
span	-11606
▁103	-11607
▁ARG	-11608
▁DBC	-11609
▁Dec	-11610
▁JFX	-11611
▁MAR	-11612
▁OVR	-11613
▁SRX	-11614
▁WEB	-11615
▁WOR	-11616
▁arc	-11617
▁ary	-11618
▁asc	-11619
▁car	-11620
▁der	-11621
▁ftp	-11622
▁jsp	-11623
▁lan	-11624
▁pom	-11625
▁sid	-11626
▁sus	-11627
▁war	-11628
10826	-11629
13170	-11630
15007	-11631
16530	-11632
Audio	-11633
BiMap	-11634
EQUAL	-11635
IFIER	-11636
IMAGE	-11637
Views	-11638
Young	-11639
ators	-11640
esame	-11641
label	-11642
marks	-11643
ocial	-11644
omcat	-11645
▁CRLF	-11646
▁DIST	-11647
▁Gson	-11648
▁LLAP	-11649
▁Left	-11650
▁Pipe	-11651
▁SELF	-11652
▁atts	-11653
▁boot	-11654
▁gson	-11655
▁heap	-11656
▁play	-11657
▁tick	-11658
▁turn	-11659
▁zero	-11660
809253	-11661
AUTHOR	-11662
ENGINE	-11663
Hashes	-11664
Inline	-11665
LECTED	-11666
MODULE	-11667
Replay	-11668
Usages	-11669
_11864	-11670
achyon	-11671
ctives	-11672
dertow	-11673
hphjzv	-11674
▁ARRAY	-11675
▁Crawl	-11676
▁Gauge	-11677
▁OType	-11678
▁Toast	-11679
▁grand	-11680
▁mongo	-11681
▁recur	-11682
▁redis	-11683
▁shift	-11684
ADDRESS	-11685
BaseURL	-11686
Compare	-11687
Complex	-11688
Concern	-11689
EXECUTE	-11690
Inherit	-11691
MISSION	-11692
OrEmpty	-11693
PROCESS	-11694
SUBJECT	-11695
Tokener	-11696
Updated	-11697
_114022	-11698
cessary	-11699
iations	-11700
ingText	-11701
zCursor	-11702
▁CUBRID	-11703
▁Choose	-11704
▁German	-11705
▁INSERT	-11706
▁LINEAR	-11707
▁Solver	-11708
▁aBrace	-11709
▁expire	-11710
▁getURL	-11711
▁nameOf	-11712
▁pretty	-11713
▁regexp	-11714
▁reject	-11715
▁setAge	-11716
▁setKey	-11717
▁toFile	-11718
▁widths	-11719
12145605	-11720
62713170	-11721
BEHAVIOR	-11722
CONSTANT	-11723
DISTANCE	-11724
MapStore	-11725
ModuleId	-11726
NodePath	-11727
Produces	-11728
Rotation	-11729
Synchron	-11730
strument	-11731
▁Comment	-11732
▁EnumSet	-11733
▁LogUtil	-11734
▁MINUTES	-11735
▁Pending	-11736
▁Polygon	-11737
▁aSource	-11738
▁addItem	-11739
▁country	-11740
▁csvLine	-11741
▁dirName	-11742
▁dispose	-11743
▁eleType	-11744
▁getArgs	-11745
▁getMult	-11746
▁getStep	-11747
▁mIndent	-11748
▁mLineNo	-11749
▁present	-11750
▁restart	-11751
▁restore	-11752
▁samples	-11753
▁setLine	-11754
▁setUser	-11755
▁tagName	-11756
▁upgrade	-11757
116605786	-11758
809253575	-11759
Ancestors	-11760
Dependent	-11761
IdFactory	-11762
ImageView	-11763
Processed	-11764
irectives	-11765
▁Employee	-11766
▁HttpUtil	-11767
▁KeyStore	-11768
▁NVGColor	-11769
▁Registry	-11770
▁Suppress	-11771
▁baseType	-11772
▁combined	-11773
▁customer	-11774
▁filePool	-11775
▁getEmail	-11776
▁getOwner	-11777
▁getValid	-11778
▁keyspace	-11779
▁mFilters	-11780
▁popFirst	-11781
▁provided	-11782
▁reporter	-11783
▁startKey	-11784
1165281194	-11785
4716774326	-11786
EnumString	-11787
Foreground	-11788
InnerClass	-11789
JsonObject	-11790
Namespaces	-11791
PrimaryKey	-11792
Suggestion	-11793
TextWriter	-11794
expression	-11795
▁LabelText	-11796
▁aFileName	-11797
▁aLocation	-11798
▁alignment	-11799
▁discovery	-11800
▁errorNode	-11801
▁groupName	-11802
▁inputFile	-11803
▁isQuoteBy	-11804
▁messenger	-11805
▁newClient	-11806
▁outStream	-11807
▁parseDate	-11808
▁providers	-11809
▁provision	-11810
▁readBytes	-11811
▁readValue	-11812
▁safeClose	-11813
▁setParent	-11814
▁verifyAll	-11815
11654209359	-11816
IndexWriter	-11817
Integration	-11818
Replacement	-11819
ServiceName	-11820
createBlock	-11821
▁DefaultWeb	-11822
▁HeapSelect	-11823
▁KettleStep	-11824
▁PortalUtil	-11825
▁REPOSITORY	-11826
▁SSLContext	-11827
▁addServlet	-11828
▁cacheEntry	-11829
▁configured	-11830
▁fieldIndex	-11831
▁getInitial	-11832
▁getMembers	-11833
▁getPokemon	-11834
▁mainModule	-11835
▁printError	-11836
122546080160	-11837
122826955814	-11838
ListenerList	-11839
QueryContext	-11840
SelectedCell	-11841
_11369235426	-11842
▁ButtonState	-11843
▁FieldFilter	-11844
▁FilterChain	-11845
▁SRXSentence	-11846
▁buildTarget	-11847
▁createCache	-11848
▁getExtended	-11849
▁getLatitude	-11850
▁getNumberOf	-11851
▁iParameters	-11852
▁indirectMap	-11853
▁mapProperty	-11854
ClientBuilder	-11855
TenantContext	-11856
_518779603387	-11857
▁DefaultChild	-11858
▁INVOKESTATIC	-11859
▁StringWriter	-11860
▁instanceType	-11861
▁localAddress	-11862
CollectionType	-11863
PortletRequest	-11864
▁AtomicBoolean	-11865
▁arrayOfString	-11866
▁assertCorrect	-11867
▁authorization	-11868
▁getDictionary	-11869
▁getFieldValue	-11870
▁getJSONObject	-11871
CommonSupertype	-11872
GenerationBlock	-11873
MethodException	-11874
▁ExecutableList	-11875
▁FuzzySuggester	-11876
▁dataSourceNode	-11877
▁isErrorEnabled	-11878
▁materialConfig	-11879
SecurityTestList	-11880
▁FieldExpression	-11881
▁PrestoException	-11882
▁ValidationError	-11883
▁mapOfEnumString	-11884
▁removeAttribute	-11885
▁withDescription	-11886
PV	-11887
TS	-11888
VT	-11889
hd	-11890
jl	-11891
js	-11892
wa	-11893
152	-11894
174	-11895
374	-11896
524	-11897
527	-11898
547	-11899
550	-11900
678	-11901
979	-11902
Dim	-11903
IDL	-11904
Nut	-11905
PTR	-11906
SHA	-11907
SIS	-11908
UTF	-11909
anc	-11910
aph	-11911
eri	-11912
hes	-11913
isk	-11914
jlb	-11915
qzs	-11916
trl	-11917
uul	-11918
vhx	-11919
▁28	-11920
▁33	-11921
▁SO	-11922
▁aL	-11923
▁jc	-11924
▁lv	-11925
▁po	-11926
▁xs	-11927
0001	-11928
1709	-11929
1814	-11930
3262	-11931
ATON	-11932
Blue	-11933
CAPA	-11934
Feed	-11935
GREG	-11936
JOIN	-11937
MEDI	-11938
Prim	-11939
REEN	-11940
Repo	-11941
SYNT	-11942
_110	-11943
bars	-11944
gise	-11945
lain	-11946
ones	-11947
oral	-11948
stat	-11949
ubly	-11950
▁50.	-11951
▁7.4	-11952
▁Asm	-11953
▁END	-11954
▁Foo	-11955
▁JMS	-11956
▁RGB	-11957
▁Raw	-11958
▁The	-11959
▁WMI	-11960
▁adj	-11961
▁bis	-11962
▁bus	-11963
▁dog	-11964
▁mat	-11965
▁pid	-11966
▁rel	-11967
▁scm	-11968
▁sdt	-11969
▁sky	-11970
▁slo	-11971
▁vec	-11972
10884	-11973
34380	-11974
47110	-11975
60486	-11976
61900	-11977
65674	-11978
93730	-11979
Assoc	-11980
CHOOS	-11981
Clean	-11982
Force	-11983
Icons	-11984
SCADE	-11985
STree	-11986
Shown	-11987
Trash	-11988
abber	-11989
iform	-11990
ipped	-11991
itely	-11992
ounce	-11993
riate	-11994
ruise	-11995
sFrom	-11996
ually	-11997
unded	-11998
▁3600	-11999
▁BYTE	-12000
▁Body	-12001
▁CODE	-12002
▁DBEP	-12003
▁FORM	-12004
▁Game	-12005
▁Info	-12006
▁Inte	-12007
▁Sqls	-12008
▁VOID	-12009
▁Wiki	-12010
▁bone	-12011
▁capt	-12012
▁decl	-12013
▁fine	-12014
▁geom	-12015
▁just	-12016
▁snap	-12017
▁week	-12018
ACTIVE	-12019
Approp	-12020
COMPLE	-12021
Groovy	-12022
Hopper	-12023
Insens	-12024
Levels	-12025
NodeId	-12026
QUIRED	-12027
Recent	-12028
Recomp	-12029
Widths	-12030
_12265	-12031
_12387	-12032
_78805	-12033
antity	-12034
before	-12035
esting	-12036
import	-12037
lename	-12038
ologik	-12039
parser	-12040
vhxjlb	-12041
▁30000	-12042
▁Clock	-12043
▁Combo	-12044
▁Dummy	-12045
▁Given	-12046
▁MONTH	-12047
▁Morph	-12048
▁NkVec	-12049
▁SUPER	-12050
▁aArgs	-12051
▁analy	-12052
▁brace	-12053
▁crash	-12054
▁doGet	-12055
▁knots	-12056
▁pages	-12057
▁slist	-12058
▁speed	-12059
▁trade	-12060
Balance	-12061
Confirm	-12062
DataSet	-12063
DirName	-12064
Locales	-12065
Parents	-12066
Quality	-12067
Regions	-12068
WARNING	-12069
carding	-12070
generic	-12071
ingTime	-12072
manager	-12073
padding	-12074
quibase	-12075
synpred	-12076
▁ASSERT	-12077
▁CENTER	-12078
▁Export	-12079
▁HSQLDB	-12080
▁aToken	-12081
▁called	-12082
▁choose	-12083
▁getAge	-12084
▁icRoot	-12085
▁joined	-12086
▁rotate	-12087
▁tmpDir	-12088
▁tracer	-12089
▁userDB	-12090
16561900	-12091
80757525	-12092
92654942	-12093
BALANCED	-12094
CHOOSING	-12095
IfNeeded	-12096
Implicit	-12097
Numberer	-12098
Original	-12099
Profiler	-12100
Sessions	-12101
TextData	-12102
andatory	-12103
expected	-12104
ingHints	-12105
ingLabel	-12106
▁CASCADE	-12107
▁Fighter	-12108
▁GridPos	-12109
▁MPSTree	-12110
▁OServer	-12111
▁Unicode	-12112
▁acegise	-12113
▁already	-12114
▁appName	-12115
▁between	-12116
▁creator	-12117
▁getPost	-12118
▁jarPath	-12119
▁notJava	-12120
▁partial	-12121
▁plugins	-12122
▁popLast	-12123
▁scratch	-12124
▁terrain	-12125
Endpoints	-12126
FSDATASET	-12127
LineBreak	-12128
Primitive	-12129
REFERENCE	-12130
SUPPORTED	-12131
ServerLog	-12132
Terminate	-12133
Workbench	-12134
orfologik	-12135
processor	-12136
refsProps	-12137
▁Compiler	-12138
▁FileText	-12139
▁INTERNAL	-12140
▁JsonNode	-12141
▁POSITIVE	-12142
▁PageInfo	-12143
▁StreamEx	-12144
▁Transfer	-12145
▁Undertow	-12146
▁addFirst	-12147
▁classDef	-12148
▁compress	-12149
▁concrete	-12150
▁decision	-12151
▁emptySet	-12152
▁finished	-12153
▁getAsync	-12154
▁getFrame	-12155
▁getParam	-12156
▁getScale	-12157
▁icCommon	-12158
▁logDebug	-12159
▁newArray	-12160
▁packages	-12161
▁terminal	-12162
▁unescape	-12163
▁vcsField	-12164
1080742964	-12165
AssertNull	-12166
CaseInsens	-12167
Comparison	-12168
Compatible	-12169
DEFINITION	-12170
MethodCall	-12171
Occurrence	-12172
Protection	-12173
_788051814	-12174
▁ErrorType	-12175
▁Interface	-12176
▁MatchType	-12177
▁UNDEFINED	-12178
▁addColumn	-12179
▁annotated	-12180
▁composite	-12181
▁drawImage	-12182
▁entryName	-12183
▁findChild	-12184
▁getCursor	-12185
▁getDomain	-12186
▁getLinked	-12187
▁getMetric	-12188
▁getPublic	-12189
▁getValues	-12190
▁intention	-12191
▁locations	-12192
▁logPrefix	-12193
▁onFailure	-12194
▁visitInsn	-12195
11652612715	-12196
12254608015	-12197
12282695573	-12198
Appropriate	-12199
ByReference	-12200
IgnoreBlank	-12201
QueryString	-12202
_1214480452	-12203
quationInfo	-12204
▁APPLICATON	-12205
▁DBEPersist	-12206
▁Discarding	-12207
▁FutureUtil	-12208
▁HttpServer	-12209
▁Viewholder	-12210
▁applicable	-12211
▁isReadOnly	-12212
▁reflection	-12213
▁serialized	-12214
DefaultBlock	-12215
GroupsByUser	-12216
TopComponent	-12217
▁AsyncAtomic	-12218
▁JstTestUtil	-12219
▁MutableList	-12220
▁Permissions	-12221
▁TypeLiteral	-12222
▁aggregation	-12223
▁credentials	-12224
▁dlFileEntry	-12225
▁getPageSize	-12226
▁getTestCase	-12227
PropertyCombo	-12228
inScmMaterial	-12229
▁ControllerId	-12230
▁FieldMatcher	-12231
▁GenericsType	-12232
▁JavadocUtils	-12233
▁ThemeDisplay	-12234
▁camelContext	-12235
▁constructors	-12236
▁databaseName	-12237
▁getFormatted	-12238
▁getInterface	-12239
▁getVariables	-12240
▁resourcePath	-12241
ManagerFactory	-12242
RuleAssertNull	-12243
▁DBPDataSource	-12244
▁LocalDataArea	-12245
▁acegisecurity	-12246
▁createDefault	-12247
▁getLocalScale	-12248
▁localRegNames	-12249
▁pathSeparator	-12250
▁requestHeader	-12251
▁scrollTracker	-12252
▁ImmutableBiMap	-12253
▁MaterialConfig	-12254
▁NumberExpander	-12255
▁PersistService	-12256
▁bulletAppState	-12257
▁mockDeployment	-12258
▁ExeOpTransition	-12259
▁expectedRetType	-12260
▁getChildConcept	-12261
▁getPhysicsSpace	-12262
▁scaledTimestamp	-12263
CI	-12264
DN	-12265
FP	-12266
TX	-12267
YZ	-12268
jb	-12269
ye	-12270
172	-12271
333	-12272
559	-12273
574	-12274
601	-12275
723	-12276
901	-12277
930	-12278
962	-12279
AFE	-12280
Cod	-12281
Csv	-12282
DHT	-12283
Dyn	-12284
IUM	-12285
JOB	-12286
MSG	-12287
PED	-12288
Qos	-12289
Ste	-12290
TWO	-12291
VIS	-12292
_52	-12293
baL	-12294
bde	-12295
lev	-12296
lux	-12297
lyf	-12298
mor	-12299
▁48	-12300
▁ED	-12301
▁FB	-12302
▁er	-12303
▁fq	-12304
▁mn	-12305
▁mp	-12306
▁sz	-12307
▁vo	-12308
1542	-12309
3030	-12310
4528	-12311
4590	-12312
6261	-12313
6300	-12314
9746	-12315
AUTO	-12316
Arch	-12317
BLOB	-12318
Dead	-12319
Drag	-12320
ETTE	-12321
Enab	-12322
FLAG	-12323
GING	-12324
HOUR	-12325
InSt	-12326
LINK	-12327
RONG	-12328
Rank	-12329
STRO	-12330
Then	-12331
USED	-12332
VERT	-12333
Vals	-12334
_297	-12335
_724	-12336
eron	-12337
etry	-12338
fact	-12339
igit	-12340
ixhd	-12341
omes	-12342
ridd	-12343
rows	-12344
tros	-12345
when	-12346
ymbo	-12347
▁180	-12348
▁Dog	-12349
▁ERD	-12350
▁ISO	-12351
▁Lat	-12352
▁OBJ	-12353
▁REL	-12354
▁TOP	-12355
▁Tcp	-12356
▁fit	-12357
▁ide	-12358
▁isF	-12359
▁isr	-12360
▁itr	-12361
▁mac	-12362
13267	-12363
27793	-12364
BUILD	-12365
Crawl	-12366
Digit	-12367
FRAME	-12368
HETIC	-12369
Minus	-12370
Offer	-12371
Older	-12372
OrGet	-12373
QName	-12374
Refer	-12375
TOPIC	-12376
Trade	-12377
Under	-12378
WORDS	-12379
Wheel	-12380
aling	-12381
allet	-12382
blems	-12383
cated	-12384
focus	-12385
imers	-12386
links	-12387
xFile	-12388
▁BLUE	-12389
▁CONF	-12390
▁Coll	-12391
▁Disc	-12392
▁Each	-12393
▁Face	-12394
▁HOST	-12395
▁Many	-12396
▁Move	-12397
▁OVER	-12398
▁REMO	-12399
▁SAME	-12400
▁SIGN	-12401
▁Save	-12402
▁Site	-12403
▁UIDL	-12404
▁Yarn	-12405
▁jodd	-12406
▁mPkg	-12407
▁setG	-12408
▁sumX	-12409
▁vals	-12410
▁wire	-12411
176735	-12412
326255	-12413
659203	-12414
Observ	-12415
RECORD	-12416
RUCTOR	-12417
Resize	-12418
Scopes	-12419
ToFind	-12420
Toggle	-12421
averse	-12422
jsixhd	-12423
▁ADMIN	-12424
▁After	-12425
▁COMPA	-12426
▁Emote	-12427
▁FIRST	-12428
▁Graal	-12429
▁OTHER	-12430
▁Right	-12431
▁SLIST	-12432
▁aFrom	-12433
▁aTree	-12434
▁creds	-12435
▁dummy	-12436
▁estim	-12437
▁getMy	-12438
▁initi	-12439
▁iprot	-12440
▁jives	-12441
▁major	-12442
▁minor	-12443
▁using	-12444
3813267	-12445
CHANNEL	-12446
Dialect	-12447
Enabler	-12448
ForType	-12449
Gateway	-12450
HISTORY	-12451
INITIAL	-12452
IONETTE	-12453
Interse	-12454
Journal	-12455
Logical	-12456
Partial	-12457
Propery	-12458
Snippet	-12459
Variant	-12460
content	-12461
ferSize	-12462
ymbolic	-12463
▁ACCESS	-12464
▁DISTRI	-12465
▁Engine	-12466
▁GLOBAL	-12467
▁addURL	-12468
▁getAli	-12469
▁inputs	-12470
▁isFile	-12471
▁lastEm	-12472
▁locate	-12473
▁mError	-12474
▁middle	-12475
▁syntax	-12476
▁tester	-12477
▁toJava	-12478
60411715	-12479
83326255	-12480
Conflict	-12481
DbTester	-12482
Handling	-12483
Outgoing	-12484
StreamEx	-12485
TypeInfo	-12486
ValueMap	-12487
_7246115	-12488
quential	-12489
sentence	-12490
▁Borning	-12491
▁DISABLE	-12492
▁GENERIC	-12493
▁Headers	-12494
▁Instanc	-12495
▁Keysyms	-12496
▁Loading	-12497
▁LogType	-12498
▁SUMMARY	-12499
▁Scanner	-12500
▁Skylark	-12501
▁Webhook	-12502
▁aStatic	-12503
▁addLast	-12504
▁clients	-12505
▁compact	-12506
▁fieldIn	-12507
▁getPerm	-12508
▁isAlive	-12509
▁ordered	-12510
▁padding	-12511
▁webhook	-12512
459027793	-12513
Activator	-12514
Canonical	-12515
ChangeLog	-12516
Consumers	-12517
Handshake	-12518
NightMode	-12519
OPERATION	-12520
PARTITION	-12521
ShortName	-12522
StartTime	-12523
Subscribe	-12524
TestUtils	-12525
agnostics	-12526
supertype	-12527
▁ActiveMQ	-12528
▁BytesRef	-12529
▁Download	-12530
▁Fragment	-12531
▁LogLevel	-12532
▁NEGATIVE	-12533
▁Resident	-12534
▁aPattern	-12535
▁ancestor	-12536
▁appendTo	-12537
▁canEqual	-12538
▁getScore	-12539
▁itemName	-12540
▁masterId	-12541
▁nextChar	-12542
▁nextLong	-12543
▁pathInfo	-12544
▁topology	-12545
▁urlParts	-12546
1166041234	-12547
1174088130	-12548
1229513368	-12549
Characters	-12550
Executable	-12551
ResultData	-12552
▁DIRECTION	-12553
▁EmoteClue	-12554
▁Histogram	-12555
▁Streamlet	-12556
▁aEndColNo	-12557
▁arrayEnum	-12558
▁backtrack	-12559
▁completed	-12560
▁converted	-12561
▁directMap	-12562
▁duplicate	-12563
▁errorCode	-12564
▁getActual	-12565
▁getCreate	-12566
▁getLineno	-12567
▁getLocale	-12568
▁getMemory	-12569
▁getMillis	-12570
▁getQuoted	-12571
▁getWindow	-12572
▁isChecked	-12573
▁isUnknown	-12574
▁listModel	-12575
▁longitude	-12576
▁methodGen	-12577
▁parseTree	-12578
▁propagate	-12579
▁sentences	-12580
▁setLength	-12581
▁setResult	-12582
▁suggester	-12583
Concurrency	-12584
Descendants	-12585
MethodError	-12586
OptionValue	-12587
Placeholder	-12588
TableSchema	-12589
ruiseConfig	-12590
▁DISALLOWED	-12591
▁MARIONETTE	-12592
▁Morfologik	-12593
▁Parameters	-12594
▁Permission	-12595
▁createText	-12596
▁documentId	-12597
▁extensions	-12598
▁leaveToken	-12599
▁newHashMap	-12600
▁pageNumber	-12601
▁principals	-12602
▁setContent	-12603
▁superClass	-12604
▁tryPublish	-12605
Replacements	-12606
WsParameters	-12607
lasticSearch	-12608
▁DefaultType	-12609
▁MongoClient	-12610
▁cellpadding	-12611
▁classNameId	-12612
▁currentChar	-12613
▁currentLine	-12614
▁findConcept	-12615
▁getArtifact	-12616
▁getOptional	-12617
▁getPassword	-12618
▁getProvider	-12619
▁getTransfer	-12620
▁kelondroDyn	-12621
▁linkedField	-12622
▁projectName	-12623
▁projectUuid	-12624
▁putIfAbsent	-12625
▁readerIndex	-12626
▁trimmedLine	-12627
Compatibility	-12628
HighlightType	-12629
ServiceConfig	-12630
▁DateTimeZone	-12631
▁FileDownload	-12632
▁FilterConfig	-12633
▁IClassifiers	-12634
▁LabelTextVar	-12635
▁TestProperty	-12636
▁containsOnly	-12637
▁descriptions	-12638
▁getFieldName	-12639
▁invokeMethod	-12640
▁jivesoftware	-12641
▁outputFields	-12642
▁setSelection	-12643
▁singleResult	-12644
SystemProperty	-12645
_7246115176735	-12646
anglingIndices	-12647
▁MetaIdFactory	-12648
▁MethodMatcher	-12649
▁MethodVisitor	-12650
▁PendingIntent	-12651
▁Serialization	-12652
▁WordTokenizer	-12653
▁endProcessing	-12654
▁getDeployment	-12655
▁getParentNode	-12656
▁getRequestURI	-12657
▁privateLayout	-12658
▁setVisibility	-12659
IllegalArgument	-12660
▁FluentIterable	-12661
▁branchContains	-12662
fieldDeclaration	-12663
▁AtomicReference	-12664
▁ToStringBuilder	-12665
AA	-12666
DO	-12667
Sm	-12668
Tw	-12669
aN	-12670
dt	-12671
ek	-12672
fq	-12673
ki	-12674
ns	-12675
111	-12676
198	-12677
348	-12678
475	-12679
506	-12680
511	-12681
588	-12682
592	-12683
635	-12684
647	-12685
833	-12686
844	-12687
875	-12688
907	-12689
909	-12690
961	-12691
975	-12692
Arr	-12693
Aut	-12694
ByG	-12695
Dat	-12696
FET	-12697
IAS	-12698
Ips	-12699
Sdk	-12700
UAL	-12701
UMP	-12702
UNC	-12703
_30	-12704
_40	-12705
idx	-12706
ism	-12707
sAt	-12708
sIn	-12709
ssl	-12710
ues	-12711
upt	-12712
▁27	-12713
▁49	-12714
▁65	-12715
▁9.	-12716
▁BC	-12717
▁BE	-12718
▁CM	-12719
▁Ec	-12720
▁If	-12721
▁OS	-12722
▁ge	-12723
▁gh	-12724
▁hi	-12725
▁lm	-12726
▁tg	-12727
▁uv	-12728
8404	-12729
9446	-12730
Ener	-12731
Flex	-12732
INGS	-12733
InMs	-12734
LERS	-12735
Lost	-12736
Make	-12737
Mojo	-12738
Near	-12739
PEND	-12740
Pipe	-12741
ROID	-12742
Spar	-12743
Star	-12744
Walk	-12745
_133	-12746
dity	-12747
fied	-12748
iser	-12749
izes	-12750
kiwa	-12751
lism	-12752
lugg	-12753
ocat	-12754
open	-12755
show	-12756
site	-12757
▁512	-12758
▁Cat	-12759
▁MAN	-12760
▁SDK	-12761
▁cnt	-12762
▁gpx	-12763
▁occ	-12764
▁sax	-12765
▁tim	-12766
▁tld	-12767
▁way	-12768
33960	-12769
84866	-12770
AMPLE	-12771
APPRO	-12772
COMPA	-12773
Clear	-12774
Comma	-12775
Green	-12776
IMPLE	-12777
IVITY	-12778
Lists	-12779
METER	-12780
OWNER	-12781
Pixel	-12782
Round	-12783
TRACK	-12784
VIDER	-12785
alled	-12786
atial	-12787
emaph	-12788
gular	-12789
ibbon	-12790
idity	-12791
iente	-12792
ooled	-12793
orian	-12794
vides	-12795
▁Bulk	-12796
▁Conn	-12797
▁Easy	-12798
▁FAIL	-12799
▁HIGH	-12800
▁Hand	-12801
▁LINK	-12802
▁MENT	-12803
▁PASS	-12804
▁SEMI	-12805
▁SHOW	-12806
▁Send	-12807
▁TASK	-12808
▁Zuul	-12809
▁fast	-12810
▁meet	-12811
▁mill	-12812
▁mods	-12813
▁nano	-12814
▁quar	-12815
▁setP	-12816
▁tank	-12817
▁zone	-12818
000001	-12819
121430	-12820
252825	-12821
634592	-12822
Actual	-12823
Anchor	-12824
COMMIT	-12825
CREATE	-12826
Called	-12827
Energy	-12828
FACTOR	-12829
HEIGHT	-12830
MEMBER	-12831
OGRESS	-12832
Reload	-12833
TERNAL	-12834
Topics	-12835
UNTIME	-12836
_38404	-12837
anular	-12838
hashes	-12839
logger	-12840
mitter	-12841
system	-12842
▁20000	-12843
▁Guice	-12844
▁Macro	-12845
▁ULONG	-12846
▁asInt	-12847
▁assoc	-12848
▁chart	-12849
▁isLog	-12850
▁jooby	-12851
▁mixed	-12852
▁notes	-12853
▁patch	-12854
▁roots	-12855
▁setOn	-12856
▁since	-12857
▁terms	-12858
▁trail	-12859
1165017	-12860
6238805	-12861
6567499	-12862
8486696	-12863
ARTICLE	-12864
Destroy	-12865
INVALID	-12866
Through	-12867
_126919	-12868
caption	-12869
chnical	-12870
chnolog	-12871
extends	-12872
ingItem	-12873
isition	-12874
jecting	-12875
lighter	-12876
mapping	-12877
ulation	-12878
unspell	-12879
▁Device	-12880
▁Paging	-12881
▁Potion	-12882
▁aScope	-12883
▁either	-12884
▁family	-12885
▁follow	-12886
▁getBug	-12887
▁getCom	-12888
▁getPer	-12889
▁getRec	-12890
▁isName	-12891
▁launch	-12892
▁reverb	-12893
▁setNew	-12894
▁vector	-12895
11767170	-12896
11984900	-12897
33950170	-12898
80832307	-12899
ARGUMENT	-12900
Cachable	-12901
Controls	-12902
EXCEEDED	-12903
OnMethod	-12904
SECURITY	-12905
Volatile	-12906
_1176800	-12907
allelism	-12908
luggable	-12909
ordinate	-12910
override	-12911
regorian	-12912
▁Collect	-12913
▁Globals	-12914
▁Inspect	-12915
▁JButton	-12916
▁JOURNAL	-12917
▁MENTION	-12918
▁Monitor	-12919
▁Setting	-12920
▁WString	-12921
▁aString	-12922
▁endTime	-12923
▁enforce	-12924
▁getReal	-12925
▁homeDir	-12926
▁install	-12927
▁oriente	-12928
▁overlay	-12929
▁parents	-12930
▁problem	-12931
▁recover	-12932
▁setDraw	-12933
▁unknown	-12934
▁urlPath	-12935
▁widgets	-12936
Allocated	-12937
Assertion	-12938
FanInNode	-12939
IfMissing	-12940
IfNotDone	-12941
LINEPAINT	-12942
MessageID	-12943
PARAMETER	-12944
PLICATION	-12945
ParseTree	-12946
Procedure	-12947
PropsKeys	-12948
SYNTHETIC	-12949
TRANSFORM	-12950
UnitState	-12951
WithError	-12952
_12143062	-12953
_12414382	-12954
anularity	-12955
interface	-12956
lateStack	-12957
versation	-12958
xFFFFFFFF	-12959
▁0.000001	-12960
▁ActorSDK	-12961
▁DOCUMENT	-12962
▁Defaults	-12963
▁EBoolean	-12964
▁Expected	-12965
▁Flowable	-12966
▁Generate	-12967
▁JavaFile	-12968
▁MapCache	-12969
▁MetaData	-12970
▁TestStep	-12971
▁aJavadoc	-12972
▁adaptors	-12973
▁backport	-12974
▁deployer	-12975
▁fieldSet	-12976
▁fileLock	-12977
▁fileType	-12978
▁getGraph	-12979
▁getLines	-12980
▁mapOfMap	-12981
▁nodeList	-12982
▁observer	-12983
▁producer	-12984
▁readable	-12985
▁retrieve	-12986
▁setClass	-12987
▁tempFile	-12988
▁toSource	-12989
1078232807	-12990
1226492963	-12991
BodyWriter	-12992
ExportMode	-12993
Horizontal	-12994
PARAMETERS	-12995
Vocabulary	-12996
chnologies	-12997
▁Automatic	-12998
▁IResource	-12999
▁Reporting	-13000
▁Resources	-13001
▁SolrQuery	-13002
▁TestEvent	-13003
▁Transport	-13004
▁addresses	-13005
▁createdOn	-13006
▁eventType	-13007
▁getAccess	-13008
▁getErrors	-13009
▁getEvents	-13010
▁getMirror	-13011
▁hostField	-13012
▁initiator	-13013
▁instances	-13014
▁lastToken	-13015
▁mergeWith	-13016
▁modelName	-13017
▁resultMap	-13018
▁secondary	-13019
▁setRemote	-13020
▁skipBytes	-13021
▁valueDate	-13022
▁valueType	-13023
▁writeByte	-13024
11653395017	-13025
11660597329	-13026
11767953960	-13027
12143179200	-13028
12144776385	-13029
Accumulator	-13030
Aggregation	-13031
Compression	-13032
FileVersion	-13033
NonExisting	-13034
ThreadCount	-13035
_1078232807	-13036
_1336567499	-13037
▁Atmosphere	-13038
▁Breadcrumb	-13039
▁DocumentId	-13040
▁IocContext	-13041
▁Preference	-13042
▁PullParams	-13043
▁RecentURLs	-13044
▁SimpleBean	-13045
▁Supervisor	-13046
▁TException	-13047
▁bugPattern	-13048
▁candidates	-13049
▁dictionary	-13050
▁executable	-13051
▁getIndices	-13052
▁getResults	-13053
▁googlecode	-13054
▁httpclient	-13055
▁nodesStats	-13056
▁regionInfo	-13057
▁scopeStack	-13058
▁sourceFile	-13059
▁threadPool	-13060
▁toExternal	-13061
▁typeHolder	-13062
▁webElement	-13063
FaultHandler	-13064
InstanceName	-13065
NoTargetText	-13066
ReturnValues	-13067
SuiteClasses	-13068
_11498508350	-13069
_12282695576	-13070
emptyCaption	-13071
matchingText	-13072
▁BuildTarget	-13073
▁IndexReader	-13074
▁MPSTreeNode	-13075
▁clusterName	-13076
▁connections	-13077
▁getExecutor	-13078
▁getOperator	-13079
▁getPriority	-13080
▁invokeLater	-13081
▁methodArray	-13082
▁methodIndex	-13083
▁partitionOf	-13084
▁propagating	-13085
▁propertySet	-13086
▁runSnapshot	-13087
▁sharedActor	-13088
▁testNewWith	-13089
ModelListener	-13090
ProperySource	-13091
URLConnection	-13092
_384046238805	-13093
▁CamelContext	-13094
▁ComponentDto	-13095
▁ConstantNode	-13096
▁Distribution	-13097
▁ListResponse	-13098
▁backtracking	-13099
▁classConcept	-13100
▁firstNonNull	-13101
▁getExtension	-13102
▁getSuggested	-13103
▁httpResponse	-13104
▁notification	-13105
▁runIfNotDone	-13106
▁selectedCell	-13107
CollisionShape	-13108
IdleTimeMillis	-13109
StrategyConfig	-13110
_1269198486696	-13111
_3567142084946	-13112
filteredStream	-13113
▁DBSForeignKey	-13114
▁Disambiguator	-13115
▁HttpConstants	-13116
▁ReadOnlyFirst	-13117
▁SearchOptions	-13118
▁getUserObject	-13119
▁randomBoolean	-13120
▁removeChannel	-13121
▁toIntUnsigned	-13122
LinkDeclaration	-13123
VariableChanged	-13124
executeFunction	-13125
▁DataWriterType	-13126
▁DependencyNode	-13127
▁TranslateStack	-13128
▁createHistoric	-13129
▁findDeployment	-13130
▁getDestination	-13131
▁getElementType	-13132
▁getTextContent	-13133
▁servletRequest	-13134
▁stateFieldName	-13135
▁topicPartition	-13136
ClassifiersScope	-13137
FileDataByModule	-13138
regorianCalendar	-13139
▁GraphTextWriter	-13140
▁InterceptorPair	-13141
▁createFullIdent	-13142
▁realBugReporter	-13143
▁referencedTypes	-13144
▁setTypeSettings	-13145
▁themeDefinition	-13146
.5	-13147
Fx	-13148
XA	-13149
hz	-13150
kb	-13151
168	-13152
281	-13153
402	-13154
ARS	-13155
Can	-13156
KEE	-13157
OOM	-13158
PMN	-13159
RUN	-13160
SEC	-13161
Sur	-13162
ati	-13163
dfs	-13164
dom	-13165
ggy	-13166
rgb	-13167
rtc	-13168
sym	-13169
▁94	-13170
▁Bi	-13171
▁FO	-13172
▁GT	-13173
▁Tx	-13174
▁bc	-13175
▁ja	-13176
▁ru	-13177
▁sa	-13178
▁vb	-13179
▁xp	-13180
3482	-13181
3538	-13182
3964	-13183
5085	-13184
6788	-13185
ARGS	-13186
Bool	-13187
CIAL	-13188
CITY	-13189
Ctor	-13190
ITLE	-13191
IfNe	-13192
Kill	-13193
LACK	-13194
Nice	-13195
Peek	-13196
RATE	-13197
RYPT	-13198
SYNC	-13199
Undo	-13200
ZONE	-13201
atar	-13202
blig	-13203
http	-13204
ilon	-13205
ixin	-13206
▁EOF	-13207
▁Max	-13208
▁Nam	-13209
▁XMP	-13210
▁eps	-13211
▁mce	-13212
▁rtf	-13213
▁sat	-13214
▁sep	-13215
▁sys	-13216
36745	-13217
3823_	-13218
55327	-13219
FETCH	-13220
FILES	-13221
Front	-13222
Light	-13223
MBean	-13224
ONENT	-13225
POWER	-13226
PRESS	-13227
Reuse	-13228
Slice	-13229
Three	-13230
USTOM	-13231
_1164	-13232
anned	-13233
atype	-13234
child	-13235
cutor	-13236
frame	-13237
iltIn	-13238
lined	-13239
lying	-13240
otted	-13241
rdDef	-13242
sTest	-13243
sUtil	-13244
▁0.01	-13245
▁Copy	-13246
▁Debt	-13247
▁Glyf	-13248
▁LDAP	-13249
▁Next	-13250
▁Peer	-13251
▁RECT	-13252
▁SETT	-13253
▁Wrap	-13254
▁beta	-13255
▁bpmn	-13256
▁feed	-13257
▁hard	-13258
▁injs	-13259
▁many	-13260
▁near	-13261
▁para	-13262
▁sqrt	-13263
▁star	-13264
122786	-13265
644842	-13266
944575	-13267
ATURES	-13268
Colors	-13269
Damage	-13270
Implem	-13271
LEADER	-13272
Naming	-13273
Rotate	-13274
SCROLL	-13275
SHIELD	-13276
SOCKET	-13277
Scaled	-13278
Secret	-13279
Shadow	-13280
_11860	-13281
atable	-13282
ecraft	-13283
lavors	-13284
▁Apple	-13285
▁Camel	-13286
▁Kylin	-13287
▁METRI	-13288
▁about	-13289
▁crawl	-13290
▁guess	-13291
▁jedis	-13292
▁least	-13293
▁pojos	-13294
▁smart	-13295
▁steps	-13296
▁storm	-13297
Bracket	-13298
CONTAIN	-13299
Nonnull	-13300
Occured	-13301
Spinner	-13302
haviour	-13303
ictions	-13304
▁BINARY	-13305
▁Bitmap	-13306
▁CANCEL	-13307
▁Helper	-13308
▁IMPORT	-13309
▁Master	-13310
▁Output	-13311
▁SECOND	-13312
▁Screen	-13313
▁aCheck	-13314
▁getAnd	-13315
▁getExt	-13316
▁getStd	-13317
▁getVar	-13318
▁legacy	-13319
▁maxAge	-13320
▁menuId	-13321
▁phrase	-13322
▁pieces	-13323
▁pixels	-13324
▁repeat	-13325
▁sketch	-13326
▁startX	-13327
▁viewer	-13328
AndSuper	-13329
HANDLERS	-13330
IPHeader	-13331
Normally	-13332
Overridd	-13333
PlanNode	-13334
Projects	-13335
RESPONSE	-13336
SELECTOR	-13337
_1136930	-13338
atisfied	-13339
▁1000000	-13340
▁DISTRIB	-13341
▁Disconf	-13342
▁Display	-13343
▁FAILURE	-13344
▁HotSpot	-13345
▁IEditor	-13346
▁JspUtil	-13347
▁Lexical	-13348
▁Program	-13349
▁Surface	-13350
▁Trigger	-13351
▁analyze	-13352
▁capsule	-13353
▁getEdit	-13354
▁keyPair	-13355
▁loading	-13356
▁mHeader	-13357
▁mStatic	-13358
▁numDocs	-13359
▁runTest	-13360
▁setFile	-13361
▁setMode	-13362
▁setShow	-13363
▁sitemap	-13364
▁updateJ	-13365
▁written	-13366
ChangeSet	-13367
Completed	-13368
Immutable	-13369
Interrupt	-13370
enticator	-13371
gendaItem	-13372
▁Analyzer	-13373
▁CharPool	-13374
▁EasyMock	-13375
▁NodeList	-13376
▁Specific	-13377
▁StepMeta	-13378
▁TreePath	-13379
▁addInput	-13380
▁adjusted	-13381
▁assertIs	-13382
▁bindings	-13383
▁bytecode	-13384
▁getBegin	-13385
▁isClosed	-13386
▁isLocked	-13387
▁keyEvent	-13388
▁keystore	-13389
▁manifest	-13390
▁nextNext	-13391
▁operands	-13392
▁readLock	-13393
▁reverbFx	-13394
▁services	-13395
▁statuses	-13396
▁textLine	-13397
▁userTool	-13398
1214477807	-13399
ConfigFrom	-13400
Correction	-13401
DataWriter	-13402
Generating	-13403
Inspection	-13404
Percentage	-13405
Persistent	-13406
_297644842	-13407
attributes	-13408
▁ByteOrder	-13409
▁ChainNode	-13410
▁ChangeSet	-13411
▁CodeBlock	-13412
▁Direction	-13413
▁FastStack	-13414
▁Heartbeat	-13415
▁Hibernate	-13416
▁Intercept	-13417
▁Signature	-13418
▁Supported	-13419
▁UIManager	-13420
▁UserGroup	-13421
▁baseClass	-13422
▁baseModel	-13423
▁classname	-13424
▁conceptId	-13425
▁encrypted	-13426
▁iDatabase	-13427
▁precision	-13428
▁publisher	-13429
▁setCharAt	-13430
▁startDate	-13431
10789361993	-13432
12254603022	-13433
12254608059	-13434
CacheConfig	-13435
Combination	-13436
Disconnectd	-13437
ElementImpl	-13438
HttpRequest	-13439
InterfaceOr	-13440
LargeInputs	-13441
MethodNames	-13442
MetricGroup	-13443
SimpleCache	-13444
Suppression	-13445
_1136564583	-13446
_1174088130	-13447
ierarchical	-13448
▁CSVMessage	-13449
▁ColumnInfo	-13450
▁JDBCObject	-13451
▁PDDocument	-13452
▁Registered	-13453
▁ViewHolder	-13454
▁aClassName	-13455
▁engineRule	-13456
▁expectNext	-13457
▁getJavadoc	-13458
▁getMaximum	-13459
▁getOptions	-13460
▁getSegment	-13461
▁headerName	-13462
▁objectUser	-13463
▁parseFloat	-13464
▁setBoolean	-13465
▁sqlSession	-13466
▁targetArea	-13467
▁underlying	-13468
471677432405	-13469
CacheManager	-13470
CellRenderer	-13471
ClassVisitor	-13472
Contribution	-13473
Modification	-13474
_11395331754	-13475
_11653395017	-13476
_12144775170	-13477
▁CoreMetrics	-13478
▁DBException	-13479
▁ElException	-13480
▁KylinConfig	-13481
▁LocaleUtils	-13482
▁MappingNode	-13483
▁PatternRule	-13484
▁SystemUtils	-13485
▁addCompiler	-13486
▁checkAccess	-13487
▁concurrency	-13488
▁dataContext	-13489
▁declaration	-13490
▁deployments	-13491
▁getDelegate	-13492
▁getMetaData	-13493
▁getPathArgs	-13494
▁getRowCount	-13495
▁indexWriter	-13496
▁preloadTime	-13497
▁setLanguage	-13498
▁setReadOnly	-13499
IfDisconnectd	-13500
QueryDebugger	-13501
TimelineEntry	-13502
_122826955814	-13503
▁EventHandler	-13504
▁MavenProject	-13505
▁Organization	-13506
▁SecurityTest	-13507
▁StringReader	-13508
▁absolutePath	-13509
▁checkpointId	-13510
▁configration	-13511
▁cruiseConfig	-13512
▁dataSegments	-13513
▁expectedType	-13514
▁getAsBoolean	-13515
▁getDebugText	-13516
▁iClusterName	-13517
▁resultObject	-13518
▁setReference	-13519
▁startElement	-13520
UnsafeSupplier	-13521
WhiteBlackList	-13522
nessAnnotation	-13523
▁GlyfComposite	-13524
▁InternalError	-13525
▁compareAndSet	-13526
▁defferability	-13527
▁floatingLabel	-13528
▁getContaining	-13529
▁resultHandler	-13530
▁socketBinding	-13531
RegistryService	-13532
ServletResponse	-13533
_29764484255327	-13534
▁GaussianKernel	-13535
▁TestDescriptor	-13536
▁expirationTime	-13537
▁getAnnotations	-13538
▁getDeclaration	-13539
RuntimeException	-13540
TimeoutException	-13541
ToNodeTransition	-13542
▁DebtRemediation	-13543
▁getCamelContext	-13544
▁getSelectedItem	-13545
▁mergeHttpServer	-13546
▁setReturnValues	-13547
.7	-13548
EQ	-13549
Fn	-13550
Fs	-13551
GT	-13552
LP	-13553
RF	-13554
TA	-13555
bd	-13556
yy	-13557
178	-13558
200	-13559
302	-13560
341	-13561
399	-13562
3_0	-13563
477	-13564
561	-13565
625	-13566
643	-13567
701	-13568
742	-13569
823	-13570
830	-13571
863	-13572
905	-13573
908	-13574
910	-13575
973	-13576
Cls	-13577
FOC	-13578
JAV	-13579
MEN	-13580
RAD	-13581
SUM	-13582
_60	-13583
_70	-13584
ari	-13585
dec	-13586
nrs	-13587
oth	-13588
xce	-13589
yph	-13590
▁35	-13591
▁36	-13592
▁67	-13593
▁Ar	-13594
▁FS	-13595
▁IE	-13596
▁Su	-13597
▁_0	-13598
▁bi	-13599
▁bp	-13600
▁dt	-13601
▁fe	-13602
▁fk	-13603
▁gd	-13604
▁jf	-13605
▁mo	-13606
▁pt	-13607
4702	-13608
4__2	-13609
4__4	-13610
5195	-13611
ANAL	-13612
COPY	-13613
CORE	-13614
Does	-13615
ENCH	-13616
ERGE	-13617
IDLE	-13618
IGIN	-13619
Jars	-13620
PLIT	-13621
Pose	-13622
REAM	-13623
Runs	-13624
UTOR	-13625
VOID	-13626
WAIT	-13627
Xref	-13628
YCLE	-13629
dest	-13630
erce	-13631
gain	-13632
orth	-13633
rect	-13634
rono	-13635
ross	-13636
side	-13637
spec	-13638
trip	-13639
▁10.	-13640
▁ANT	-13641
▁Car	-13642
▁DER	-13643
▁DHT	-13644
▁HMM	-13645
▁Pol	-13646
▁Sum	-13647
▁Utf	-13648
▁VER	-13649
▁Vol	-13650
▁aAt	-13651
▁big	-13652
▁cli	-13653
▁cpu	-13654
▁fld	-13655
▁isL	-13656
▁jef	-13657
▁jss	-13658
▁jvm	-13659
▁mvc	-13660
▁pgl	-13661
▁rad	-13662
41826	-13663
55994	-13664
92103	-13665
Arrow	-13666
Boxes	-13667
Clock	-13668
Deque	-13669
EDDED	-13670
ENGTH	-13671
EndOf	-13672
Grant	-13673
Hello	-13674
IDENT	-13675
IfSet	-13676
Never	-13677
Occur	-13678
Paren	-13679
Prefs	-13680
Quest	-13681
Quota	-13682
Ready	-13683
Reset	-13684
SERVE	-13685
Since	-13686
Sites	-13687
URPLE	-13688
Warns	-13689
aches	-13690
depth	-13691
error	-13692
first	-13693
kType	-13694
lists	-13695
opies	-13696
ptime	-13697
rowse	-13698
start	-13699
xceab	-13700
▁1030	-13701
▁4000	-13702
▁8192	-13703
▁EXCE	-13704
▁EXPA	-13705
▁FONT	-13706
▁Soft	-13707
▁bcel	-13708
▁cost	-13709
▁grad	-13710
▁past	-13711
▁pick	-13712
▁setO	-13713
▁volt	-13714
▁vptr	-13715
000000	-13716
396450	-13717
519525	-13718
605716	-13719
COVERY	-13720
FERRED	-13721
FOLDER	-13722
Lexeme	-13723
Listen	-13724
NORMAL	-13725
ORIGIN	-13726
Person	-13727
Regist	-13728
Shader	-13729
Shards	-13730
Spider	-13731
States	-13732
Transc	-13733
Trough	-13734
_82637	-13735
abytes	-13736
alette	-13737
apture	-13738
filing	-13739
hcache	-13740
ingBox	-13741
ingKey	-13742
undant	-13743
▁CHILD	-13744
▁Descr	-13745
▁Fetch	-13746
▁VISIT	-13747
▁Video	-13748
▁avail	-13749
▁blend	-13750
▁elist	-13751
▁hosts	-13752
▁light	-13753
▁pairs	-13754
▁price	-13755
▁repos	-13756
▁scene	-13757
▁union	-13758
▁video	-13759
1198252	-13760
3396097	-13761
AtLeast	-13762
Captcha	-13763
DHTDist	-13764
Domains	-13765
Finders	-13766
InScope	-13767
InStock	-13768
LECTION	-13769
LOGGING	-13770
Mention	-13771
OVERLAY	-13772
PRIVATE	-13773
Printer	-13774
TabName	-13775
Uniform	-13776
WaitFor	-13777
_744702	-13778
enabled	-13779
ificant	-13780
process	-13781
▁Bundle	-13782
▁Domain	-13783
▁Equals	-13784
▁Escape	-13785
▁FAILED	-13786
▁FINDER	-13787
▁FORMAT	-13788
▁Finder	-13789
▁Hudson	-13790
▁IFZERO	-13791
▁Jimple	-13792
▁Killer	-13793
▁PREFIX	-13794
▁Parent	-13795
▁chunks	-13796
▁detach	-13797
▁getAdd	-13798
▁getCal	-13799
▁getIoc	-13800
▁getRes	-13801
▁insets	-13802
▁mLines	-13803
▁markup	-13804
▁modify	-13805
▁moveTo	-13806
▁needed	-13807
▁nextTo	-13808
▁resume	-13809
▁router	-13810
▁severe	-13811
▁stores	-13812
▁trainx	-13813
▁trainy	-13814
▁unlock	-13815
12143162	-13816
60629446	-13817
CAPACITY	-13818
DOCUMENT	-13819
DataFile	-13820
Editable	-13821
EnumEnum	-13822
Filtered	-13823
FireTime	-13824
GridView	-13825
INTERNAL	-13826
OVERRIDE	-13827
PROTOCOL	-13828
REQUIRED	-13829
Recovery	-13830
Subclass	-13831
Upstream	-13832
UserName	-13833
extended	-13834
imedRule	-13835
lyweight	-13836
▁Angular	-13837
▁Article	-13838
▁CAPTCHA	-13839
▁Caption	-13840
▁ColorUI	-13841
▁DISPLAY	-13842
▁Desktop	-13843
▁ENABLED	-13844
▁INTEGER	-13845
▁MINIMAL	-13846
▁Metrics	-13847
▁NUMERIC	-13848
▁Support	-13849
▁addCell	-13850
▁attempt	-13851
▁baseDir	-13852
▁borning	-13853
▁clsName	-13854
▁configs	-13855
▁createP	-13856
▁getHash	-13857
▁getUuid	-13858
▁jarFile	-13859
▁mention	-13860
▁queries	-13861
▁ranking	-13862
▁related	-13863
▁setNull	-13864
▁toValue	-13865
122956162	-13866
630055994	-13867
BaseModel	-13868
BatchSize	-13869
Bootstrap	-13870
BuferSize	-13871
ChunkSize	-13872
ConceptOf	-13873
Deviation	-13874
InSeconds	-13875
Inclusive	-13876
Iteration	-13877
Toolchain	-13878
_12138772	-13879
bligation	-13880
ceObjects	-13881
className	-13882
▁CONTAINS	-13883
▁Callback	-13884
▁Explorer	-13885
▁FUNCTION	-13886
▁Hunspell	-13887
▁Timeline	-13888
▁baseName	-13889
▁consider	-13890
▁contexts	-13891
▁detector	-13892
▁excluded	-13893
▁fontInfo	-13894
▁fontSize	-13895
▁getShell	-13896
▁getTheme	-13897
▁getTopic	-13898
▁isIgnore	-13899
▁itemView	-13900
▁mImports	-13901
▁maxWidth	-13902
▁negative	-13903
▁nodebody	-13904
▁quantile	-13905
▁recorder	-13906
▁setInput	-13907
▁unmapped	-13908
1165424779	-13909
1214320157	-13910
1216309284	-13911
Enablement	-13912
FillStatus	-13913
IfSetOrGet	-13914
ImportRule	-13915
Qualifiers	-13916
SELECTABLE	-13917
TargetNode	-13918
UpperBound	-13919
_826373538	-13920
compressed	-13921
ingerprint	-13922
prefsProps	-13923
▁ASSERTION	-13924
▁Closeable	-13925
▁EventType	-13926
▁GroupImpl	-13927
▁InnerEnum	-13928
▁JMenuItem	-13929
▁LocalDate	-13930
▁MPSModule	-13931
▁Pluggable	-13932
▁Retention	-13933
▁Singleton	-13934
▁aVariable	-13935
▁addFilter	-13936
▁frequency	-13937
▁getMaster	-13938
▁groupType	-13939
▁keepAlive	-13940
▁mandatory	-13941
▁newColumn	-13942
▁objectweb	-13943
▁ofSeconds	-13944
▁paramName	-13945
▁randomInt	-13946
▁tablename	-13947
▁topicName	-13948
11395373373	-13949
12270295564	-13950
12282695576	-13951
ContextImpl	-13952
FileDetails	-13953
INTERCEPTOR	-13954
IdGenerator	-13955
ImportGroup	-13956
PortletKeys	-13957
Replication	-13958
TRANSACTION	-13959
_1080742964	-13960
conditional	-13961
▁ActionKeys	-13962
▁BaseTagger	-13963
▁BasicBlock	-13964
▁Dictionary	-13965
▁HORIZONTAL	-13966
▁JavaScript	-13967
▁ScopeStack	-13968
▁StrBuilder	-13969
▁UnicodeSet	-13970
▁UploadInfo	-13971
▁activeRule	-13972
▁addMessage	-13973
▁chineseSeg	-13974
▁columnType	-13975
▁defaultsTo	-13976
▁diagnostic	-13977
▁getStorage	-13978
▁getTimeout	-13979
▁horizontal	-13980
▁isDisposed	-13981
▁isNotBlank	-13982
▁nextDouble	-13983
▁nodeEngine	-13984
▁readObject	-13985
▁setForward	-13986
▁setVersion	-13987
▁sourceEdge	-13988
▁suggestion	-13989
122826955826	-13990
BlockComment	-13991
ExcludeScope	-13992
ResourceName	-13993
SetPrototype	-13994
StateBackend	-13995
_11654209359	-13996
_12144776555	-13997
▁DbException	-13998
▁GlobalScope	-13999
▁RuntimeType	-14000
▁WebSettings	-14001
▁currentType	-14002
▁entityClass	-14003
▁getAbstract	-14004
▁getDuration	-14005
▁greaterThan	-14006
▁matchedNode	-14007
▁newDistance	-14008
▁scmMaterial	-14009
▁threadState	-14010
▁verifyWarns	-14011
▁virtualHost	-14012
DataException	-14013
ExpectWarning	-14014
Intersections	-14015
SeverityLevel	-14016
▁AbstractType	-14017
▁BlockCapsule	-14018
▁BooleanQuery	-14019
▁CoreRegistry	-14020
▁FoldFunction	-14021
▁ModelWrapper	-14022
▁Notification	-14023
▁QueryBuilder	-14024
▁ResultSetRow	-14025
▁VisitHandler	-14026
▁WriteConcern	-14027
▁getDirectory	-14028
▁getErrorCode	-14029
▁getPreferred	-14030
▁parameterMap	-14031
▁previousLine	-14032
▁remoteServer	-14033
▁replyMessage	-14034
▁setTextColor	-14035
▁targetMethod	-14036
▁unitsInStock	-14037
CacheHitStores	-14038
ReturnNormally	-14039
_4540508509677	-14040
▁ArrayEnumEnum	-14041
▁COSDictionary	-14042
▁CoercingParse	-14043
▁LegacyCaptcha	-14044
▁WeakReference	-14045
▁aCurrentGroup	-14046
▁addSourceLine	-14047
▁handleRequest	-14048
▁runReadAction	-14049
MethodSignature	-14050
OutputCollector	-14051
▁AssetPublisher	-14052
▁DefaultChannel	-14053
▁LogInitializer	-14054
▁MessageChannel	-14055
▁SystemProperty	-14056
▁UnsafeSupplier	-14057
▁getEntityClass	-14058
▁isSubConceptOf	-14059
▁osmandSettings	-14060
▁processMessage	-14061
▁rightTransform	-14062
ParsingException	-14063
VerticalGridView	-14064
_744702630055994	-14065
▁AopConfigration	-14066
▁ColorUIResource	-14067
▁ObjectExecution	-14068
▁PortalException	-14069
▁SourceGenerator	-14070
▁addCompilerFlag	-14071
▁afterInvocation	-14072
▁allowJavaSerial	-14073
▁createExecution	-14074
▁getConnectionId	-14075
▁getModuleFqName	-14076
Aw	-14077
BL	-14078
Bo	-14079
DL	-14080
II	-14081
Sw	-14082
UG	-14083
Va	-14084
aa	-14085
fc	-14086
ke	-14087
vc	-14088
▁\	-14089
202	-14090
325	-14091
353	-14092
512	-14093
536	-14094
603	-14095
649	-14096
653	-14097
682	-14098
928	-14099
BUI	-14100
GUI	-14101
LES	-14102
Loc	-14103
OLS	-14104
Oup	-14105
PID	-14106
Pdf	-14107
Rev	-14108
SAN	-14109
Sun	-14110
Tar	-14111
Txn	-14112
UNK	-14113
_17	-14114
axb	-14115
dav	-14116
ddy	-14117
eld	-14118
job	-14119
rep	-14120
tip	-14121
xml	-14122
▁37	-14123
▁63	-14124
▁AM	-14125
▁DS	-14126
▁bd	-14127
▁dm	-14128
▁dw	-14129
▁jm	-14130
▁ki	-14131
▁mJ	-14132
▁pa	-14133
▁sx	-14134
1699	-14135
2_51	-14136
4__3	-14137
9958	-14138
ALTH	-14139
ATAL	-14140
Band	-14141
Bulk	-14142
CLOS	-14143
Card	-14144
Dsym	-14145
ELDS	-14146
FLOW	-14147
FQCN	-14148
FULL	-14149
HIGH	-14150
Hard	-14151
LOOR	-14152
Must	-14153
Rise	-14154
Turn	-14155
VERB	-14156
_108	-14157
conn	-14158
eloc	-14159
lied	-14160
lode	-14161
menu	-14162
ocks	-14163
osen	-14164
pond	-14165
root	-14166
sect	-14167
work	-14168
xies	-14169
▁0.2	-14170
▁127	-14171
▁150	-14172
▁866	-14173
▁Aff	-14174
▁Arg	-14175
▁CMD	-14176
▁EMB	-14177
▁HAS	-14178
▁ROW	-14179
▁RUN	-14180
▁STR	-14181
▁TCP	-14182
▁agg	-14183
▁btn	-14184
▁cos	-14185
▁dht	-14186
▁dyn	-14187
▁gap	-14188
▁kie	-14189
▁pub	-14190
▁reb	-14191
▁unc	-14192
63084	-14193
89567	-14194
ADATA	-14195
About	-14196
CLUDE	-14197
Clone	-14198
INNER	-14199
Ouput	-14200
SANIT	-14201
WATER	-14202
White	-14203
Wrong	-14204
_2879	-14205
anode	-14206
glish	-14207
iated	-14208
inity	-14209
input	-14210
izing	-14211
▁Apps	-14212
▁Cons	-14213
▁ORID	-14214
▁Plan	-14215
▁When	-14216
▁masm	-14217
▁omit	-14218
▁prob	-14219
▁smoo	-14220
▁sqle	-14221
154255	-14222
Answer	-14223
Checks	-14224
IsNull	-14225
MASTER	-14226
Parens	-14227
Parsed	-14228
Portal	-14229
Repost	-14230
Router	-14231
SCHEMA	-14232
SECOND	-14233
Subset	-14234
Unused	-14235
anning	-14236
ascade	-14237
double	-14238
edNode	-14239
endsOn	-14240
olders	-14241
ollers	-14242
orized	-14243
portal	-14244
rivers	-14245
source	-14246
utions	-14247
▁About	-14248
▁BENCH	-14249
▁Bound	-14250
▁Chart	-14251
▁Disks	-14252
▁Fiber	-14253
▁HOURS	-14254
▁INPUT	-14255
▁IType	-14256
▁MYSQL	-14257
▁OPERA	-14258
▁Plain	-14259
▁Quota	-14260
▁SPELL	-14261
▁Scans	-14262
▁Super	-14263
▁Trait	-14264
▁aTags	-14265
▁clock	-14266
▁deref	-14267
▁gamma	-14268
▁gauge	-14269
▁getCo	-14270
▁hFile	-14271
▁jetty	-14272
▁recid	-14273
▁setOp	-14274
▁spawn	-14275
1147110	-14276
8683120	-14277
ByStack	-14278
CLOSURE	-14279
Crypter	-14280
Desktop	-14281
Expired	-14282
Hilight	-14283
Leading	-14284
Offsets	-14285
Painter	-14286
Postfix	-14287
Promise	-14288
Ranking	-14289
RuleIds	-14290
SEditor	-14291
actions	-14292
builder	-14293
element	-14294
elocity	-14295
enation	-14296
ighters	-14297
package	-14298
replace	-14299
umented	-14300
urnType	-14301
▁BUFFER	-14302
▁Bottom	-14303
▁Broker	-14304
▁Health	-14305
▁Notify	-14306
▁PERIOD	-14307
▁Struts	-14308
▁Trends	-14309
▁UNIQUE	-14310
▁aquire	-14311
▁cloned	-14312
▁daemon	-14313
▁getCap	-14314
▁getExp	-14315
▁hasExt	-14316
▁hudson	-14317
▁jLabel	-14318
▁mother	-14319
▁ofType	-14320
▁poller	-14321
▁quarry	-14322
▁toJSON	-14323
11402232	-14324
Attempts	-14325
Buffered	-14326
Consumed	-14327
Deployer	-14328
Directly	-14329
ForClass	-14330
Incident	-14331
Increase	-14332
LinePart	-14333
ManyMany	-14334
NiceMock	-14335
Occurred	-14336
OnChange	-14337
Suceeded	-14338
TextSize	-14339
Uploader	-14340
Verifier	-14341
_1165017	-14342
standing	-14343
vertical	-14344
▁Columns	-14345
▁EXAMPLE	-14346
▁HISTORY	-14347
▁Missing	-14348
▁NDArray	-14349
▁NOTHING	-14350
▁Profile	-14351
▁RefType	-14352
▁analyse	-14353
▁average	-14354
▁baseUrl	-14355
▁capture	-14356
▁dbCache	-14357
▁declare	-14358
▁endDate	-14359
▁forPath	-14360
▁getCube	-14361
▁helpers	-14362
▁invoked	-14363
▁isBlock	-14364
▁isScope	-14365
▁onAfter	-14366
▁servers	-14367
▁setNode	-14368
▁shardId	-14369
▁sources	-14370
▁thisObj	-14371
▁unicode	-14372
▁website	-14373
Behaviour	-14374
CONNECTOR	-14375
CacheSize	-14376
ClassItem	-14377
FieldInfo	-14378
FormParam	-14379
IFICATION	-14380
InfoCache	-14381
SANITIZER	-14382
Singleton	-14383
Translate	-14384
Watermark	-14385
agedModel	-14386
lucentKey	-14387
seHandler	-14388
sensitive	-14389
▁Datagram	-14390
▁GridData	-14391
▁MESSAGES	-14392
▁PipeBase	-14393
▁RESOURCE	-14394
▁Redisson	-14395
▁ZipEntry	-14396
▁argsList	-14397
▁commited	-14398
▁exitCode	-14399
▁folderId	-14400
▁fontName	-14401
▁friendly	-14402
▁fullPath	-14403
▁getFetch	-14404
▁getToPos	-14405
▁includes	-14406
▁keyStore	-14407
▁mMinimum	-14408
▁matching	-14409
▁menuItem	-14410
▁suppress	-14411
▁userInfo	-14412
1176718093	-14413
ANNOTATION	-14414
BigDecimal	-14415
ChildLevel	-14416
Difference	-14417
EditorPane	-14418
Eventually	-14419
InvokeExpr	-14420
MatchToken	-14421
ParamNames	-14422
Partitions	-14423
Suppressed	-14424
▁ATTRIBUTE	-14425
▁CodecUtil	-14426
▁Connector	-14427
▁CoreLabel	-14428
▁LogWriter	-14429
▁REFERENCE	-14430
▁SUPPORTED	-14431
▁SortedMap	-14432
▁TestSuite	-14433
▁accountId	-14434
▁actionGet	-14435
▁annotions	-14436
▁articleId	-14437
▁assertNot	-14438
▁extractor	-14439
▁getScreen	-14440
▁getScroll	-14441
▁getSerial	-14442
▁getSocket	-14443
▁isPersist	-14444
▁isValidOn	-14445
▁jTextArea	-14446
▁lastClass	-14447
▁messageId	-14448
▁recursive	-14449
▁rowNumber	-14450
▁setEntity	-14451
▁setOutput	-14452
▁typeArray	-14453
▁typeClass	-14454
▁webSocket	-14455
▁whitelist	-14456
10790072375	-14457
12282695583	-14458
Consequence	-14459
ContextName	-14460
Enumeration	-14461
IfNecessary	-14462
Probability	-14463
QueriesUtil	-14464
ReplaceRule	-14465
Repostories	-14466
SetPresence	-14467
_1176718093	-14468
focusPolicy	-14469
▁ArrayUtils	-14470
▁Constraint	-14471
▁FileStatus	-14472
▁Management	-14473
▁MessageBox	-14474
▁Navigation	-14475
▁ObjectLoad	-14476
▁Referenced	-14477
▁SpellCheck	-14478
▁Subscriber	-14479
▁WidgetInfo	-14480
▁allocation	-14481
▁contentdom	-14482
▁convention	-14483
▁converters	-14484
▁dataReader	-14485
▁firstClass	-14486
▁firstIndex	-14487
[...]
