<pad>
<unk>
<s>
<\s>
▁)
▁(
▁.
▁,
▁;
str
▁"
"
▁=
NUM
_
▁{
▁+
▁>
▁new
▁<
▁public
▁String
▁private
▁return
▁if
▁static
▁node
▁context
▁final
▁SNode
▁void
▁null
▁0
▁EditorCell
▁int
▁editorCell
▁&
▁[
▁]
▁EditorContext
▁!
▁this
a
▁true
▁@
▁_
▁1
▁false
▁get
▁class
▁}
▁boolean
▁e
▁|
▁List
▁i
▁-
▁value
▁throw
▁setupBasic
▁?
Exception
▁:
▁throws
▁assertEquals
▁ArrayList
▁log
Collection
▁create
▁Integer
Label
▁Object
▁equals
▁import
▁setupLabel
▁getInstance
▁name
▁Exception
▁type
Condition
▁getName
▁add
▁toString
▁com
▁size
▁for
▁ifMacro
▁*
▁logger
▁length
▁Map
▁T
▁result
▁info
context
▁2
▁protected
▁error
Constant
▁Boolean
▁long
▁put
▁debug
▁text
▁File
▁nodeToMatch
▁append
▁System
▁ctx
▁else
▁org
▁LOG
▁liferay
▁TypeChecker
internal
▁createConstant
▁service
▁portal
property
▁set
▁Source
▁IOException
▁HashMap
▁performTest
▁extends
▁getMessage
▁package
NodeContext
▁out
SubstituteMacro
▁input
▁DetailAST
▁Qu
▁key
L
eriesGenerated
▁aAST
▁Long
Support
x
▁double
▁Class
▁setCellId
▁getRuntime
▁m
▁DEFAULT
▁HashSet
▁getString
▁Set
▁format
▁SNodeOperations
▁id
refNode
▁byte
▁assertThat
▁warn
▁childRole
▁data
CheckingContext
nodeToCheck
▁createProperty
▁expected
▁t
▁println
▁childVar
▁/
▁is
Context
▁p
▁c
▁typeOf
▁getChildren
▁s
▁de
▁o
▁super
▁createRefNode
▁Assert
▁x
▁catch
Test
f
▁config
Type
▁request
▁provider
entionProvider
▁languagetool
▁danielnaber
▁message
▁3
▁required
▁defaultValue
▁path
▁contains
▁from
▁index
▁model
▁file
▁writer
▁valueOf
▁getTarget
▁while
▁SLinkOperations
▁IndexWriter
▁instanceof
Name
▁getClass
s
▁map
▁assertTrue
▁R
Configuration
▁IllegalArgument
▁getType
▁cellWithRole
▁apache
WithRole
▁java
▁sb
▁CellProvider
▁aProvider
▁current
▁a
b
▁args
ApiParam
List
▁response
▁b
▁getValue
▁4
▁test
▁url
▁r
Declaration
ID
▁ServiceContext
▁client
▁v
▁default
▁Log
▁float
▁method
Builder
▁entry
in
▁createNode
▁10
▁Default
▁cast
▁list
name
Value
▁QuotationClass
▁assert
▁getDefault
▁it
▁getNode
▁Runtime
NAME
▁getProperty
▁field
▁serviceContext
String
Service
▁parser
▁f
▁Pattern
▁max
Descriptor
▁count
▁isEmpty
▁buffer
▁target
▁5
▁implements
Operations
▁1000
▁LOGGER
▁getId
▁build
Properties
Config
▁builder
▁start
Factory
KEY
▁getPath
Options
▁ex
▁source
▁FOLLOW
Id
▁write
▁parent
Listener
▁state
▁addEditorCell
▁query
▁n
▁session
Property
c
▁j
▁item
Map
▁substring
▁msg
▁V
▁next
Handler
▁MAX
▁E
▁match
▁dir
▁verify
d
▁startsWith
▁Node
▁pos
LocalService
▁version
▁d
Manager
▁Checkpoint
.
▁event
Class
▁to
▁Double
▁LinkedList
▁values
▁Illegal
▁remove
▁groups
VALUE
▁abstract
▁conf
▁description
▁y
▁Math
File
Message
▁case
▁Collection
▁position
TYPE
StateException
▁res
▁createEquation
▁100
qy
uft
▁indexOf
▁invoke
▁Messages
▁of
▁Arrays
Provider
▁cs
▁TimeUnit
▁K
Analyzer
▁thisNode
Info
Path
▁execute
Count
▁params
▁k
▁TokenTypes
▁util
▁getParent
l
Action
▁check
▁iterator
info
g
▁edu
▁className
▁TYPE
▁status
▁row
▁Type
▁initTest
▁getReferent
▁obj
▁rules
▁A
▁parse
Parameters
▁SProperty
▁DRLParser
▁Task
▁umd
▁createLessThan
▁string
Inequation
Cache
▁getBytes
▁content
▁replace
Operation
▁load
▁allowableValues
▁Iterator
▁l
Node
▁offset
▁1024
Expression
▁PARAMETERS
Result
▁8
▁line
▁I
Annotation
Data
▁table
NativeType
▁getText
▁Constants
Model
▁setText
fi
▁w
NotNull
Index
Container
▁fail
▁user
▁in
▁short
▁find
▁BehaviorManager
e
▁handler
▁mCheckConfig
▁Abstract
S
▁err
▁actual
▁getParser
▁sourceNodeQuery
Method
▁object
▁other
▁filter
▁URL
▁settings
▁putUserObject
Size
▁my
Function
▁instance
▁properties
▁StringBuilder
▁min
▁req
RequestParam
ERROR
▁connection
▁asList
▁output
▁quotedNode
▁generate
VERSION
SIZE
▁end
Set
▁fromString
▁daveho
▁Builder
Component
▁update
▁operation
▁getBoolean
Request
▁prop
Element
▁group
▁split
Field
▁Collections
▁getResource
▁options
Definition
▁array
▁matcher
▁process
▁synchronized
▁port
▁Date
▁register
▁Whitespace
▁rule
▁fileName
▁Locale
▁uri
▁Throwable
▁L
Description
Reference
▁Simple
▁compile
▁Iterable
▁token
▁Path
▁column
▁server
▁ba
Nullable
Tag
▁TreeSet
refCell
Attribute
▁base
▁location
▁property
▁param
▁last
▁Logger
▁timeout
▁CELL
▁Response
▁graph
▁BaseInt
▁char
▁Thread
State
Constants
▁read
▁sql
▁isEqualTo
▁pointer
DEFAULT
Object
▁lang
▁str
▁hasNext
▁with
▁command
▁fs
▁__
▁env
▁getKey
▁call
From
▁SECONDS
▁channel
▁cache
▁constants
▁snapshot
▁Configuration
▁getLogger
▁Meta
▁Item
Concept
Response
Parameter
▁g
▁failed
Checkpoint
Key
▁project
Version
▁num
▁Level
q
Filter
To
▁getLog
▁trim
▁configuration
▁PatternUtil
AdapterFactory
▁Entry
▁matchReferent
WithNode
result
▁LocaleUtil
▁getInteger
▁limit
▁Token
ContainerParams
▁assertFalse
▁parameter
vwsftd
▁buf
▁ret
▁first
Instance
▁getInt
▁60
▁child
Settings
Reader
FoundException
▁print
Util
▁logFailure
▁on
▁http
Group
▁element
▁getAbsolutePath
▁resource
▁listener
▁width
▁matches
▁database
▁pushFollow
h
▁task
▁editorContext
▁separator
▁stream
▁abc
▁getE
Error
__
▁Method
URL
TIMEOUT
▁aAst
▁db
▁getChildCount
▁code
▁toLowerCase
▁ListSequence
▁fromList
▁post
▁use
▁mock
▁createRefCell
▁StringUtils
Statement
Query
▁pattern
▁6
TimeMillis
Mode
▁jetbrains
▁left
▁logging
Names
Quotations
▁DB
▁InputStream
▁xxxtest
▁interface
Position
PATH
▁findFirstToken
F
▁replaceAll
With
▁body
▁exists
Buffer
▁Value
▁has
Types
▁internal
▁close
▁tokens
▁908
Representator
▁when
▁User
Utils
▁URI
▁endsWith
Repository
Text
▁getLineNo
component
▁reportTypeError
▁sm
Time
Column
Event
▁container
▁module
▁prefix
Editor
▁mps
Valid
▁concept
▁bytes
▁core
Resource
▁props
▁Message
▁val
▁image
▁Command
▁Optional
quationManager
Command
▁header
▁root
▁Unsupported
▁trace
▁time
▁tag
▁Field
▁juli
▁enabled
▁SModel
Iterator
▁waitFor
▁json
i
Resolver
▁XField
Server
▁Routes
▁Debug
▁attributes
▁block
▁20
▁results
Behavior
▁retval
Session
ElementHandler
▁language
Enabled
Url
Serializer
SuppressWarnings
▁getCurrent
For
▁h
Number
Status
typevar
Directory
▁host
Client
▁run
Address
Table
▁hash
▁intValue
▁parseInt
▁label
Identifier
▁scope
▁charAt
Source
ing
C
▁visitToken
▁page
StringArray
▁clazz
Connection
j
▁Void
▁expression
refNodeList
Environment
▁evt
Values
▁template
ozj
FILE
▁Float
▁Function
IgnoreCase
▁Hashtable
▁1.0
CLASS
pezsk
▁Pair
▁messages
▁keySet
▁random
▁date
Metadata
▁try
Entry
▁S
▁apply
Item
▁height
Helper
▁tags
▁Property
▁Neighbor
▁right
▁annotation
▁ch
▁Resource
▁insert
▁SWT
▁forFull
Pattern
▁open
▁handle
pf
▁entity
▁init
▁all
▁LinkedHashMap
dr
▁plugin
▁address
▁forCheckpoint
▁toArray
▁len
▁exception
▁runtime
▁await
▁getModel
▁compareTo
▁filename
▁execution
▁javax
▁Json
▁idx
▁action
▁Standard
▁ByteBuffer
View
▁caller
▁arguments
▁getAttribute
▁record
▁JLabel
Length
ed
▁getConcept
▁INSTANCE
▁BigDecimal
D
▁7
▁keys
▁Context
▁awt
ProcessInstance
ConceptFqName
▁argument
▁VERSION
RequestPart
▁store
▁ResponseEntity
▁files
Impl
Fields
▁mapper
DateFormat
▁directory
▁ClassDescriptor
▁view
▁reader
▁Filter
▁C
▁sleep
▁show
▁profile
▁component
Option
▁thenReturn
Comparator
▁prepare
Default
Location
Timeout
▁$
▁immediate
▁groupId
▁SReference
▁SModelReference
Strategy
▁SWF
▁invokeSuper
▁200
And
PREFIX
▁PARAM
▁X
▁unsupported
▁verifyException
▁10000
▁getIsNamespace
Enabeld
▁gen
▁q
▁Status
▁swf
Application
▁columns
MAX
▁exchange
▁Base
▁Vector
▁warning
▁checkNotNull
B
▁sub
OperationContext
▁32
▁doc
able
▁Label
▁Objects
▁NodeLIRBu
iderTool
▁getElement
▁meta
▁Color
n
▁SNodeId
▁names
▁0.0
Integer
▁statement
▁col
Authentication
▁cause
▁z
▁setValue
▁Calendar
▁io
Parser
▁Attribute
Stream
▁Result
▁setProperty
Handle
Offset
Preferences
▁StringBuffer
▁ValueNumber
▁getConfig
▁Runnable
Array
▁validate
▁Random
▁protocol
▁Config
▁resolve
▁swing
▁Element
ah
▁cell
▁local
Task
▁Duration
Variable
▁src
▁routes
▁tagging
▁delete
▁lock
STRING
Target
▁arg
▁Model
▁visit
▁environment
▁retVal
▁copy
▁hashCode
▁H
▁render
v
▁getLocal
▁assumeTrue
BagConstraints
▁receiver
▁createComponent
K
▁P
▁ERROR
Code
▁methodName
▁repository
IN
▁Utils
▁timestamp
▁Opeanapi
EquivalenceUtil
Future
▁iter
▁myListHandler
▁streamFactory
BY
Block
▁500
▁N
▁factory
PARAM
▁getConstant
In
▁Character
▁Const
▁children
NOT
▁future
▁getData
▁equalTo
p
▁%
Base
▁Request
▁old
▁tmp
▁color
▁Preconditions
▁Comparable
▁Invalid
▁unit
▁BugInstance
TAG
MultipleOr
▁getSimpleName
▁CONTAINER
▁headerLength
▁clear
▁wordRelation
▁callback
▁DataStream
Dir
Level
Processor
▁break
▁longValue
▁convert
▁tree
▁search
▁parameters
▁NO
▁select
▁containsKey
▁Inter
▁addAll
▁OUT
PORT
▁Transaction
▁Test
▁Client
▁getTime
▁Artifact
▁Number
▁job
cc
▁Custom
▁MyClass
▁generatedXML
Format
▁api
▁WorldPoint
▁cluster
Content
▁30
▁newInstance
Token
▁nk
A
▁Rule
▁Matcher
▁aName
xf
▁stack
log
Database
▁frame
PRIORITY
▁after
▁addReference
▁attribute
▁Action
Check
▁pipeline
▁fields
▁NkColor
▁locale
▁app
▁score
xFF
▁Location
▁nodes
▁ast
▁eq
▁u
Start
EncodeMethod
▁LinkedHashSet
Thread
ClassName
Params
Style
▁subscription
▁Scope
▁DEBUG
xa
▁newValue
▁TrieParser
▁parseTrie
▁schema
Rule
▁50
▁MILLISECONDS
ruptedException
▁KEY
Executor
Ids
▁accessToken
Store
▁VALUE
Part
Classes
▁metadata
▁WARNING
Schema
Prefix
▁Expr
▁lines
▁partition
▁packageName
▁getFirstChild
Header
▁printDbg
▁volatile
▁total
SubstituteInfo
▁850
▁option
Button
▁title
▁ParseException
Execution
Converter
▁before
Date
▁9
conceptProperty
▁save
▁setDefault
Wrapper
▁16
▁CaseInsensitive
▁Component
▁NAME
Transaction
▁range
▁serverLog
▁TEXT
▁Project
Template
▁async
OutputStream
▁EMPTY
▁indent
▁push
▁getAdapter
▁DetailNode
Str
PER
▁dev
Registry
▁writeElement
▁containsString
▁D
y
▁available
▁monitor
Writer
▁trigger
▁switch
▁items
▁Cache
▁getFile
▁ORDER
▁owner
▁layout
▁setResponseData
▁Material
Methods
▁patternVar
Adapter
TIME
▁grid
Channel
▁executor
Loader
TO
Profile
▁temp
▁editor
▁order
▁var
▁operator
▁Concept
▁collection
▁809
▁getP
▁ClassLoader
LENGTH
▁Concurrent
▁queue
JobExecutor
ToProcessAllJobs
▁nextInt
id
▁Text
Bytes
Plugin
REQUEST
Entity
▁counter
▁Server
ClassLoader
Hash
▁256
ConceptProperty
▁empty
▁expectMessage
▁Query
Files
ArrayEquals
EditorBuilder
Ignore
▁enumQuery
▁getSub
N
▁destination
▁Longs
Width
▁O
▁rs
RequestHeader
▁getContent
▁expect
AsStream
▁document
▁commons
▁INFO
▁getCheckMessage
▁cmd
▁username
▁report
cellMenu
▁getField
Dialog
▁tableName
Keys
▁checkReleaesd
▁dataSource
Encoding
▁any
HashMap
Point
▁send
▁backend
Attributes
▁Document
▁make
▁getByte
▁Meter
▁fname
E
▁enumHeader
▁drawable
▁AuditEvent
▁entrySet
Order
▁assertions
▁Serializable
X
Mapping
▁compare
▁12
▁getUser
▁construct
▁errors
▁stringValue
▁FALSE
▁Build
JSON
▁prev
▁driver
▁desc
▁accept
▁getRawResponse
MAP
▁Edge
▁addAttribute
▁re
▁isInstanceOf
▁Range
▁getCause
er
▁Error
OrPattern
utatationRequest
▁B
▁getNamespace
▁DateTime
Interface
▁Language
▁lastIndexOf
Timestamp
alias
By
Height
izedMessage
Constraint
▁transfer
▁edge
▁aFormat
LOGGER
▁logError
▁SIZE
▁getClassName
▁F
Receiver
▁expr
▁getParameter
▁mapping
▁addError
BuilderFactory
▁ref
▁reference
Queue
▁springframework
▁getAncestor
▁do
▁Modification
▁isAssignable
▁Tag
MODE
Holder
Generator
▁distance
M
▁Index
Document
▁isPresent
▁common
▁font
▁Point
Constructor
▁defaultLocale
▁300
▁seen
▁LoggerFactory
▁Data
▁Mockito
▁TypeQualifier
▁helper
▁getLast
▁APPLICATION
▁function
Update
▁Environment
Line
▁op
▁join
▁registry
EVENT
▁ignore
▁getCOSObject
▁MSG
DataSource
▁MODEL
▁64
InputStream
▁getLong
▁region
▁petId
▁include
OF
▁aText
▁FileNot
▁now
▁MediaType
▁Service
Override
Folder
▁STRING
▁Key
Frame
▁Pet
▁transform
▁encode
▁getProject
Output
▁myClassMock
User
▁holder
▁Subscription
▁areEqual
key
▁arr
▁top
▁ElementHandler
ImageParams
▁password
▁MIN
▁Channel
▁as
API
▁TRUE
FORMAT
▁LogFactory
▁merge
▁State
▁google
▁endpoint
Image
▁stmt
▁number
▁collect
Namespace
▁Shorts
Sentence
▁translate
Entries
▁getMethod
▁word
▁loader
▁ws
▁15
XML
▁getAll
▁commit
▁delegate
▁Get
Get
▁junit
Snapshot
▁scale
▁processor
▁calculate
▁Execution
▁TreeMap
R
▁Short
▁ImmutableList
▁getContext
▁Composite
▁classes
▁link
Port
▁Event
Color
▁
▁SConcept
▁getAddress
Language
▁14
▁proxy
COUNT
Preference
Engine
V
▁remaining
▁should
▁serial
▁bean
▁Lock
On
Annotations
▁getRequest
▁tools
Counter
▁25
Cell
▁clone
▁J
WebUpgrade
▁OBJECT
Of
▁Session
▁screen
ScreenImpl
▁category
Extension
▁Expression
▁AL
ORGANIZATION
concept
▁andReturn
▁Version
ListHandler
Root
▁PersistedModel
▁forName
▁comment
▁Future
▁Module
▁decode
▁Annotation
▁U
▁continue
▁printil
▁toUpperCase
▁usage
▁isStatic
▁assertNotNull
Registration
▁NONE
▁namespace
Callback
▁arrayArrayOf
▁change
▁shell
Layout
▁headers
ActiongGraph
▁nodeToCheck
Link
T
ENABLED
▁getElementRole
Tree
▁Http
▁5000
▁tokenizers
Page
▁duration
SOURCE
▁DBSEntity
▁main
Transport
Interval
▁cncpt
▁types
▁role
▁PARTIAL
▁original
▁getMax
▁rows
▁interval
▁Array
All
Ref
▁getToken
GROUP
▁classLoader
▁getSize
▁mode
▁getUrl
Project
▁remote
ru
CONFIG
▁WS
MESSAGE
▁setName
▁allow
Module
Meta
End
Messages
P
▁boost
▁checkArgument
▁throwable
lhs
▁IMAGE
▁latch
▁actionRequest
▁os
▁DRLLexer
PATTERN
▁SNodePointer
▁application
▁memory
▁400
Barrier
H
oucePoolGetAll
o
PointCreater
▁loc
MetaData
URI
▁XMethod
khm
▁Block
▁selected
▁getObject
▁Stream
▁24
▁SModelUtil
Common
▁getClassLoader
▁transaction
▁initial
▁projectDir
▁thrown
▁attr
▁getComponent
▁StringUtil
▁getCount
▁listeners
Sequence
▁cfg
▁lookup
INT
▁kind
▁checkConfig
▁tasks
▁setId
▁level
▁permission
▁AnnotationValue
Instruction
▁mAllow
QueryParam
Consumer
▁adapter
Connector
▁lambda
▁Servlet
▁chars
▁cls
ProjectDir
▁Repository
▁getHeader
▁M
▁portlet
▁Application
MS
▁Image
Proxy
Read
▁FILE
▁Plugin
ingContext
ThreadPool
▁CONTENT
▁GET
Member
▁isDirectory
Local
▁getConnection
HttpServer
▁variable
Policy
▁OAuth
I
▁getFirst
▁TEST
tingSettings
Call
▁Pipeline
Interceptor
▁Create
▁getEdgeProps
Input
▁priority
▁active
▁printStackTrace
▁valid
▁Publisher
Control
▁aIgnore
▁RBFNetwork
▁seed
▁transient
▁notNull
Renderer
▁onError
DATA
▁aLine
▁acquire
Filename
Endpoint
▁generator
▁Generic
Panel
METHOD
▁utils
FileName
▁window
▁calendar
▁errorMessage
▁shutdown
▁cur
▁0.5
▁Uncollected
▁manager
▁enum
RuleEqualsNull
Generated
image
▁ClassNode
get
▁segment
▁NULL
▁not
▁WarningProperty
▁DateUtils
▁Group
▁stop
CLIENT
ING
Variables
Bean
▁returnType
▁SAbstract
▁Time
▁WIKI
▁world
▁measure
▁setAllow
Elements
▁aAllow
▁SecurityContext
▁help
▁Stack
▁getHeight
Children
Limit
Scope
▁PipelineConfig
At
▁getPort
Host
Controller
▁hashMap
▁round
es
ff
▁userId
▁en
w
▁View
▁custom
Range
Access
▁folder
▁ClassName
▁previous
▁peer
VersionUID
▁parts
▁Properties
DIR
▁wrap
▁toByteArray
ErrorMessage
▁methods
Visitor
▁HttpServlet
Logger
▁securityContext
▁hostname
Columns
▁users
▁style
Actions
Nodes
▁sort
Exchange
▁ids
▁answer
PathSanitizer
▁resources
▁connect
Feature
Distance
Listeners
Stack
Not
▁Constant
▁Template
Results
▁reason
Uri
▁setHeader
▁aParent
▁subscribe
▁getVersion
▁RESULT
▁Comparator
▁progress
▁native
RULE
Changed
CellModel
▁invocation
Permission
▁ok
▁SQLException
value
DEBUG
Definitions
Or
▁configure
Partition
SubstituteAction
▁menu
▁fill
▁CharSequence
Job
▁ROOT
▁release
Collector
Int
▁apiKey
Operator
▁newLine
▁candidate
▁part
▁skip
▁Dimension
ceaf
Y
▁found
AsString
▁signature
▁jdk
▁getWidth
▁xml
▁admin
▁doubleValue
▁selection
▁addAction
Process
▁stats
▁Actual
new
ProcessorEx
▁getSource
▁resolver
▁suffix
▁Font
▁orPattern
ToString
▁getCode
▁Icon
▁subject
▁enable
▁offsets
▁LocaleException
Where
▁getNext
▁READ
▁Mono
▁childConcept
▁Dependency
▁html
▁processInstance
▁term
Param
▁tok
▁Database
Log
▁control
▁constructor
▁catalogService
PROPERTY
Binding
▁JMeterUtils
▁getGroupId
Resources
O
▁Completable
▁ning
▁HTTP
▁descriptor
▁elements
▁fragment
▁Checkstyle
role
▁Search
▁Internal
▁AbstractConcept
▁LITERAL
▁Namespace
▁Size
▁Util
Arguments
Services
▁Common
▁_2_
▁persistence
▁NORMAL
▁getLineNumber
▁icon
▁impl
▁spec
▁ClassNot
▁returns
INTERVAL
ChangeProperty
▁mustApplyTo
▁getLabel
▁getProp
▁Option
▁addr
uclideanDistance
TABLE
▁qpm
▁ModelNode
▁socket
▁SAXException
Async
Password
▁TestTools
▁abs
▁getFullCatalog
▁KeyedState
▁matrix
Internal
Step
▁self
TYPES
Long
▁simple
▁dataLength
▁Callable
▁errorMsg
▁Content
▁that
▁JComboBox
▁head
bc
▁BitSet
Role
disposeBlock
▁complete
▁INVALID
BYTES
▁php
▁fieldName
ExecutorService
▁IN
▁cleanup
▁getTargets
al
Change
Enum
Json
▁deflt
▁dynamic
Subscription
▁skipPunc
▁returnStatement
▁MILLIS
ersistedModel
Selection
▁Connection
Script
▁AccessResult
▁EOL
▁no
▁sourceNode
▁getIndex
▁getC
▁Operator
▁comparator
▁web
▁getS
▁aRootAST
▁script
▁Position
▁bug
▁extract
▁Id
▁6000
Pos
▁CacheModel
Word
▁Bytes
ObjectType
▁compiler
▁variables
Pool
▁pop
▁DataSource
▁Predicate
▁mIgnore
Checker
SQL
▁2000
▁regex
Threshold
▁rep
▁Column
▁Sets
▁Byte
▁assertNull
Metrics
▁rest
▁AST
Overlay
▁ioe
▁getColumnNo
▁fileId
▁getScope
TEST
Indent
▁acknowled
▁encoding
▁times
twfax
Xml
▁aNode
ParseException
FieldName
▁where
▁until
ConceptInList
▁chain
identifier
▁jobName
▁getModule
ONE
▁DefaultClass
▁ThreadLocal
▁DBSObject
▁flags
▁form
Graph
▁exec
m
▁visitor
▁global
Lock
▁getStackTrace
▁hadoop
▁bundle
▁ErrorCode
Lines
RESOURCE
▁setMax
▁wait
▁doTest
▁Light
▁Serializer
Formatter
▁analyzer
▁payload
▁entries
TestCase
Activity
▁setAll
▁Statement
Constraints
▁raw
▁serializer
u
Exceptions
DEF
▁qName
ResultRecieved
▁intellij
▁ds
▁mt
SECONDS
▁682375462378
▁yacyCore
▁logInfo
▁getLanguage
▁TAG
Row
▁topic
▁ClassHelper
▁AnalyzingS
uggester
▁calc
▁engine
set
▁JDBCUtils
▁aAnnotation
list
REGEX
▁aValue
Items
Space
▁consumer
▁sample
▁Parameter
▁addSubsciption
▁APP
▁deletePet
▁isIn
▁success
▁BufferedImage
Analysis
▁ROLE
▁setColor
LibraryBuilder
DefaultValue
EXCEPTION
▁ID
▁mask
Dispatcher
▁11
▁off
▁formatter
▁can
▁getComp
linkDeclaration
▁existing
▁DefaultJava
fh
▁NullPointer
DESC
mentGroupTime
Spec
Dataset
▁StringBundler
▁Local
Package
Stats
ViewModel
▁STANFORD
Argument
▁Entity
▁SQL
▁domain
▁SERVICE
query
▁span
▁BOOLEAN
▁Enumeration
▁OUTPUT
IteratorState
▁pre
Boolean
or
▁INode
▁NoViableAlt
▁1005
▁forEach
▁Paths
▁prefs
xb
▁Executor
OpenTag
Kind
▁un
Matcher
▁AttributeMap
ManagerAdapter
Is
▁resp
Body
▁trans
▁Row
▁SCOPE
▁TypeUtils
QueriesGenerated
▁RIGHT
▁VertexType
▁contentType
▁899
▁Hazelcast
xff
ARRAY
aL
▁ODocument
io
▁cl
▁actions
▁reset
▁getDebug
▁predicate
▁setMessage
▁propertyName
▁typeSettings
▁modifiers
▁thrift
▁getSelected
▁asString
▁testProject
▁IdentityHashMap
▁getReference
▁Remove
▁13
▁slice
▁ps
▁quote
▁second
▁fieldType
▁flink
▁ByteArray
▁getParentId
WhileNotNull
Ast
▁dialog
▁#
▁iterable
CACHE
▁getFull
▁sanitizer
▁condition
▁hours
▁setIgnore
Unit
Un
▁dim
▁currentThread
▁G
▁Processor
ON
▁escape
▁ORACLE
▁ImmutableSet
▁8080
Desc
▁GraphQL
▁pkg
Processors
Num
Millis
izedObject
▁capacity
AndMethod
▁getMessages
▁export
U
Algorithm
▁neighbors
DB
▁3000
▁isSubtype
▁getQuery
icon
▁auto
INDEX
weightThread
▁18
▁conn
▁getRoot
▁APIException
▁encodeNested
PathVariable
type
▁getLine
▁newHashSet
▁getImage
Objects
▁JobInstance
Available
▁UIUtils
▁Constructor
▁disabled
▁PsiElement
▁Add
▁myProject
NODE
▁85
▁Driver
▁Page
▁Names
Segment
▁Datum
▁getNextSibling
▁31
▁booleanValue
Information
▁getUn
▁HttpMultiMap
▁delta
▁Animal
▁full
CloseTag
▁Env
▁Binder
▁getDescription
▁getExternal
Match
Threads
Cluster
AST
▁framework
▁createNew
▁CrypticClue
QueryFunction
▁addClass
▁testEnum
▁enumQueryString
▁enumQueryDouble
▁enumForm
▁enumFormString
▁Cluster
▁Ignite
▁systemErr
▁be
▁LAST
▁getPattern
▁connector
▁getRepository
▁done
Errors
▁addElement
Sub
▁CHECK
▁pool
Child
Servlet
FILTER
▁lowResults
▁US
▁getFileName
Delete
▁Record
Z
UriParam
▁yacySeed
▁batch
▁NOT
▁hazelcast
▁MenuItem
Icon
▁checkpoint
▁getContain
G
text
▁getService
BUFFER
▁dest
Before
method
position
▁Lists
▁getTableName
▁aColumn
▁replacement
▁DBDAttribute
▁getAllEdges
CommandLine
▁force
▁getBinArtifact
liferayVersion
▁setString
▁getTag
ITEM
Protocol
FAILURE
Non
Category
▁con
▁UTF
CONTENT
▁filters
Mapper
▁getAnnotation
▁printf
▁Timeout
▁deployAndReturn
▁controller
▁LEFT
ActionsFactory
▁sequence
▁StringPool
▁isDebugEnabled
▁eventName
Mappings
▁newBuilder
▁myReader
▁hbase
ers
Literal
▁Not
COLUMN
▁fn
▁Handler
▁Process
▁getLocation
▁NAMING
▁isValid
UPDATE
No
Amount
▁extension
▁openapi
▁member
▁USE
▁hostName
▁toSortedString
▁thread
annotations
Connections
▁Classifier
▁HttpResponse
▁checkState
MimeType
Build
▁BufferedReader
▁alpha
▁indices
▁getSession
▁urls
Import
▁getGenerator
▁ExecutorService
Supplier
▁shape
▁updated
RequestMapping
▁RequestMethod
▁Settings
▁Instance
▁Instruction
First
▁aFlag
▁refactor
Revision
▁autoCommit
▁sync
CODEC
▁Diagnostic
ALL
▁timer
As
Localization
osedMessage
▁MODIFIERS
▁setting
▁kalessil
▁phpStorm
InspectionsEA
▁JCheckBox
▁radius
▁toURL
mentLink
▁ServiceWrapper
▁mContext
▁SolrException
▁setAttribute
▁JOptionPane
Commands
▁arrayNumber
USER
▁STATUS
AD
▁^
▁arraycopy
ASC
Char
Statuses
▁findPetsBy
▁constant
Priority
▁60000
▁strategy
Deployment
▁ip
▁SimpleAttribute
section
▁delay
▁createError
▁userAgent
▁MockUnit
▁allocate
ParameterMap
▁getDatabase
Initialization
▁net
▁step
▁isNull
After
▁FSTClazzInfo
▁lineNo
▁DFS
▁millis
▁columnName
Max
▁ScopeUtils
Form
HeaderParam
▁aLineNo
▁Validation
ConditionalOn
▁getPropDefault
▁collector
Persistence
ENTRY
Specification
Validator
▁JComponent
▁getFloat
▁dist
▁ins
Expected
▁PROP
▁getError
Left
▁RULE
▁mRule
TypesOffset
typingManager
ResourceParams
Def
MessageAsGroup
Props
▁NkRect
Font
▁artifact
▁par
▁packet
▁OutputStream
▁ActionListener
▁additional
ConstantOperand
Catalog
on
▁lineNumber
▁depth
Args
▁button
▁Job
▁contents
▁ctxt
▁Dataflow
provider
PAREN
▁filePath
▁generated
▁JavaClass
▁AtomicInteger
▁setSelected
▁getResources
▁filtered
▁128
▁QueryOptions
W
▁flush
Transformer
ResultSet
UNKNOWN
▁mse
▁TextBlock
▁COSArray
▁CLIENT
chunk
▁JobSnapshot
▁localLast
▁Condition
▁255
▁AnalyzedToken
▁mOptions
▁Oracle
▁MethodType
▁beginTree
▁getVersionNum
▁timeStamps
BufferSize
DIRECTORY
▁SC
▁exclude
▁getMap
▁asset
▁NODE
▁structure
Search
▁one
Selector
▁getResult
▁FullIdent
EscapeUtils
▁insightfullogic
▁exercises
▁chapter
▁tokenVal
▁Files
▁MISSING
▁lib
sTo
▁dbResult
▁Authentication
▁classContext
▁analysis
▁SYBASE
▁dialect
IndexOutOfBounds
▁RS
▁PMD
▁concat
▁schedule
▁BaseLanguage
▁patterns
▁Grid
▁SubstituteInfo
▁RefNodeList
▁instantiate
▁setType
Dependency
SearchScope
Write
Memory
▁fullyQualified
▁createMock
▁policy
▁isTrue
HOST
▁route
▁HIVE
▁bugReporter
▁getM
Failure
IS
PathParam
SQUARE
▁OneRun
▁80
▁disambiguation
initBlock
▁disable
Rules
typeSettings
swagger
Mock
▁highResults
▁JSON
Applicable
▁or
▁master
NULL
▁arrayArray
Comment
▁Splitter
Static
RESULT
POINT
▁HEADER
description
▁protobuf
field
▁Enum
CSV
ation
javax
annotation
Capacity
▁ALL
▁LoggerManage
Repositories
▁ObjectType
▁aMessage
▁scanner
▁myFixture
▁ObjectName
▁OrientGraph
▁Mock
Finder
▁gradient
▁Sql
Vector
AND
▁auth
Models
▁getSNode
generate
▁exp
▁STATE
ad
▁versionNames
Details
▁sonarqube
GreaterThan
▁MessageFormat
▁ON
▁By
ClientBuilder
▁console
▁setRole
Presentation
▁FIELD
▁iw
createBlock
▁Layout
▁portletId
▁handlers
▁iRecord
▁LA
Contents
▁sc
▁aType
▁22
▁objects
▁transformation
▁CUBRID
▁SQLSERVER
GenerationBlock
▁getY
BEHAVIOR
cfoj
▁getPresentable
▁Counter
JComponent
CONTEXT
▁cached
▁ENGLISH
▁suggested
▁catalog
▁failure
▁ident
▁Assume
▁schemaName
▁inputStream
▁SEVERE
▁actionPerformed
Allowed
SEPARATOR
▁mapProperty
▁aLines
▁PriorityQueue
▁sessionId
▁getNum
ApiResponse
▁ui
▁sum
▁serialize
Produces
▁getRemote
Groups
▁charset
▁optional
One
▁LT
▁Tuple
▁ElementType
MIN
BindView
▁0.1
Progress
LIST
Score
Empty
▁WhiteBlackList
▁getStyleClass
▁CACHE
▁system
Library
▁AppStrings
▁def
▁NUM
▁metrics
Artifact
▁getServer
J
cfu
▁getTestConfig
Setter
ea
▁collections
InequationStrong
TARGET
▁display
SET
LineAnnotation
size
Title
▁AnalysisContext
Expr
▁UUID
cL
▁17
▁emptyList
Tokens
▁cc
▁FuzzySuggester
▁ModelReader
▁labels
▁elementType
▁NVGColor
test
▁mapMapOfString
▁getActive
▁FileUtils
▁SOURCE
▁replay
▁Portlet
▁Permissions
ar
iationStrategy
▁player
DAY
▁seconds
▁getChildConcept
▁getPrefix
▁commandLine
▁W
▁material
▁mockDeployment
Case
Signature
▁attrs
▁ext
▁DOM
▁INDEX
▁getLeft
▁getNodes
TextData
generic
map
▁incrementAndGet
▁FutureUtil
AndGet
r
▁aChild
CallContext
▁19
▁setDescription
▁centers
Serialize
CODE
▁PrestoException
Translation
RuleAssertNull
▁Parser
MenuItem
▁widget
▁numberOf
▁aComment
▁bs
▁DBNDatabaseNode
▁tool
PROP
▁mText
▁icCommon
▁Alert
▁Socket
▁expectedRetType
▁DetectorFactory
▁evaluate
▁getX
Compilation
▁DBEPersist
▁expectedResults
Representation
▁toHexString
▁BaseMessages
▁requireNonNull
▁JavadocParser
▁CR
▁bcp
▁feature
▁device
▁attributeName
Depth
▁ENumber
▁logPrefix
▁delimiter
Pointer
▁Coin
MemoryError
▁getPosition
▁kernel
▁sendBody
▁peek
Open
MessageHandler
▁visible
▁getClientId
▁companyId
▁HttpServer
▁Conversion
Resolution
LOG
Headers
statement
ATTRIBUTE
▁cube
▁debugf
Admin
▁startOffset
▁pl
▁isSelected
▁NkVec
▁Single
Api
dir
▁JstTestUtil
▁floatValue
Predicate
▁addListener
Setting
THREAD
▁pair
▁isFinal
▁hiddenLayerSize
▁android
▁getFields
▁HttpClient
▁rsp
Fragment
Doc
SessionId
▁DATE
Weight
▁argsIncluding
▁getIn
▁CheckResult
▁reg
Display
CLOSE
START
▁26
▁ICON
▁inner
▁40
▁fieldIn
▁principal
▁cursor
▁account
▁txt
FOLLOWED
NUMBER
LOAD
ContentType
▁intention
▁getCanonical
▁REPOSITORY
ObjectName
▁Target
Multi
▁Factory
▁testGet
ized
quotation
▁cv
▁newClient
▁authority
▁JSONObject
TreeNode
▁HSQLDB
▁getShort
▁initialize
constraint
ated
▁getState
DataType
System
▁compute
k
▁tx
▁matched
▁Platform
▁tests
▁endProcessing
▁getRow
▁Import
▁ActionEvent
Only
▁consume
ize
▁reportBug
▁ImmutableMap
▁security
▁converter
▁mMax
▁single
▁cells
▁arrayOfString
NonNull
▁ISO
▁STRUCT
▁locked
Register
▁setDefaultValue
Destination
▁DBNNode
Tasks
ClassPath
▁adaptor
▁library
▁aFile
▁real
fd
▁UNKNOWN
▁getTable
▁writeString
WIDTH
▁CommonUtils
▁supertype
ModelDescriptor
▁LogType
Notification
Delegate
▁GaussianProcess
Regression
▁binding
▁codec
Driver
▁cr
▁objectName
▁management
Cursor
▁PrintWriter
ExceptionCount
▁expectNew
▁shortName
▁Metric
▁Null
▁bufferSize
NO
▁getStatus
▁getHost
▁Cookie
JsonProperty
sWith
▁st
▁34
▁COSName
WsParameters
▁dp
ENCODING
▁si
FROM
▁runSnapshot
▁getProperties
When
▁anyString
▁missing
▁cycle
Matches
▁sp
▁PROCESS
DEFINITION
▁instanceType
▁getBaseURL
▁ns
▁suggester
Tags
filteredStream
▁nested
▁illegal
▁mod
createNode
▁gui
▁defaults
▁Frame
▁DateTimeZone
SERVER
▁canEqual
executeFunction
THRESHOLD
▁bucket
▁pugh
▁visitclass
▁startTime
▁Chunk
▁dateFormat
▁weight
▁inv
▁ByteBuf
StyleSheet
▁getID
Deserializer
▁setToolTipText
▁removeChannel
▁typeName
▁APPLICATON
Invocation
▁CONNECTION
▁jooby
▁tr
rule
▁runIfNotDone
▁Catalog
caption
▁SSLContext
SPACE
Detector
▁Buffer
▁aEvent
▁queryResult
▁tested
matchingText
▁RT
▁atLeast
▁DISALLOWED
Failed
INTERCEPT
▁cookie
ByteBuffer
isygg
▁md
Transfer
▁METHOD
▁oldValue
▁OrderBy
▁getResponse
▁Select
▁mapOfMap
▁USER
▁IndentLevel
▁payloads
▁setS
▁setTarget
▁OLogManager
Chain
Multiple
Storage
Record
▁binary
Box
▁bind
▁toList
emptyCaption
▁PoshiRunner
bde
baL
▁ReadOnlyFirst
▁IS
▁al
▁FileInputStream
▁storage
▁setup
Runner
Validation
▁httpclient
▁diff
TypeAdapter
it
▁aIndentCheck
▁BugAnnotation
Val
▁refresh
InProgress
▁checker
▁kelondroDyn
▁setParam
Complete
PropertyAs
▁getChannel
Separator
▁Network
▁conversion
▁55
▁ORecord
▁realm
NON
CHECK
▁BigInteger
TimeoutMs
▁Sortables
▁newArrayList
▁Queue
▁Mutable
▁issue
Paths
Out
▁constraints
▁sampler
Members
Byte
▁inspect
▁Inspect
▁myNode
▁locator
Region
▁normalized
▁systemOut
▁LinearSearch
▁registered
PackageName
▁Descriptor
▁access
▁ssl
Descriptors
▁cmt
▁pack
▁'
▁Exchange
▁Workflow
▁getColumn
▁attachment
ic
▁comp
LinkLocalService
▁MetaIdFactory
▁INDArray
index
Configurations
▁cb
Null
▁Tree
Phase
BATCH
▁je
▁NumberExpander
▁CREATE
▁indexWriter
▁fetch
Between
Obj
▁arrayEnum
▁getItem
▁getTitle
Remediation
▁EmoteClue
▁AbstractCell
▁refs
▁cp
▁REGEXP
LEVEL
▁ModelType
▁TABLE
▁mMessage
▁DateFormat
▁Basic
Exists
Equals
▁META
▁parentNode
▁toMillis
▁getFunction
▁getSearch
IfDisconnectd
ProgressMonitor
▁IDENT
▁CASE
▁commands
group
▁jsonObject
OR
▁aPattern
▁mAllowed
▁getSystem
▁GraphTargetItem
▁ATTR
Parent
ById
Browser
▁hasOption
▁logBasic
Codec
HTTP
parser
▁getBean
▁FROM
▁setStatus
▁capabilites
▁addValue
▁scan
▁ct
▁addOption
▁modelDescriptor
Duration
NEW
▁90
▁ix
▁floatingLabel
Report
MILLIS
STATUS
▁getCache
▁getLength
ByName
New
▁Flux
▁httpHeader
▁PKG
▁BAD
▁mv
▁workingMemory
▁lo
▁Charset
Processing
▁errorNode
Without
▁isLocal
VariableDef
▁Logging
▁components
QueryContext
▁getSettings
parameter
▁EventHandler
Stub
▁XMLWriter
▁mapOfEnumString
▁getControl
▁aObject
▁parsed
Summary
Vertical
▁paths
▁Access
▁selector
parms
▁SortedSet
▁getPartition
▁CSVMessage
BodyWriter
▁broker
TEXT
Reason
▁getEnvironment
Home
▁mergeHttpServer
LIMIT
▁Timer
▁indirectMap
▁worker
Window
▁getLastChild
▁firstNonNull
▁emptySet
▁instruction
▁del
▁Twitter
▁normalize
dc
▁ODatabase
▁closed
Volatile
▁baos
▁leaveToken
▁chunk
▁parallel
▁NameUtil
▁KettleException
▁getDescriptor
▁HttpConstants
FOR
▁20000
Advice
▁inline
▁HeapSelect
▁constraint
▁eval
▁docBase
▁FIREFOX
Comparable
▁instanceOf
▁SeverityLevel
▁getGroup
▁frameHandler
▁Morfologik
▁ErrorDialog
FOUND
▁shouldHave
TreeItem
▁roles
▁opcode
Alias
Packet
RegistryService
▁activity
▁icRoot
▁addRule
▁assetManager
▁logFine
▁Streamlet
max
Runnable
▁hits
▁BaseModel
▁VT
▁ViewHolder
▁Persistence
▁Nd
▁IModule
PACKAGE
▁sink
Tool
▁BuildRule
▁article
▁Terminal
▁Example
FailedException
Ex
▁download
Seconds
Initializer
▁PullParams
▁addChild
▁getRecord
▁WebSettings
▁ArrayEnumEnum
▁parseBoolean
CollectionType
▁tabs
▁struct
▁visitVarInsn
▁rightTransform
▁getB
▁aggregation
▁getTrans
ref
▁WRAP
GroupName
▁annotations
▁Protocol
▁tab
buffer
with
▁es
▁deserialize
Vertex
▁DOUBLE
IO
▁finish
▁allowJavaSerial
Patterns
Broadcast
▁Hash
ER
INSENSITIVE
▁expectation
▁sourceEdge
▁getChild
▁locations
▁VisitHandler
▁VISIT
HANDLERS
Rows
Env
▁FastStack
▁1030
▁PdfName
▁testStep
FINDER
▁contentLength
ONLY
▁javascript
Last
▁none
▁getL
▁checkAccess
▁alert
▁me
▁assertSame
▁verifyWarns
▁Segment
▁setTypeSettings
▁transferStep
▁osmandSettings
▁layer
▁concurrent
Matching
Languages
▁classpath
HOME
▁soot
▁isNotEmpty
Auth
▁sonar
▁ControllerId
▁ButtonState
ator
▁themeDisplay
▁saved
▁InnerEnum
▁addWord
Single
▁getColor
Close
▁UISupport
▁func
▁VirtualFile
▁separatorChar
▁Input
MISSING
▁initialValue
▁FoldFunction
LargeInputs
Dto
▁fmt
▁getAsBoolean
▁broadcaster
▁Button
▁isPrivate
▁No
▁ConstantNode
▁setMinimum
▁getDataSource
Material
Strings
▁Wait
▁fallback
▁BaseAdapter
▁Table
▁exit
Locations
▁Transactional
▁addHeader
ly
▁ResourceBundle
▁alt
▁EntityManager
Create
▁findChild
Alternation
Credentials
Site
▁JAVADOC
▁describe
Pipeline
Flags
▁renderer
▁SNLSH
▁findConcept
▁getItems
z
Warning
▁toFile
▁Headers
▁getSelection
▁baseModel
▁Consumer
ca
data
▁conceptId
▁getOffset
▁BasePersistence
▁Package
▁getIdentifier
▁getIcon
▁userName
▁the
OUT
Records
▁attach
▁jobMeta
▁Invocation
▁ModelAccess
▁textPaint
▁newColumn
▁JavadocUtils
Decoder
Monitor
▁setReturnValues
▁UserService
▁drools
SANITIZER
▁transMeta
▁compilation
▁getContainer
Constructors
BlockingQueue
▁getModifiers
SSL
IllegalArgument
▁wrapper
▁My
Providers
Directories
▁Flowable
Observer
▁getAnalyzed
▁dependencies
▁removed
▁flow
▁resultSet
▁gl
lf
▁FSTFieldInfo
Events
Flush
▁unmodifiable
ChildLevel
▁replayAll
FIELD
▁occurence
▁Async
Double
Span
SERVICE
▁standard
DATE
▁JScrollPane
Prop
▁matchIfMissing
de
en
▁cn
▁Mode
▁thisObj
▁FileContents
CheckBox
Specific
▁Metadata
▁concurrency
▁aquire
▁MESSAGE
t
▁slot
▁columnFamily
▁absent
HEADER
Pair
▁setReference
▁ZERO
▁aFileName
▁PUBLIC
▁stageNames
▁Window
▁Discarding
OutputCollector
▁currentNode
▁Analysis
SocketAddress
Init
focusPolicy
▁HIGH
▁commited
▁pipe
▁Editor
▁reportError
SESSION
▁fqn
UP
▁MutableList
▁UP
▁ping
of
▁GaussianKernel
SetPresence
▁getMethodName
TP
Right
▁WARN
▁orderBy
▁numTextures
TableName
▁side
HTML
▁destroy
iv
▁subList
▁newState
▁IO
▁isDefault
▁dependency
▁cancel
▁DOWN
▁givetype
▁Expectation
Facet
▁getDisplayName
UnsafeSupplier
ADD
CONNECTOR
▁preloadTime
▁checkpointId
▁units
RIGHT
▁ACTION
▁directMap
Logging
Plan
Structure
▁overlay
▁Db
ingException
Repostories
synpred
▁deployment
Proto
▁AUTO
▁MapCache
▁details
Closure
▁identity
▁ordinal
▁getBundle
OnMethodExit
▁cf
▁Measure
▁jobId
▁hasExt
▁CURRENT
▁containsOnly
▁validation
▁puppycrawl
▁checkstyle
▁strProblem
▁LineTo
ContentMapReader
Random
▁startPos
Comments
ICON
▁nextToken
EditorComponent
▁fb
Tests
RE
LinkDeclaration
Return
▁logDebug
▁bitmap
SpellerRule
▁JavadocTagInfo
iiuth
▁866
▁fileLockManager
▁cellpadding
expression
▁orig
▁fc
Namespaces
▁facebook
▁POST
▁getEnc
▁Maps
▁RE
▁Redisson
▁subtype
Add
NamePrefixes
▁ProjectRelease
ExecParams
VT
▁getZ
▁require
▁tables
▁httpClient
▁resourceName
▁maxFileSize
▁Body
▁setIcon
WINDOW
▁JAVA
▁Reader
▁drop
▁contact
▁plid
▁and
▁numberString
Endpoints
▁ES
▁getHeaders
▁CharacterHelper
▁pData
▁modifier
FIRST
▁expand
Edge
content
DESCRIPTION
▁createTempFile
▁REQUESTED
▁setClass
itveMap
BASE
▁NEW
▁2.0
▁ASSERTION
Widget
▁setImage
▁pid
▁843
▁transport
Dependents
▁ProcessInstance
▁MPSProject
▁getProtocol
Ratio
▁edgeValueOrNull
▁unique
▁rate
Fixed
▁addComponent
PropertyName
▁getTimestamp
▁ST
▁amount
▁DBException
▁elementCell
Texture
▁events
▁correct
▁cols
▁Reference
Direction
Tab
▁addSort
▁SortBuilders
▁invalid
▁trainx
▁trainy
▁vm
▁fr
▁identifier
NAMES
▁flag
Area
▁KettleStep
▁setForward
Plugins
TableSchema
▁mappings
Statements
▁site
▁bitext
▁withDescription
gb
InnerClass
▁setTime
▁sorted
▁snippet
ServletRequest
SELECTOR
RETURN
▁WRITE
▁varX
SYSTEM
▁comparison
▁MAP
Completion
▁googlecode
▁lanterna
Subscriber
▁notes
ABLE
▁getDeclaration
ations
▁createNewNode
▁box
▁maven
▁javadoc
▁IClassifiers
▁getRight
OUTPUT
END
▁scheduler
ExclusiveLock
▁BlockCapsule
▁dataContext
▁Hex
▁ImmutableBiMap
▁executeQuery
▁HttpStatus
Top
▁Collector
Expressions
▁addServlet
MacroContext
▁referrer
HashCode
▁elasticsearch
▁stage
▁Shared
BYTE
▁setEnabled
▁severity
▁SVM
▁broadcast
▁FileReader
▁servlet
▁Apps
action
ExportMode
▁createCache
▁initialized
▁Activity
▁getUserId
▁getCore
MaterialConfig
at
▁setSummary
os
▁LogRecord
▁retry
▁toCacheModel
▁Variables
Identifiers
▁BUTTON
▁ConcurrentMap
Filters
WhiteBlackList
▁aTag
▁notify
Behaviour
Disabled
▁UnsafeSupplier
▁pr
▁getOptional
TenantContext
▁markup
▁isFalse
▁low
SystemProperty
TargetNode
df
▁classNode
▁move
file
▁support
▁Binary
▁XML
Infos
▁using
ent
▁deleted
▁cid
▁NoSuch
▁MQTT
▁submit
LITERAL
▁ranges
▁ResultSet
DataList
Lookup
▁CellFinders
SELECTABLE
▁heap
▁lst
▁uuid
▁MESSAGES
▁rect
▁COLUMN
▁jar
▁direct
Termination
IF
▁dimension
Http
Producer
Equation
Pending
▁parseLong
▁YES
▁interfaces
Generation
▁WriteConcern
▁Put
▁setTitle
▁getClient
StateBackend
▁intent
Queries
MB
DataFile
▁se
Maps
SharedLock
▁edges
▁AtomicBoolean
ThreadLocal
▁Mapper
▁mCurrent
Active
▁getAction
Violation
ManagerFactory
▁cpg
▁lazy
Stamp
▁models
Remote
▁foo
MASK
Present
xhv
▁KeyStore
▁Activation
▁already
History
▁artifactId
Components
▁singletonList
ny
▁StrBuilder
Missing
PRECEDED
▁edgeId
▁getDisplay
▁Security
▁tracer
▁isEnabled
TypeException
▁100000
▁dao
▁Instanc
▁browser
▁BASE
Period
▁charType
▁days
▁getG
▁configureQuery
vertical
▁loadClass
▁nextElement
▁keySerializer
▁getOperator
▁JS
ingClass
OPERATION
Keyword
▁criteriaType
▁CriteriaType
entry
▁OPEN
▁CxxPlatform
LAYOUT
▁authentication
▁written
CURLY
LEFT
▁AvailableLoad
ac
▁forID
▁Java
▁Linked
▁IProject
▁Symbol
XA
▁friendlyURL
▁em
▁messageRegExp
▁fp
If
▁increment
▁point
▁getCurrentAlt
▁getAsInt
ec
▁pi
▁TARGET
▁DBR
Resolved
Bottom
Short
▁isVisible
enabled
Transform
▁Memory
▁924
▁columnIndex
▁Closure
▁MARIONETTE
is
attribute
PROCESS
▁spoon
▁positional
▁timeline
▁imp
▁DefaultWeb
Symbols
▁HStoreFile
an
▁servletContext
Float
▁Static
▁modules
Transitions
▁Feature
▁JLanguageTool
Statistics
BufferBuilder
▁serviceName
widget
▁TableSchema
Use
Usage
▁showLabel
▁getDictionary
▁Step
▁ClassSize
FormatException
▁OPERA
▁UN
▁842
Scanner
Supported
Labels
▁pages
Socket
▁js
▁getSql
▁getDate
▁requested
cdqxf
▁JFXUtilities
▁history
▁maxSize
point
af
▁Observable
LONG
Topic
Declarations
▁Re
Discovery
iter
▁Executors
Aware
▁addContent
Split
▁notifyReply
▁mb
UUID
▁mySeed
▁FileSystem
▁mkdirs
▁referent
ization
▁AgentInstance
▁Trigger
▁inject
▁Configurable
▁compress
▁Redis
ce
▁LAR
ValueException
▁FutureUtils
ch
▁subEvtCollector
▁Selection
▁Logs
▁FileText
▁synthesis
▁MethodNode
number
▁GridPos
Indicator
Points
▁origin
▁dst
▁taskService
▁getBase
ED
MethodDescriptor
▁targetMethod
▁keyword
External
Classifier
▁fold
Sender
▁exceptions
▁getByteBuffer
▁42
Startup
▁setFont
▁LINE
Dictionary
▁groupGraphics
▁bottom
▁CLASS
iav
▁langTool
▁promise
ChunkSize
▁dc
Jar
Principal
DataListByStack
▁backports
MethodError
▁warnings
▁isDone
▁integer
fact
▁myModel
izedString
▁metric
▁getTotal
Required
▁network
▁reduce
▁pat
▁mid
Security
▁SystemException
▁numDocs
▁uid
▁runtimeService
Validators
▁mFilters
▁facade
▁serverCore
▁curr
ChangedListener
▁getArguments
▁platform
Second
Reporter
▁setItem
▁extra
▁scroll
▁Period
Locator
▁Web
▁ILLEGAL
▁DataSize
▁Generation
▁alias
FOLDER
Screen
▁DetectorOptions
▁only
Redirect
▁hilight
▁keyspace
▁aScope
ClassNames
▁section
▁Invoke
▁outer
▁descr
▁isValidOn
▁deref
▁parseResult
▁incompatible
▁nl
▁56
Chunk
▁angle
▁PDDocument
Functions
▁addSourceLine
▁CoverTree
▁findPetsByTags
▁mappers
COMMENT
Imports
QUERY
scope
▁at
▁fileEntry
Indentation
xc
eL
▁Library
TimelineEntry
MetricGroup
Load
▁xpath
▁assertContains
▁JavaFileObject
▁SSL
▁docker
▁debugTime
▁getDeclared
▁tail
▁external
▁sentence
▁twitter
▁bindView
▁ic
▁IGNORE
▁shard
▁getPage
Encoder
▁fixed
▁AgentStatPoint
▁Sub
Selected
▁img
config
▁DBUtils
▁media
▁NextEvent
OPTION
Copy
▁Name
HISTORY
▁IndexReader
▁ir
▁outputStream
▁BasicDBObject
▁getPublic
▁Writer
▁BUFFER
▁targetType
▁pullParams
▁120
to
▁ca
▁newCaseInsens
▁sitemap
▁poll
▁fireModel
Flow
▁FINE
▁definition
▁batchSize
▁BuildTarget
▁TestUtils
▁Main
variable
Interfaces
▁plan
▁PipeBase
TransclucentKey
itiveCachable
▁TestMain
▁loadProject
Matrix
▁getWorld
▁dbSession
▁ev
▁getOut
▁ColorUIResource
Scheduler
Hierarchy
Scroll
▁LONG
▁anchor
▁HMM
▁rowCount
Dependencies
▁30000
▁682375462379
BLOCK
▁between
▁kylinConfig
Vars
App
▁getConf
▁HunspellRule
▁cg
ingService
▁rbf
▁bcel
▁aArray
▁pending
▁clock
▁mult
▁getStart
▁IE
▁bag
▁getContentType
▁CellLayout
Users
Execute
▁hasLabel
▁javaClass
▁SIZEOF
▁STATIC
▁Start
Stop
▁smodel
▁LIST
▁sid
NamingStrategy
CheckConfig
Binary
▁firstOne
▁setMinimumSize
ApiOperation
▁LOCAL
▁dict
▁sessionHandle
ProviderConfig
ClassifiersScope
Recieved
▁proc
▁percent
▁setter
▁HttpUtil
▁AssetPublisher
AS
▁seedDB
▁Merge
▁setMaximum
▁fontName
fv
▁multi
Final
▁START
▁safeGetInt
Custom
▁TException
▁rootNode
▁logDetailed
▁addTo
PortletRequest
▁problem
▁JMenuItem
▁ALLOWED
▁track
▁TestEvent
AndPatch
▁TimeValue
▁author
Layer
▁inspectOutput
▁UNCOLLECTED
▁theme
mode
▁setSource
▁vector
RM
▁getF
INFO
ToCheck
▁addressHolder
QueryDebugger
ProperySource
▁ti
▁ByteOrder
▁showMessage
▁httpServer
fieldDeclaration
Re
▁bufferkb
▁getArgument
▁getAuth
▁determine
▁textLine
Solution
▁clusterhashes
▁Escape
▁opt
▁high
▁allowed
Factor
empty
▁functions
Descriptions
▁getHostAddress
▁wrapped
▁creator
▁parms
▁getEntity
▁addOperator
▁chineseSeg
▁Globals
▁configs
AR
▁mLine
CAPACITY
▁toURI
▁Scheduled
Zero
▁Lifecycle
▁getColumnName
▁FIRST
▁customer
▁legacy
FilePath
▁workflow
▁AnnotationEnum
▁Graph
▁getPrevious
NS
▁kie
▁getParentNode
ParentBaseModel
▁isS
▁primary
▁removeAll
▁ke
Macro
▁ancestor
Transition
▁remoteAddress
▁resonseHandler
▁getStyle
▁ItemStack
▁connections
▁fatal
ate
▁retrieve
Percent
▁GLOBAL
▁CrawlProfile
▁pw
▁getHits
▁activiti
import
▁flatMap
RESPONSE
▁Pokemon
▁copyOf
▁afterInvocation
▁graphics
▁lat
▁panel
▁CountDownLatch
▁errorCode
▁opts
WithDelay
▁nodeEngine
▁PROJECT
▁DISPLAY
ArgsConstructor
▁sourceFile
ib
RETRY
▁INT
▁received
▁Scene
▁book
▁getSuperclass
da
Started
▁allocator
▁safeFileName
Compiler
▁Revision
NameIfNone
▁kelondroMap
▁press
▁combo
▁pageSize
Res
▁Write
▁mw
▁FLAG
▁getCurrentToken
▁StyleAttributes
▁getRole
▁activation
▁ss
item
▁fieldReference
▁FULL
Hint
▁urlEntry
Conf
▁transformer
Serializable
▁forward
dump
▁convertTo
▁terrain
▁DeepLearning
▁TypeDescription
▁getCellContext
▁mean
▁getMin
StyleClassItem
▁fd
▁named
▁getSolr
▁preferences
Pre
▁Spring
▁printError
▁ro
Warnings
UI
▁pairs
HOUR
▁cal
▁Strings
Removed
▁KylinConfig
function
▁trust
▁CHEdge
▁SHORT
InfoCache
SEARCH
▁encodeURL
▁members
Next
returnsCorrect
▁supports
▁program
▁then
Fails
▁assign
Parts
▁shouldNot
DATASOURCE
▁closure
▁VAR
▁IFile
▁FieldAnnotation
▁tester
▁toBytes
▁getDelegate
▁Operation
▁Update
▁World
▁Multi
Created
INSTANCE
LE
Authorization
▁fillStyle
Unsupported
ACTION
▁getBlock
StrutsTag
▁PACKAGE
HASH
▁redirectUri
▁bd
▁Program
▁countDownLatch
▁bulk
▁Sequence
▁encoded
CellRenderer
ERS
▁Variable
▁randomInt
▁getGlobal
Suffix
▁Kill
READ
▁getPlugin
▁getFrom
SCOPE
▁getProcess
▁setRemote
▁Region
▁BLOCK
re
▁safe
▁addresses
ModelAccessor
Breakpoint
▁publisher
▁updateJ
▁DISTRIB
LEADER
▁summary
▁REFERENCE
▁SERVER
▁addParameter
Optional
Contributor
▁SUPPORTED
▁getCompanyId
▁ddmStructure
▁getDebugText
▁getRequestURI
Inputs
▁ErrorMessage
FETCH
▁IF
BeanDefinition
Iterable
▁jfoenix
▁keepAlive
Accessor
▁ReferenceType
DOWN
▁seq
▁each
▁rowNumber
▁JCache
▁PortalCache
Select
▁SAW
STORE
▁curNode
BlockBrace
IMAGE
▁gap
Platform
▁co
▁used
Added
▁Supplier
▁addProperty
▁camel
▁GraphQLArgument
MultiPart
▁aToken
▁mLineNo
▁putAll
▁StringTokenizer
▁Plan
▁Modifier
▁ignored
ProjectPlugin
▁minimum
▁Insets
▁getFilter
▁elementAt
▁RuleMatch
Menu
▁credentials
noTargetText
▁setCheck
▁CLOSE
▁isSubConceptOf
▁getAsString
▁FINDER
▁Received
▁XMLHandler
▁toolbar
▁getConstructor
LabelTable
▁StringValue
▁EMTPY
▁Stage
VARIABLE
befL
Modifiers
▁bootstrap
▁getLocalString
WITH
▁opened
▁RpcException
▁0.01
▁payment
Assigneed
▁writeObject
▁getPackage
▁Send
▁getBroadcaster
▁Address
INFINITY
▁getOption
▁getSegment
Consumers
▁bufstrwriter
Visible
▁realBugReporter
descriptionText
▁JiveGlobals
▁registration
▁mergedServer
▁anotherServer
▁getUri
▁getCatalog
▁getFormatted
Based
▁br
▁rand
▁repo
LoggingEnabled
▁TestProperty
▁404
Migration
▁isMatch
▁2900
▁ZK
▁htmlElement
▁Yarn
NoTargetText
Timer
Realm
▁services
▁Bean
▁serialization
▁CommonProfile
Sql
ExecInfoParams
▁jc
▁HttpSession
▁inputFile
Const
Worker
▁extensions
Fail
Invalid
▁aFrom
DSLMap
Delimiter
▁Lazy
▁example
model
LineBreaks
▁getExecutor
▁wildcard
Categories
ATION
▁SimpleAnalyzer
▁getApplication
▁TRANSACTION
▁Mongo
▁readUnsigned
color
Aggregation
Sibling
Handlers
Upload
▁getTestCase
▁valueNumber
▁neighbor
▁plugins
▁currentTransfer
▁supported
▁isAnnotation
▁setSize
▁Types
Occurrence
StrategyConfig
▁urlPath
▁verbose
▁EnumSet
▁sk
▁audio
▁Gauge
Found
▁CacheStrategy
▁getEndpoint
▁itemName
▁Extension
LocationSet
▁unsolved
▁lastModified
WorkingMemory
▁getSModel
▁switchboard
▁direction
▁mLineNumber
▁getNumberOf
▁highlight
▁PApplet
Capabilities
Padding
▁LockService
izer
▁dot
▁getCharacter
▁methodGen
Bundle
▁ControlSession
▁atts
▁NkImage
▁newHashMap
▁DiagnosticType
descr
▁KeyEvent
$
OS
POOL
▁added
Dataflow
▁CacheRecord
▁cexecutor
Per
shakenProperties
▁ByteSizeValue
▁errorHandler
▁features
▁REDIS
▁webDriver
▁isNotNoOps
losingNode
▁Maven
▁dependsOn
▁onFailure
▁sig
▁ruleId
mvbroc
▁Int
▁getCurrency
ubly
▁getFilename
ChangeListener
▁classConcept
▁bone
Initial
gn
Facade
▁jdbc
▁primaryKey
ES
▁invoker
▁GenericTable
ParsingException
▁Collectors
Pane
▁MorphShape
MAPPING
▁Word
tqv
StatePublisher
▁getSchema
Presenter
Capability
▁FaultType
▁Person
▁dirName
▁mark
QualifiedName
et
▁vb
▁jboss
Updated
▁boot
Comparison
▁RETURN
ive
▁StageConfig
▁extended
▁sentences
▁nodeName
▁metaData
▁Capabilities
▁Stop
▁channels
▁REMOTE
▁userService
▁conv
WritableList
▁tracef
EXCEEDED
▁bindings
▁assertCompile
Global
▁transfered
▁LocalQuickFix
▁21
Domain
▁buff
▁Trainer
▁setFloat
▁twitterAPI
▁OptionValue
▁publishEvent
▁ANNOTATION
▁always
Setup
▁getOutput
▁registring
St
Sessions
▁statusCode
▁Registry
▁SoftReference
extends
FileSystem
▁nodeV
▁Alternative
▁ms
Dao
▁BaseAdditional
Initalization
TrendsList
BaseURL
▁outputs
▁symbols
and
▁Preferences
▁paragraph
▁scmMaterials
Pass
▁THIS
▁36
▁webElement
Side
▁GREATER
▁partitions
▁35
▁mi
▁shardId
▁scriptIndex
Writable
▁Run
FACTOR
CacheSize
▁average
▁setNext
▁pbJSON
PreferenceValue
▁MB
▁click
▁endTime
▁REP
▁getRange
AUTO
Docs
PRE
▁WebSocket
▁publish
▁consider
▁margin
▁singleResult
▁cert
▁HttpHeaders
▁typeId
▁Localization
▁LineNumber
▁storeString
▁disconnect
Indices
▁AbstractDebug
AndSuper
▁TypeKind
▁InsertFinalStep
▁jLabel
▁Classpath
▁Native
start
▁setLowHigh
LOCATION
▁PATH
Var
Ancestor
▁95
▁lRate
▁numCols
Uploader
▁blocks
▁getParameters
SCHEMA
▁ClassPath
QuickFix
SE
Jobs
▁assertion
▁MPS
▁eventId
▁setParameter
▁HTML
▁DAY
ForDatabase
▁msgStr
▁datum
QueriesUtil
▁epsilon
Console
▁dom
▁ls
▁invokeMethod
Pages
▁Timestamp
▁onMessage
FileDataByModule
▁37
Streams
▁ruleDao
▁encoder
▁SDK
AndHeader
▁createCells
▁zoom
▁dateTime
Creator
▁Dump
Defaults
▁IOUtils
▁install
▁matchedNode
▁LogWriter
▁streamTask
▁Scheduler
Sample
USE
▁Proxy
Connect
▁propertySet
Cmd
▁tagName
References
▁LoggingHandler
▁nativeOrder
ConnectionOn
▁spi
▁updatePet
▁getDomain
▁getRequired
unary
▁escapeTableName
▁setLayout
Stmt
DocBuilder
▁singleton
▁addDefault
Characteristic
▁Kind
▁shared
begin
▁shapes
▁StepMeta
▁isSet
▁MODE
▁email
POSITIVE
▁oauth
▁recover
▁aMax
from
▁Paging
erManager
▁el
▁TopParams
▁outStream
WaitForShutdown
WithError
▁UPDATE
▁OTHER
Procedure
ExcutorService
▁override
models
▁isAsync
CONNECTION
▁CLARANS
ABSTRACT
▁uncompressed
▁projection
Succeeded
▁lower
▁readInt
▁ThreadPool
CommonSupertype
parameters
▁orElse
link
▁partial
▁FLOAT
TOPIC
▁GL
▁Reporting
nessAnnotation
REMOTE
▁toObject
▁indexed
ModelReference
▁gridwidth
▁Postgre
Total
▁PROTOCOL
▁GoPlugin
▁WHITESPACE
▁getCommand
▁best
▁mEntries
▁invalidate
▁IMarker
Refs
▁nameMap
▁mention
▁checks
▁Unit
Family
Equal
ATIONS
Run
LABEL
▁getDatabaseName
class
▁ValidationError
▁LCS
Loop
▁Immutable
▁MessageHandler
▁addMethod
Counts
▁DAO
il
▁SUCCESS
AN
▁Scanner
▁launch
▁NDArrayIndex
▁leg
▁ONE
MethodName
MethodCall
▁pq
▁up
▁getAbsoluteFile
Device
Modifier
▁Read
Navigation
▁getBody
Delay
▁Dart
▁isUnknown
▁resolved
▁targetClass
▁isAllow
▁WebDriver
FromFilePath
Dec
▁Xml
▁pref
▁hasMessage
▁least
▁Url
▁newName
Begin
▁controlSession
end
▁CANNOT
▁createDiamond
▁klass
▁numTopics
ContextName
▁referenced
▁getInterface
▁getNodeData
OWNER
▁getD
▁emit
▁getConceptName
▁dbCacheNode
before
▁bool
FORM
Clause
Dimensions
▁getMinimum
▁facet
▁rec
▁getInput
▁variableType
Parallel
▁Instant
▁loaded
▁QUERY
▁AgendaItem
▁hi
Back
▁HEAD
▁day
▁PARAMETER
▁Global
Current
▁getScore
▁isDisposed
▁aIdent
▁MPSDataKeys
▁RETRY
▁compareAndSet
Backend
▁hasItem
xceab
▁redirect
isDefaultBlock
EventListener
▁Directive
▁getAsBytesSize
▁setCount
FormParam
HEIGHT
▁Problem
Detail
▁Tracer
Previous
▁upload
▁CommandLine
comparableWith
▁Dictionary
HELMET
PUT
▁isTraceEnabled
▁mParent
▁Span
ae
▁JsonRepository
▁QuotaProtos
▁SpaceQuota
▁trade
▁Options
▁GlobalScope
▁Un
▁breakingNode
▁ride
ModelListener
▁Msg
▁getSelectedAbc
Master
▁Role
▁Store
▁LLAP
▁HS
REST
updateBlock
▁dictionary
▁expandPath
▁MaryProperties
▁aTree
ur
Debug
▁fix
▁distinct
AL
Join
▁ADD
▁plain
▁constructedType
▁taskId
Work
▁setAuto
▁sign
▁lineno
▁addMessage
▁getDeclar
IfNecessary
▁Groovy
▁Descr
BuilderTree
▁cm
▁restore
▁visited
▁setKey
Regexp
▁getArg
▁ALOAD
▁safeGet
▁rm
▁getTest
▁define
Super
▁FluentIterable
path
StackTrace
▁ClassAnnotation
after
▁href
▁drl
▁CATEGORY
▁clientId
▁ClassInfo
▁BooleanQuery
▁activeRule
resetBlock
▁floor
▁dataType
Dispatch
▁setPreferred
▁packages
▁nodeU
▁rhs
▁KeyValue
▁clean
ByKey
▁aConfiguration
▁finishTree
Branch
▁Subscriber
Program
▁aExpr
InputSouce
▁filenr
▁tearDown
▁Aggregation
▁footer
LOCAL
afterReadBlock
▁recursive
▁getUnit
▁ee
Changes
▁getLimit
▁Bulk
▁Sentence
▁fromIndex
▁replaceWith
▁localRegNames
▁audit
Batch
▁basis
▁readString
▁resourceId
ACTOR
▁getBitwiseVaue
▁assumeFalse
▁attributeValue
▁mCheck
▁Iterables
JAVA
▁pow
▁was
▁labelTable
▁PrefUtils
ApiException
INVALID
Owner
Bootstrap
Hex
▁non
▁getEnd
zCursor
▁MemoryStore
Agent
keystroke
▁webSocket
am
▁bpp
Modules
TextColor
sList
▁getSourceNode
▁gc
▁65
▁validator
▁ar
▁DebugInfoUtil
▁getCustom
ParametersMap
▁Trace
▁declaringClass
▁upgrade
CLASSNAME
ResponseWhen
ThenThrowOAuth
▁structType
▁injector
▁MockProvider
▁getRe
▁MultiProtocol
PLAIN
▁newCached
▁completed
▁showWarning
Placeholder
Configurer
DELIM
Segments
▁Display
getNodeBlock
Operand
▁bitSet
▁Q
▁effectiveDate
▁FUNCTION
▁suppress
▁isLocked
▁NON
ToWords
EditorInput
▁insets
▁DBPDataSource
▁Inet
Activation
Success
▁regionName
st
▁our
▁sr
Tx
TX
▁JsonLibrary
GroupId
Hosts
▁sendError
▁Dynamic
time
layout
▁debugger
▁sessions
▁uidl
▁an
▁readValue
TOKEN
Callable
not
▁422
TypeName
▁getDouble
▁PUT
▁TestObject
ColumnSelector
▁isTerminated
Recovery
NullValue
▁currency
▁outputFolder
▁KDTree
ATED
▁mImports
▁getAttributes
▁war
▁pathSeparator
▁th
as
RS
▁Monitor
▁valueData
Words
▁DBS
Servers
▁slf
▁ModifiedFile
▁wire
JSONObject
▁greaterThan
Latch
▁ParseTree
▁tc
▁propName
Capsule
▁matchedType
▁Launcher
SHORT
▁onSuccess
▁setTimeout
Closed
OFFSET
▁getOriginal
▁redisson
▁showDialog
▁aMinimum
▁getBuffer
DataByModule
date
Characters
▁getJob
Exp
▁29
isOptional
▁getCube
Edges
▁copyNode
▁arrayCreator
▁MavenProject
▁definitions
se
▁EComparable
Send
▁currencyPair
▁OrderType
Alert
▁aIndex
▁recipient
indexSearch
ServiceName
▁sw
▁Additional
▁SELECT
▁DELETE
▁MakeParams
▁localiseButton
GeneratedBlock
▁getReal
▁addDiscovery
▁attrName
wn
chh
▁quantiles
▁CoreAnnotations
Charsets
▁words
▁keep
edSet
Portlet
▁curator
Updater
▁Cell
Should
▁CASCADE
▁bounds
▁Genetic
▁aRoot
ST
Route
▁logRowlevel
▁ChangeSet
▁enforceDefault
ReferenceClient
FeeRelayRules
▁ISelection
▁937
ators
▁PropsKeys
▁TASK
WorkingDirectory
Transformation
▁PROXY
▁mListenerList
▁Site
Html
▁profiles
ThreadCount
▁DEVMODE
▁groovy
▁JavadocTag
▁checking
TRANSACTION
▁pipelineConfig
▁Registered
createFunction
▁css
▁classPath
▁DataTransfer
▁isUse
▁getTypeOf
Zoom
▁xxxtestLogical
▁modulePath
▁Migrating
▁LogLevel
Merge
REMOVE
FailureException
▁secret
▁TimedRule
ExectionOption
▁roots
▁Script
▁modifications
▁getH
▁GUIScreen
▁getter
▁RamUsage
▁isC
▁kelondro
Router
FaninScmMaterial
▁keyStore
▁GroupType
▁gauge
▁toCharArray
count
▁isP
ZERO
▁45
▁ApplicationMode
Iter
▁createDefault
▁Intent
▁friendlyName
▁running
▁criteria
▁annotationType
▁getCursor
▁coinbase
▁fireErrors
▁colorScheme
applicable
▁allocation
▁ICC
▁knn
▁AsyncAtomic
TimeoutException
SEP
▁kilobytes
▁meters
overrides
▁getPhysicsSpace
▁enableDebug
outsideCommand
▁classPK
ActivityBehavior
▁vertices
▁buck
▁mainFrame
▁organization
▁FHT
▁colors
Standard
▁configureByFile
supertypesOf
ClassifierType
IP
▁isOpen
▁DateFormatter
▁JSDebugEngine
Stage
▁dayNightMode
▁daynight
▁DAYNIGHT
▁Setting
▁integration
▁_1
▁InternalError
▁aField
▁Conditional
▁Currency
▁enhancedCoder
▁unlock
▁BugPattern
NotifyNums
▁JDBCObject
SimpleCache
▁enableJmx
▁865
Lifecycle
Eventually
Min
ex
▁ActorSDK
▁sharedActor
▁requestHeader
▁ase
▁Trends
▁getBoost
HardAndSoftScore
▁solution
▁getCell
▁nvg
▁aMaximum
▁setInt
Fragments
▁ru
PROXY
Processed
▁visitMethodInsn
▁superClass
▁getSignature
TypeImpl
▁getOp
▁OIdentifiable
StreamFactory
▁elem
▁ruleSubId
▁CommitParams
Character
table
▁isNotBlank
▁paraIndex
▁sslContext
Native
▁statuses
▁inst
▁Preflight
Cols
AccessFile
▁Remote
▁getOrder
▁suite
▁setField
Annotated
▁assertIs
Positions
▁LexicalFrame
Implicit
▁insertCast
▁buffers
▁getNumber
Negative
▁groupName
▁New
getNodesBlock
▁keyPair
▁person
▁getHash
NAMENODE
Tables
▁Rest
▁tile
▁Pojo
▁layoutStruct
TestUtil
▁persistent
Raw
Struct
▁errorCount
▁wc
▁MetricRegistry
Generic
▁Book
▁Empty
▁ConceptEditor
PLATFORM
▁dataflow
▁Var
▁CliStrings
▁abcIndex
▁isInstance
Pixels
▁findForward
▁jme
▁offer
PROTOCOL
Chars
▁pd
Metric
▁Metrics
▁parseFloat
Fix
um
▁authenticate
▁annotatedWith
MetaClass
▁Interface
▁SparseArray
▁httpMethod
HandlerContext
▁PER
▁maxWidth
▁curried
CHANNEL
▁needs
▁lucene
Sh
▁getN
▁mods
Compatible
▁elapsed
▁Trust
Publisher
▁sources
▁Intention
▁debugInfo
▁getStartLineNo
▁processEngine
▁getRelativePath
▁confirm
More
▁indexName
▁getLayout
▁PI
definition
COLOR
CODES
▁logSevere
▁Output
PROJECT
▁composite
▁blk
▁setDefaultText
BigDecimal
▁DataBuffer
▁NativeProvider
▁Chain
▁dump
▁QualityProfile
rgba
▁reverse
▁jdbcTemplate
▁cachedObject
▁GroupLayout
Convention
▁work
JavaSerial
▁JsonSerializer
▁ep
▁getAmount
▁potential
▁nanoTime
▁withMessage
▁Storage
▁shouldCheck
VALUES
▁referencee
Idx
▁Container
▁typed
▁PredicateType
▁UndertowLogger
▁Info
▁OptionSpec
▁tl
▁Sample
ModuleS
ymbolicSuite
ModuleClass
▁ne
▁mLines
Another
▁Directory
▁kill
▁CONSTANT
▁baseHession
▁grand
▁WeakReference
commitBlock
▁getTask
JavaScript
WRITE
▁getPrimary
▁classInfo
ShortName
▁Signature
▁mapInfoControls
▁speed
▁constructors
▁ANALYZER
▁archive
PROPERTIES
INTERCEPTOR
▁VARIABLE
ScrollPane
▁literal
SpecificLimit
▁basic
AP
▁Viewholder
▁caps
▁Interval
▁appName
▁jsonAdd
▁SearchTree
▁probability
INITIAL
all
Release
▁findBy
▁docs
▁824
▁bitsquare
ClassInfo
Classpath
▁REPORT
METHODS
▁stub
EXCPECTED
MappingRule
Trace
Drop
▁kafkaConsumer
▁Match
▁longs
IsEmpty
BE
▁getMetadata
▁withHeader
▁dependent
▁isNew
▁addFirst
Durable
▁cost
ResizeListener
▁Auto
PA
CONNECT
▁27
Sort
▁writeBytes
▁aMethodDef
Direct
▁COLLAPSE
sBy
▁setContent
▁trustStore
▁lexer
▁EXAMPLE
▁getHostName
Directly
.0
▁getTrace
▁Validator
▁TemporalAmount
▁marker
▁857
▁SwingUtilities
▁contextPath
MetaInterface
▁variableUsage
▁getBottomText
▁ALIGN
hz
Blocks
▁Copy
extendedClass
impl
▁IndexSearcher
▁Comment
▁decoder
▁redisClient
▁classBytecode
▁UpdateSettings
UD
▁Transformation
▁findbugs
▁slots
▁Matchers
CacheConfig
▁getDocument
▁errorTarget
PortletKeys
▁TagParams
▁mutable
▁correlationId
MapBuilder
sFor
getComponent
▁Matrix
▁getPortlet
▁OPENING
▁family
isModifiedBlock
ThreadFactory
▁MY
▁PREFIX
▁Tab
▁WordRelation
▁ATTRIBUTE
▁InetAddress
▁getLocations
▁choose
ot
▁isJava
IT
▁rgb
▁watcher
Drawable
▁SQLQuery
▁cucumber
Popup
▁aUseContinue
▁currentState
Conditional
Candidate
▁relative
▁DateTimeFormat
▁untypedValue
ClassVisitor
▁Attributes
▁taskCandidateOr
Msg
▁getCharset
▁points
Measure
▁getDescendants
sIn
▁Joiner
▁replaceFirst
▁selectedCell
▁indexStore
▁notity
▁512
OK
▁Deployment
▁ElementValue
▁branch
▁Permission
Permissions
DISTANCE
▁BasicBlock
up
WithForm
▁bugInstance
BodiesReceived
Journal
▁dna
▁dbName
▁andWithName
▁providers
bit
▁HEARTBEAT
▁ticket
▁ColumnInfo
MSG
▁getView
Extensions
▁END
▁setAlternative
▁over
▁DSLContextImpl
▁forCiConstant
▁getEncoding
▁serverName
▁classname
▁execption
▁mBeanServer
▁CLOSING
Completed
Codes
FAILED
▁columnType
▁annotated
▁toVisit
▁Attach
▁CubeManager
▁childSetter
▁QueryResults
▁errorList
▁setD
▁aImport
▁BLANK
▁begin
▁EXEC
▁FileDownload
▁SESSION
PARAMETER
▁RemoteUserInfo
ImportGroup
▁mAllowMissing
▁ide
▁Endpoint
▁NetworkView
The
▁fromAdapter
column
▁DualKeyHashMap
▁getExtension
SS
FS
▁getItemCount
▁stereotype
▁REQUEST
▁nativeQuery
▁Redwood
FromMismatch
▁requires
▁FAILURE
▁RawSqlStatement
▁rightConcept
Quote
ProcessVariable
paren
▁Parse
MD
▁rb
▁getDistance
Checkbox
▁querystring
▁BitString
NT
▁DE
▁ARRAY
▁modification
ResponseHandler
▁getMaximum
isAlwaysVisible
▁getActual
▁stderr
fq
Uniform
▁segmentSize
getMain
ConceptBlock
▁CharMatcher
▁SimpleMatrix
▁classifier
▁prompt
▁period
check
▁Props
Angle
MAPPINGS
▁are
▁slave
Translucent
▁ph
▁minus
▁abort
▁getNodeId
Two
▁getFormat
▁ImageIcon
▁PipelineConfigs
Ms
▁aKey
Duplicate
▁propagate
Roles
▁requestBody
Assertions
▁CFG
ol
host
▁createFullIdent
▁expandNumber
Background
Player
Enumeration
Suppressor
▁getLink
▁topicName
Dead
▁DatabaseMapping
url
▁naive
▁modifiersAST
Sync
▁loop
Launch
▁baseUrl
▁findPlan
▁CallIdSequence
▁23
▁38
DE
StartScheduler
▁bad
wnlwmt
uploader
▁nodeId
Pokemon
CacheEvict
▁area
oc
▁shorts
▁producer
▁toExternalForm
Multiplier
▁Rectangle
▁hasText
▁BORDER
▁WorkItem
DOC
▁retrySuccesful
Fraction
▁dep
▁DATA
▁setParent
Organization
▁aCmt
ListPattern
▁JBUI
▁underlying
▁Order
▁PRESERVE
Func
▁remoteServer
▁ClassBC
▁Elasticsearch
▁keyCrypter
DefaultBlock
▁bulletAppState
▁isInterface
▁SchemaTableName
Diff
Bug
Delta
▁aEvt
▁Core
ab
▁unknown
RequestException
Modification
▁160
Escape
dq
ClassSet
▁MultiMap
▁mapSrcMacro
mapper
▁disp
Refresh
show
▁readBytes
▁DayNightMode
▁slist
▁light
▁isPrimitive
▁StringTools
▁called
▁isWarnEnabled
▁resultReciever
▁writeByte
cce
▁getAluxio
BlockStore
▁bb
▁jodd
▁getStatusCode
▁testGroup
StringGroup
BooleanGroup
▁requiredInt
▁stringGroup
▁booleanGroup
▁PostgreTable
▁FOUND
rect
mainConcept
▁testClass
fL
drfijn
▁Uri
▁releaseStatus
LineNumber
▁minutes
Currency
DATANODE
▁dto
▁HAS
▁DbException
▁scheme
▁getLines
Tracker
▁AbstractRule
▁dirs
▁Hadoop
▁ACCEPT
CheckInterval
WithException
Creation
▁getCamelContext
▁addImage
▁Pre
paredStatement
Q
ObjectFactory
▁recordEvent
▁Link
▁getServlet
Shared
▁endObject
CallTarget
Catch
▁smoothing
▁Notification
▁aIndent
▁annot
▁putIfAbsent
▁runSpeedTest
▁StartExecParams
▁Generate
▁isLetter
▁ByteSizeUnit
▁ClassVertex
▁shards
▁dbo
HttpClient
res
Certificate
StopListener
▁JList
▁ACC
▁mockito
▁SAVE
Rotation
▁getLocalScale
MultipartBinding
▁setOp
▁ensureOpen
POS
ServiceUpgrade
Core
qzs
▁ac
enum
▁hints
▁Root
EXIST
▁EBoolean
SLAYER
▁pathTo
presentation
▁setC
▁cat
Regex
▁parameterTypes
▁OType
▁fieldValue
Term
▁SearchResult
NodePath
▁Predicates
▁numRows
▁ServiceName
▁secure
cellModel
▁PROPERTY
▁MaterialConfig
ist
sudxd
Cost
RGB
header
▁CONFIG
▁NaN
RepositoryFacade
▁createModule
EXP
2.
http
▁33
▁FormAttachment
ability
Brace
ALLOW
JOIN
IOException
▁STOP
MOCK
TREE
▁Formatter
▁IconManager
▁NbBundle
Ext
Are
▁Account
▁needed
▁popuplate
▁endIndex
▁getException
▁iFetchPlan
▁getContaining
▁numThreads
▁Product
directory
▁LUCENE
▁hide
Primitive
▁ObjectHelper
Spacing
ConfigSnapshot
▁EXACT
SelfSignedCert
Auto
▁routingGraph
▁ROUND
FACTORY
Descr
Suite
Transfomer
▁DebugInfo
▁plasma
▁exitCode
▁absolutePath
▁basedir
▁FILTER
▁setTextSize
▁TextSize
▁mm
ure
▁9999
▁FieldFrame
▁Initial
Duplicates
items
▁TheLocalFix
▁auditStart
array
▁lc
▁getAvailable
▁hc
▁dataSourceNode
▁Flags
▁aClassName
▁TCP
▁createQuery
▁BYTES
▁shardingContext
editorComponent
▁Authorization
LinkedQueue
▁DataTypeUtil
▁setDTypeFor
▁unregister
▁tablename
Using
▁setStyle
▁setFormat
ObjectiveCName
ExceptionForType
LOCK
STATIC
▁avg
▁city
▁MATCH
reference
▁getCommit
Aggregator
▁getDataType
ParameterTypes
▁wallet
▁mAllowEmpty
HostName
▁ruleDto
CellContext
▁Replace
▁ItemEvent
▁aSourceName
▁ClosuresUtil
▁fire
Persistent
▁recordingId
code
▁Control
Nested
ReplyManager
QuickStop
▁Semaphore
▁LanguageMode
▁ECMASCRIPT
▁AsyncHttpClient
▁Shard
ANNOTATION
▁MINUTES
▁WebSocketCLient
▁classIndex
▁MethodInfo
▁records
Written
Insert
▁watch
▁Coercing
▁PORT
▁DependencyNode
ToNodeTransition
▁Blocking
▁fetchByC
▁setResult
ingStrategy
▁gwt
Temp
▁Tools
▁Serialization
▁rename
SideWidget
ReadOnly
▁sourceType
▁getCluster
PRIVATE
ClickListener
▁PkgControl
▁COSDictionary
Identity
▁Android
▁ifc
Dependent
▁ensure
▁getBrowserName
Suppression
False
▁orientation
▁callX
▁fieldX
▁vcsField
▁tp
▁getRemotePath
▁getTypeName
▁VALIDATION
ANGLE
base
▁Reflection
▁Delete
▁paramTypes
CATEGORY
▁Extended
QueryBuilder
▁setVisible
▁requests
RANGE
▁workList
▁COUNT
▁Issue
▁getWidget
▁worldObj
DELAY
▁zk
ExceptionMessage
▁languages
ByDefault
▁countDown
▁cookies
▁getRegion
Origin
EXT
▁FastDateFormat
ingEvent
Col
AT
▁iteration
▁OpcodeStack
▁getStackItem
STOP
ArrayDeclaration
▁PRIVATE
▁artifactType
▁ENABLE
▁ResourceFactory
▁newClassPath
▁getSite
▁firstKey
Runtime
▁Check
▁rcurly
▁ParamUtil
Java
SessionFactory
▁nameNode
▁complex
StartListener
Strict
▁testDec
▁70
▁getDrawable
sentence
▁LettuceObjects
▁getLutte
ceObjectsFromMap
▁BytecodeLoader
Filesystem
▁structuralLock
▁TypeSerializer
crriw
Slot
▁ACCESS
EX
CARD
▁mapKey
▁Policy
▁datasetBox
▁Suppression
▁TProtocol
args
▁outputDir
fs
▁setDebug
Done
yQualified
▁CoercingParse
▁IErrorReporter
reporter
▁patch
▁onException
EntryPersistence
▁WHITE
Up
ClosureContext
getter
▁46
▁setLevel
▁SHOW
▁getCategory
▁svm
▁df
▁mLevels
TAGS
th
▁UNDEFINED
▁parentType
CREATER
Username
▁pdfbox
▁ENTRY
▁dn
▁1000000
MessageCount
CompoundRule
▁SplitParams
Indexes
▁startObject
▁rebuild
▁COMMA
▁FileStatus
▁ExceptionUtils
▁blurOccured
▁Html
rgb
▁createTaskQuery
▁Tags
▁Tokenizer
Packages
▁CodecUtil
BACK
▁negative
▁encrypted
Sentinel
▁TypeInformation
▁Distributed
▁SortedMap
▁resultMap
▁Latkes
FILENAME
▁NUMBER
▁about
▁appId
▁getMy
sha
▁reservedList
ProcessingTimes
un
enMethods
ENABLE
▁getServiceName
▁QueryBuilder
▁shapshot
▁adjNode
▁textTag
▁Broadcaster
▁AssertionError
▁nextLong
▁inflate
UpdateInterval
▁Call
▁Customer
▁LoggingLevel
▁CustomChart
▁RESOURCE
DataContext
▁camelContext
▁isCancelled
depth
Factories
▁CubeInstance
▁nodeSubstitute
ActionsBuilder
▁IChildNode
thisNode
eb
bd
▁messagePattern
▁Res
el
Track
▁authorized
▁drawLine
▁configured
▁existanceCache
▁resize
▁longitude
▁nameOfProject
Bucket
▁Broker
▁createUn
▁additionalInit
Original
CALL
plg
lh
Ver
▁AbstractType
JoinColumn
▁constr
▁portletRequest
▁durable
▁mTags
▁MaryDataType
▁PLAIN
▁paint
Commit
▁inputBuffer
Guard
▁LocaleUtils
if
ies
▁39
▁discoveryConfig
▁getTop
sc
▁same
▁workspace
▁Listener
▁expectedOutput
▁terms
▁ABNROMAL
▁ChangeEvent
▁getOptionValue
▁setLong
▁megabytes
▁PortalException
LogStackTrace
▁isAbstract
VAL
default
▁granularity
PERIOD
▁dbBasePaths
LogElement
▁TreeLogger
▁walker
ating
▁indexes
▁equal
▁sortValue
ToReadable
▁MPSPsiElement
▁CHILD
ifier
▁INTERNAL
Trigger
ROLE
▁mf
IMPORT
▁newMeasure
VarationsBuilder
Bugs
Contains
Evaluator
ap
▁In
▁EdgeType
▁sampleCount
▁SETTXQUERT
▁maps
Concurrent
▁LOGGERS
▁ErasureCode
▁Bundle
▁Bottom
▁entities
ls
Deleted
▁getIdentity
▁terminate
▁applicable
▁getCxxPlatform
▁Dynmaic
▁servletName
stream
TAB
▁getStudent
▁weights
▁firstLine
▁newRequest
▁Times
version
▁IsNullValue
▁mSeverityLevel
▁getContextPath
per
▁attachState
Tranisition
▁frag
▁DBC
▁authHeader
▁LANGUAGE
Hook
▁getFileSystem
▁isD
▁multiple
idx
▁Bolt
▁setTransfer
StreamException
▁httpResponse
RelativePath
▁regIndex
▁getModuleFqName
▁getEdge
STYLE
FileException
▁auditStarted
Stopped
MessageListener
▁datatype
▁background
▁mem
▁serialized
Instances
java
Rank
Dirs
AndArray
▁getGenerating
▁JPanel
▁getFont
METRICS
▁hosts
▁acc
▁getPassword
▁normal
FOCUS
▁getHigh
▁ts
RuntimeException
processor
▁copyPrevious
▁ZipEntry
▁Cached
That
Be
▁LocalDate
▁pc
▁dx
dotted
▁pe
▁leaf
▁StringReader
▁LocationImpl
▁wl
▁getInspector
▁SLIST
PASSWORD
▁play
EqualTo
▁partitionId
▁sv
▁msgs
▁wreiteLock
EXTENSION
▁writeAttribute
▁createText
▁DART
ProjectResponse
▁LAYOUT
▁DirectMessage
▁PaginateItem
OverridenMethods
▁StringManager
▁getManager
▁MapProducer
ms
▁imported
▁keyManager
▁CollectionUtils
▁Mapping
▁DL
SAME
▁startKey
Extra
▁executeCommand
QosEnabled
▁DBSDataSource
▁jobgraph
▁taskList
ted
Dot
▁classNameId
▁4000
▁QueryResultSet
▁BYTE
PAGE
▁ElasticSearch
▁getJavadoc
▁unkown
Deviation
no
▁strip
POSITION
▁THREAD
Scale
▁mMessages
▁Indent
▁reject
FULL
▁chunkSize
▁SCRIPTS
▁FileScript
TermBufferLength
ToDiverge
▁PushParams
OBJECT
▁getExpected
▁KB
▁valueType
▁GraphQLInput
Play
Drivers
FillStatus
▁groupArray
▁topology
▁ci
▁ServiceType
▁JobStatus
▁rowdef
Tuple
▁beanName
▁OVR
▁aVariableDef
▁aOptions
Edit
▁reporter
PriorityButton
val
▁translation
▁highest
▁assertOpen
▁versionName
▁Y
Op
▁toJson
step
▁cacheManager
▁GeoServerUser
▁prevToken
FrameState
▁isMulti
TRANS
▁hostLog
▁TreeNode
▁getInputStream
CAST
▁PortletKeys
▁Discovery
▁TupleExpression
▁Hive
MessageQos
ORDER
Nanos
▁getOptions
▁Open
▁logMessage
▁ERDEntity
▁getInitial
▁countEmpty
Verification
▁mac
▁cacheStrategy
▁transition
DocumentPicks
HAVE
BugReporter
Loaded
REFERENCE
Uuid
▁product
▁revisions
▁detail
▁CatalogUpdater
▁Neuron
▁singletonMap
Scopes
▁jetty
▁rc
▁hookEx
STATE
▁stepMeta
▁ZLTextWord
▁authorization
▁theSearch
▁getOrigin
▁getPersistence
▁advance
▁getActivity
Cells
▁btn
▁setConnection
▁GraphQLEnum
▁chn
▁lhs
▁ResultSetRow
ho
DocumentTx
▁gradientRecords
Product
out
CHECKPOINT
▁jedis
▁vec
▁For
Network
▁NkContext
▁OBJBLOCK
▁HttpMethod
▁addLast
▁Part
▁DOT
▁Nested
WriteQueue
▁pom
COPY
▁getURL
▁getStore
▁mavenBaseUri
▁tableId
getInner
TabNameBlock
Len
▁sublistsIndices
Disable
gen
▁registerProblem
Unsigned
▁Ref
▁getPrimitive
▁IgniteBi
▁OK
▁Mirror
▁viewHolder
▁pluginId
▁isNullOrEmpty
ALLOWED
Compression
▁getStartColNo
Interrupt
▁isFirst
Configs
xdc
EXISTS
▁maxTime
Buffers
▁fontSize
▁bulkInsert
ableMap
MANAGER
HANDLER
▁LibraryResult
▁RESOLUTION
▁PK
▁getLocale
▁Transfer
replaceWith
meta
▁launcher
▁FilterContext
retrofit
ContextFactory
Shape
▁addField
▁Ignore
Account
Scan
▁dbStat
FaultHandler
QUERIES
▁IconLoader
Throws
▁GetEventsParams
▁sh
▁articleId
▁\
▁oracle
▁by
▁writeInt
▁andOfType
▁fileObject
▁currentChar
▁kv
▁assertMock
▁bufferappend
▁returnResponse
▁iterables
▁runWriteAction
▁nodeSource
ValuePair
Encoded
▁Category
▁commandBuffer
▁dstBuffer
▁dstOffset
lang
▁recidReuse
Compat
▁semi
▁wikipedia
▁horizontal
ct
Eligiblility
ORIGINAL
▁putValue
▁BLDebug
▁newNode
▁remoteSeed
Upgrade
HBASE
▁ProcessEngine
▁classResolver
▁ROW
▁mFirstLine
▁denyCreateView
WithSelect
▁sourceName
▁printHelp
memory
▁ni
twopzc
▁Convert
▁analyze
▁maxItems
global
offset
▁agents
▁cas
IndexAction
▁scratch
▁getOwner
▁leader
▁MAIN
Instantiable
SEPERATOR
MEMBER
SH
▁getOpen
Explicit
▁declared
▁serverIp
▁syntaxError
▁varNode
▁wb
use
Aggregate
▁reload
▁flowFile
▁vertex
▁getJava
Caught
▁diagnostics
▁mAdapter
▁card
▁queryForInt
▁jms
▁indexMetaData
Different
▁upper
▁DataTypes
▁settingsBuilder
▁getRule
HttpProvider
▁hmm
▁pixels
▁tomcat
▁asText
▁safeGetString
TypeId
▁redundantBranch
styleClass
▁getAuxiliry
▁SChild
▁Switchboard
Contexts
av
▁hasValue
▁parameterMap
Comp
▁lazyCreate
Engines
TEMPLATE
DEVICE
▁Pdf
▁scoreSort
▁fieldSort
ExecutionNode
▁created
Locale
dkew
▁GraphQLField
▁ABC
Reset
▁isFunction
modelAcessor
Make
▁ranking
roundingScope
▁frames
▁character
▁getStream
cellLayout
Asset
▁STRICT
▁vaadin
Sec
ElasticSearch
▁operands
▁mergeFrom
▁getJsonFactory
▁createJson
▁Active
Retry
MODULE
speed
Cosntructors
Blank
▁beanFactory
Hashes
▁GrizzlyChannel
▁createEntity
▁TcpDiscovery
▁TREE
▁sdocWith
ToLiveSeconds
▁inc
▁getSubscription
▁Managed
BuilderImpl
Recursive
▁SourceSinkInfo
▁NGram
▁resultHandler
▁newContent
▁classNameTo
▁scalar
WizardPage
▁getWindow
▁aFilename
NumberOf
▁LINK
REF
▁OServer
▁getDirectory
▁actionGet
▁getExchange
▁IResource
▁xxxtestNull
whenMultiMap
▁getGraph
▁finished
▁Profiler
▁Flight
▁getTesting
persist
▁tip
ination
▁CommandInfo
▁processed
▁focusFraction
HintTextColor
▁rmeove
▁severe
▁jarFile
MultipleNew
▁numericColumn
▁aMethod
▁BaseQuickFix
▁dataPaths
▁ClassConcept
▁getMethods
▁doTestWith
SpecificSettings
ZONE
▁defaultJava
▁responseText
▁BCUBED
REPRESENTATION
▁RenderInfo
▁ann
Replication
AGENT
▁Non
▁crypto
▁userSession
▁isError
Shift
ideByFileName
AndModule
▁getTemp
iconPath
▁INVOKEVIRTUAL
▁aJavadoc
▁SparseDataset
True
▁gcmParameters
Canceled
▁COMMENT
▁getValues
▁nodeList
Over
▁poolalbe
▁AccessModifier
LOGIN
CopyMessage
ForClass
▁Make
REGISTRY
▁ErrorSeverity
▁parseDouble
▁skippedEdge
▁capture
▁fieldInfo
▁outputFile
HttpRequest
▁parameterType
PERCENT
INPUT
Chat
ServiceProvider
SupressionFilter
▁getAncestors
▁THEME
Recognizer
▁listModel
▁JButton
Arr
▁asInt
Chooser
FCI
▁RuleSet
▁tryLock
Compound
UpgradeHandler
FILES
BRACKET
Down
FEE
Ping
▁fetchSize
Getter
▁sender
▁varRef
Arg
▁clusterName
▁FinderCacheUtil
▁503
▁milliseconds
▁getInit
ParameterNames
▁responseNode
▁zip
▁internalGet
▁logs
▁DetectorNode
▁nodeMap
ShellEnvironment
▁OutOf
▁localCache
▁TestCase
▁RuleTesting
▁ANDROID
▁123
CompleteEvent
▁vars
▁explicit
▁EXCEPTION
▁objectMapper
▁macro
▁readLock
▁OptionType
▁resultObject
▁FileComponent
▁getTheme
jv
Entities
▁regionInfo
▁daemonFlag
Video
Formats
▁Named
▁inter
▁Given
Animator
▁Thunk
▁SKIP
▁Priority
▁aUseBreak
▁Format
▁8192
▁DDM
▁Resources
▁fullJar
▁bar
ter
Payment
Numbers
▁started
▁notification
FeatureName
▁testNonExisting
▁testDefault
Sentences
ingPortletImpl
ingPortlet
ment
▁defaultLayout
▁LanguageUtil
▁getJdbcTemplate
▁compareTypeSave
▁resultType
▁scanSpec
▁dataFilter
▁changed
▁getUserObject
Attempts
▁POSITIVE
▁fake
sEntryRelCount
▁propertyClass
▁setInstanceName
▁ItemID
▁getLevel
▁packed
▁ArrayUtils
▁ttsVoiceName
▁Embedded
▁currentToken
▁hibernate
▁sqlSessionProxy
▁isReadOnly
▁MatchType
atable
▁App
▁createImageCell
▁readNamed
▁functionName
OutOfBounds
▁catalogCache
▁Caching
▁rank
PS
ACK
▁iconSize
beforeWriteBlock
▁ANTLRError
▁handshake
▁EmbeddedChannel
▁getLocalName
▁setCORS
▁hsf
▁Summary
EN
▁hand
con
▁getSelectedItem
▁IntervalLiteral
▁ClientProtos
▁toPath
▁initiatorPeer
AwareService
▁JabRef
Ranges
Tile
▁63
▁CONFLICT
▁aModifiers
▁isInside
▁chooser
Bindings
▁jsone
YEAR
▁setInclude
▁mFileContents
▁Connect
filter
Authenticated
▁rkhs
▁getA
▁FieldNode
▁scopes
▁3600
sOfClassesWith
▁isShow
▁HttpGet
source
MBeanSuppurt
ul
JavadocToken
opt
▁chunks
▁probe
▁DROP
▁ATTRIBUTES
InternalError
pt
AccessException
▁readableBytes
▁DefineFont
▁stat
▁getResponseCode
Click
literal
▁FileWriter
▁cli
ATE
▁blockSize
▁SUB
TTL
▁hidden
CacheEntry
Attempt
Scheduled
▁isUsing
▁CloseFrame
▁DDMTemplate
▁Desktop
▁DebugInfoCache
IndexDefinition
▁placeFlagHas
extended
▁SAME
▁lcurly
Colors
▁Has
FLAG
▁fact
▁ProgressManager
▁Modal
▁parents
▁getExpression
▁sourcePath
▁getT
▁getTransaction
▁99
▁Echo
BySignature
▁two
▁DBSForeignKey
▁jobSnapshot
DefaultResource
▁FORMAT
▁Semantic
▁getV
SUPPORTED
▁FiniteDuration
▁Solver
▁bodies
▁links
▁free
Libraries
TopComponent
▁trySerializable
▁timeOfLast
▁alter
▁nextNextInfo
▁nullValue
OnChange
MarginOption
▁getPro
CacheManager
Probability
▁SimpleText
▁middle
▁HmdMatrix
▁LDAP
▁cardinality
Features
▁ignoreCase
▁pred
Fact
Stopping
▁relativePath
COOKIE
DICTIONARY
Move
Into
▁queryString
▁Throwables
▁callable
▁BrowserVersion
menuDescriptor
Pose
AsCorrelationID
▁BINARY
Abstract
None
▁getStorage
▁getScheme
qw
Plus
▁concrete
Criteria
TypeFrom
Hits
TOP
Profiles
Shutdown
Readings
ifFalseCellModel
▁headerValue
EXTENSIONS
▁ProxyHandler
▁argv
▁localRegs
▁terminal
▁28
Reconnect
▁SAFE
▁IssueDto
▁projectUuid
Render
▁urlHash
Pid
▁EditDistance
ADDRESS
FieldReference
▁stores
▁Controller
▁getStringId
▁getUTCNow
▁createRandom
▁guess
▁getToplevelAST
Repo
▁German
Versions
▁toHumanString
▁createFile
▁MinaChannel
▁getAlgorithm
▁getHeightmap
▁finder
▁runner
▁PD
▁searchResponse
Frequency
▁Topology
▁isAuto
▁Peer
▁ObjectUtils
▁partitionOfKeys
▁bestFeature
▁ind
▁getTemporary
▁hudson
▁Schema
▁NUMERIC
▁isA
▁TOP
▁remoteIPHeader
Relation
VIEW
▁setBoolean
Ip
static
▁JobParameters
▁Lookup
PUBLIC
Addr
▁delimLimit
▁getUserService
▁3.0
▁NL
▁getRaw
▁getElementType
▁indexSearcher
▁Bit
▁bc
CONSTANT
▁fromIterable
▁tenant
GreaterOrEqual
▁sqrt
PLUGIN
▁ntrees
Named
▁adjustedWidth
▁MySQL
▁canonical
▁PostingsEnum
▁POSITIONS
▁blacklist
displayStyle
▁rv
▁asCommonFG
▁mandatory
Requests
PrivateKey
Secret
EXECUTION
▁ordered
▁latest
Answer
▁persist
▁processFiltered
States
▁containsExactly
Partitions
▁aBlockComment
▁battery
▁swap
▁TaskSummary
▁pm
JS
BuilderWithChain
FromLeaf
▁responseHandler
▁imgDim
▁Persistable
▁mIndentCheck
▁Portal
▁getenv
▁whatExpected
▁LOAD
▁testMapStore
▁waitForEvent
▁maxConnection
Same
▁doThrow
OuterClass
▁hasMoreElements
▁addCell
MaximumSize
FromCoreSize
Gateway
Remove
▁GetterUtil
▁SPACE
▁getActivation
Tabs
▁ClassContext
FailurePolicy
NAMESPACE
▁DBPConnection
▁ce
▁Assignment
ag
▁TypeVariable
▁websitePostfix
▁setUse
▁REST
▁restart
ThreadGroup
▁activeCount
round
▁setCurrent
▁Kinetmatic
▁250
▁Top
Reflection
▁isOn
HashCodeMethod
▁Hand
request
LOW
▁ObligationSet
▁WorkingMemory
▁NodeList
▁generic
▁sy
▁setBackground
ToInt
should
▁PATTERN
▁folders
▁ZuulRoute
▁Partition
▁caption
▁startLine
DEP
▁newFuture
▁STYLE
▁SQLPreference
▁privateLayout
▁capsule
Association
▁eventType
Prefixes
▁getDialect
▁replication
SlaveServer
CLUSTER
▁DBPProperty
▁TreePath
▁WebElement
▁ec
TypeQualifier
▁shortComment
▁cpu
Connected
Broker
Db
▁entityManager
▁GenericsType
ifTrueCellModel
Units
Utf
▁preserve
▁CMD
▁UnitTest
▁getTextView
▁scm
AndRestore
▁Distribution
▁actualValue
▁compat
▁rightExpression
BitSet
▁zero
▁keyedState
▁aFirstNode
▁responseCode
EntryActionKey
▁spacingPixels
▁presto
▁includes
▁pk
Ordering
Border
▁persons
▁isInfoEnabled
▁buildCsvLine
▁timeMillisSpend
▁toData
eaaa
▁SessionFixation
ProtectionFilter
DefinedPrefix
▁addEdge
ResourceLoader
▁createConfig
▁Obligation
▁getCal
Synchronization
hash
NEXT
▁km
▁sInputCodes
▁mCurrentClass
Transactional
▁getUsername
▁baseDir
▁Executable
▁directives
▁castExpression
CS
ScheduledActions
Ticket
▁Interpreter
IndexWriter
▁weightsHdf
▁letters
▁JavaScript
▁fileFinished
▁locateFinest
▁setSelection
▁Param
▁mapped
▁Raft
▁openoffice
▁getSecond
PREVIOUS
▁aJavadocComment
Splitter
▁healt
▁COLON
FieldData
IndexMap
SUFFIX
▁intern
▁OFF
Enable
TrackerMap
▁availble
▁Bar
▁div
▁sValue
▁NodeInfo
Slice
▁lop
▁rop
Refactoring
▁Bag
▁totalSize
▁getBuildTarget
▁DBSObjectCache
▁canvas
Used
Registered
▁getPermuation
▁IndexHelper
SOTRE
Decl
▁GRAKN
▁MethodEditor
▁profileHandle
BlockWhenFull
PublicKey
▁stippedOutput
▁MySQLPrivilege
▁prettyPrint
INTERNAL
num
▁getPokemon
IM
ForeignKey
▁containing
Suceeded
▁company
▁NANOSECONDS
▁shaded
▁BugLeafNode
▁NEWLINE
▁TextRange
SentJMSMessageID
▁Closeable
▁newArray
▁ENABLED
Rate
▁StageIdentifier
HighlightType
▁ANY
▁enumeration
▁GROUP
Thrower
ScvLine
▁Bug
▁traits
▁strs
▁more
PropertyAsSQL
Retention
FFFF
▁hdr
▁myName
FactoryFinder
▁StrutsSpring
▁FacesContext
▁secondary
▁red
▁center
▁checked
▁doSomething
▁itr
▁ServerRequest
▁kp
▁am
▁dead
▁findElement
▁unexpected
▁destStack
▁serverCodings
inatorsAnalysis
▁IOContext
▁Qualifiers
▁containingLink
MessageChannel
▁NVGPaint
Variant
▁BufferedWriter
Section
NOTIFICATION
▁ClassPathXml
▁masm
Terminatedby
SEC
▁lon
▁encodeMD
▁getNamespaceId
▁SurfacePattern
Known
▁hashes
▁setIgnoreCase
▁LibDivideS
▁anomaly
▁MPLSH
▁GraphQLType
▁dealloced
▁qevent
Restart
SetOperation
CONTAINER
▁parenAST
Implementations
handler
PARAMETERS
▁WAIT
BEFORE
▁testLoad
SUCEEDED
▁SAX
INTERETRADIO
▁MODULE
input
▁getQuoted
▁accepting
▁vnaFrame
▁dates
▁rawTerminal
▁enableSGR
▁SGR
▁cfName
▁getRowCount
▁getMetaClass
▁startIndex
▁mgr
▁Current
UnitOfWork
▁COMMAND
▁Warning
▁propValue
▁INVOICE
HeaderDirectory
Around
▁methodInfo
▁getIndexWriter
▁memAddress
▁jav
▁getPos
▁nextNode
▁Generator
▁lb
ix
▁accessor
generateBlock
▁WRONG
BUILD
AdminWebUpgrade
▁createdAt
▁myNodePointer
▁selenium
▁buildcraft
▁ZONE
▁getMaster
Needed
▁clasz
ig
Recover
withList
▁matchers
▁INTEGER
Self
▁DataInputStream
▁animCmd
▁exc
▁aCheck
▁contextFile
▁getDialog
Trans
▁aHeader
▁setAddress
ep
▁maximum
▁setElement
▁turn
▁WorkUnitState
▁Tester
Off
▁stopJob
AlternativeBlock
▁successes
▁Versioned
▁findWorldByName
▁mClassInfo
▁fut
covariant
Framework
▁kcontext
▁timeoutMs
Water
▁INVOKEINTERFACE
▁writeProperty
▁emptyMap
Buf
▁committed
▁Audit
▁Naming
Mixin
▁historic
▁modes
DUMP
▁newData
▁glyph
▁SQLServer
▁itemId
▁nameAST
ditorContext
EntityManager
▁Spider
▁frameNumber
▁getTransfer
▁disk
Satisifed
▁writeAsCsv
Unique
Mask
SCROLL
▁ram
▁currentClass
▁trouble
▁sent
▁MethodBody
▁securityToken
Presence
▁convertProcess
PARTITION
▁searchContext
▁pmd
▁outgoing
▁scorer
sum
▁ProcessorType
▁createSession
▁power
▁formatCommand
UNIQUE
Accept
▁Hudson
▁Keyboard
▁createOutput
length
▁getEventName
▁categoryColumn
▁myModule
▁Logical
IdleTimeout
▁sing
Convert
▁aRegexp
▁8000
Dynamic
▁DBSData
▁myConcept
▁CodeReader
DefinitionMap
▁Resolved
▁getRegistry
ChannelBuilder
▁ErrorResponse
▁combined
▁BrowserType
ance
▁BaseEditor
▁backgroundColor
Example
FormatterHelper
▁XStream
Pack
EndDate
LA
▁SonarException
PropertyValues
▁getConfigBool
ification
▁requestURI
▁getUnresolved
▁channelId
▁reflection
▁fullName
▁schemaRule
AndCompile
Handling
ratio
IndexSearcher
ActionID
▁lineLength
ClasspathEntry
▁counts
▁Solr
▁aString
▁primaryColor
▁drawString
▁getDummyBean
▁deviceId
▁ad
add
▁getThread
▁4096
Pipelines
▁enumConstantRef
▁mName
▁IntColumn
Distribution
Sum
trust
▁projectName
▁leave
▁setConfig
▁uk
▁mFilename
▁Join
▁finally
▁ByteString
▁dexFile
▁fine
Calculator
RegExp
Trailing
Whitespace
▁curVals
Digits
▁currentLine
▁getAlias
▁endDate
▁digits
▁HtmlTag
▁displayName
▁setAllowed
▁referenceMacro
GetReferent
▁back
▁modelName
▁checkProperty
▁setP
▁parameterObject
▁valueFields
▁engineRule
▁testRule
▁ClassifierType
Lib
▁getMsg
▁ax
▁ASYNC
▁SEMI
Serialization
EDITOR
▁St
▁binarySearch
▁AuthConfig
▁runReadAction
▁sinceVersion
CHARSET
▁HConstants
▁genRemoteSeed
▁insertBefore
▁SINGLE
▁Progress
▁43
▁HANDLE
MappingException
▁jp
▁createImage
GpxHelper
▁addSink
▁CodedInput
▁JEditorPane
ContextImpl
Con
▁TestPropsValues
Magnitude
▁gamma
▁trip
Regions
▁setCharacter
▁testHarness
▁processEvent
▁ActionScript
ded
▁gt
▁Nullable
▁RuleNormalizer
▁infof
ProjectItem
▁LARGE
▁profileHeader
▁Synchonizer
▁Morphshape
Gen
▁preview
▁newXooX
CA
▁jSeparator
▁JSeparator
Defined
▁hasDefined
PositionalValue
▁Social
▁ZLText
▁Converter
hj
Multimap
▁tz
HealthState
▁atom
▁portalCache
▁jsonBuilder
▁MimeUtil
Decision
▁SpongeCommands
HandlerMap
▁IfMacroContext
Web
▁findFile
DeclaredDeps
▁getLatitude
▁nonNull
▁0.02
▁waitTime
▁vn
▁FloatBuffer
Inner
▁84
▁linkDeclaration
▁nio
▁LOW
▁crt
▁plasmaCrawlLURL
▁isNotNull
ToFile
Jars
▁DetailPanel
ERASURECODE
week
Implementor
Links
▁StateMachine
▁lvValues
▁VK
▁Inital
izedBuilder
Grouping
OVERRIDE
▁Injector
▁rowIndex
▁qu
are
▁mIgnoreFinal
▁SModelTreeNode
▁aPos
▁uuids
Existing
▁TRI
▁DSL
CFGPrinter
▁beta
▁DBIcon
▁calculable
▁queryBuilders
▁createScreen
▁getSig
▁stateUdater
▁jpexs
▁decompiler
▁flash
Customizer
▁fieldsName
line
▁orElseGet
▁seperator
▁getNew
JavaType
Margin
▁mMaximum
▁1500
InParent
▁transitions
▁Api
▁lastName
▁getInfo
ll
ip
▁yytext
▁CLUSTER
▁createCursor
view
UndoableCommand
▁DBSDataType
▁keysCount
Converters
ToJavaSerializer
▁serializeAsJava
▁ksession
▁cond
▁writeTo
▁cacheNode
▁getConfidence
▁setVariable
▁Before
▁lastIndex
Audio
▁RGB
MetaAnnotation
▁virtualHost
▁getLeftInsert
▁testSame
▁license
▁useTls
▁excapeAll
ControlChars
▁getTestName
▁getBroker
▁nb
Compare
▁video
izedResult
▁Username
▁sticker
▁aUri
annonicalHost
▁VIEW
PositionInLine
▁setData
▁timeOut
MessageRegExp
▁modified
▁valueArray
Subcribers
RA
▁getDirect
▁HttpRequest
▁outputBuffer
Suggestion
ConstraintColumn
ImportOrderRules
▁aggregator
▁Camel
Gradient
▁Loader
openBrace
LINK
▁createHistoric
▁stateChanged
values
▁Invoker
▁quantile
Abbreviation
▁Dummy
▁testPut
DelegationStage
▁RGBA
▁Fake
Topics
▁sym
▁aCurrentClass
▁sparse
▁getPlayer
▁machine
Pred
▁clientConnector
▁reply
▁DirectoryReader
▁isPublic
TextField
dt
▁Charsets
▁getHandle
styleItem
▁PGraphics
▁CONF
▁Membership
ACCOUNT
▁getOperation
Executable
▁componentType
▁readObject
▁createCheckbox
▁miEdit
▁MetadataManager
▁removeInstance
▁createField
QueryString
Defferability
Sets
flag
▁rd
▁ENUM
▁dispatcher
InputSource
▁addFilter
▁createNodeId
Adjustment
▁isRowLevel
▁transactionId
▁JMS
▁Cucumber
region
Chart
▁bais
▁glUniform
▁findFirst
OptionValue
ENTITY
Configurator
▁dbAccessor
▁once
▁getTopic
FRAME
▁AbstractTestUI
▁Media
▁readOnly
▁Kie
▁localHost
▁addColumn
▁IspResponse
▁Results
NonExisting
GET
▁mkdir
keyMap
Reduce
▁FAIL
▁Widget
▁closureParmRef
▁groupBy
Assignment
▁hook
Isolation
TimeoutSeconds
Old
▁Shader
▁getJ
MessagesWhile
▁targetName
Bridge
▁createLocal
▁INTERCEPT
▁aLineNum
Levels
special
▁tuple
Increment
▁aArgs
▁Right
MP
▁AbsAdater
▁unresolved
▁httpRequest
AnalysisContext
▁unicode
Secure
▁ovr
▁watermark
TWO
▁lemma
Creater
websocket
▁exeptions
▁returned
▁remotePath
▁leftExpression
▁di
▁getStreamID
hsva
▁ActiveRule
▁projectId
▁timeoutValue
▁getJSONObject
▁isAvailable
▁agg
▁StringHelper
▁SWP
▁setUser
▁setOption
▁Member
▁ProxyMetaClass
▁TaskProperty
▁photoUrls
▁Prepare
types
▁DISABLE
SendOriginal
Visibility
Prompt
▁precision
▁scopeType
organization
sTypes
Clone
▁mustCheckName
▁Show
WEB
▁sel
Days
▁spring
▁defferability
▁isActive
▁mExcludeScope
Suppress
IdTo
▁INDArrayIndex
▁checkFor
▁dbSql
▁nextPlan
OfType
▁ks
cache
SEND
FromCache
▁convention
▁GERMAN
Strategies
▁getFrame
▁mce
▁discovery
▁sdk
▁Report
usesBraces
StaticField
▁motherTongue
Extractor
▁Bad
▁sendRedirect
▁Serial
▁dataProvider
▁getSingle
Delivery
▁neo
Marshaller
▁TestUtil
▁BaseConcept
▁psi
▁getMod
▁cursorSequence
▁Hibernate
▁47
▁setError
ax
Simple
DecodedDebug
LL
▁digest
▁rejected
▁currentTime
HEARTBEAT
min
▁objectTypes
▁myThread
▁PAGE
▁barrier
▁isHidden
▁relationship
▁mCount
GLOBAL
AndTransform
ws
batch
Ws
▁VariableNode
▁getResults
▁JobExecution
▁CommitStatus
▁receive
▁merged
▁pro
▁padding
CheckerAdapter
▁metaClass
▁ODatabaseRecord
▁autoStartup
▁da
▁liveGroup
Managed
▁searchAnalyzer
▁unmodifiableMap
CommandClass
▁activate
▁we
▁timoutException
▁MYSQL
Boxes
▁mLastLine
▁3600000
ant
▁isAttribute
KeyException
▁ARROW
▁setInput
ServletResponse
Private
JOB
▁Postgres
▁mC
gridLayout
▁pdfSource
FIELDS
RequestBody
▁0.2
GENERATED
TargetException
▁currentCell
▁bookmark
▁peers
MARGIN
AccessModifier
ParseTree
▁Preference
our
▁du
Print
▁Indexable
ationCheck
▁Direction
▁rebroadcasted
▁PadOption
▁getProvider
Accepted
AC
▁WNDCLASSEX
▁KIND
▁aggregate
▁Prefix
▁STORE
▁agent
▁SETTING
▁rt
▁isChecked
▁sf
Other
▁ofNullable
▁getMetaData
▁bodyIndex
ITE
▁DigestURL
▁packageInfo
▁repeat
▁SearchOptions
object
▁newElement
Watermark
▁PrintStream
▁cover
▁JDBC
▁getResString
▁isNative
▁cacheSize
▁interpreter
▁setUp
Real
EntryId
▁UIManager
Additional
▁Fan
inScmMaterial
▁resultList
▁nodeFQName
▁topParams
▁act
▁virtua
PartitionNodes
▁Exceptions
INDENTATION
▁ListenerInfo
▁isNodeRemoved
CNT
▁ChannelEvent
▁ChannelState
SELECT
ShouldMatch
OrderBy
Pro
Keywords
▁destinationName
ReturnValue
WaitTime
▁getDependences
▁ImageUtilities
ss
▁unwrap
▁AbstractSimple
ReplaceRule
▁setOutput
WebSocket
be
▁BciBlock
▁lr
▁optimize
WAIT
▁readers
▁setM
▁iValue
UUIDS
ARGUMENT
RUNTIME
▁closeConnection
▁segments
▁fast
▁age
▁Header
Sharing
▁IProcess
Vectors
IC
▁aop
aopInterfaces
▁related
▁getList
▁deliver
▁processCell
▁CheckUtils
Escaped
TICKET
▁createReadOnly
▁virtual
▁getVisible
CL
IdGenerator
▁Journal
▁getSimleCode
▁mKey
ELEMENT
UR
DataFormat
▁ClassFrame
▁typeMap
normal
▁versionString
▁login
DELETE
MESSAGES
▁WorkspaceMode
▁union
▁take
Materials
Qualifier
▁viewer
▁getI
▁Agent
▁stored
▁expanded
search
FileSuffix
▁phi
Bar
Any
▁RocksDB
Parse
AUTH
Replacement
CONVERT
Templates
▁tm
OutputType
▁Line
▁isArray
▁pts
ThrowsTags
▁DBeaver
Symbol
▁threadName
▁uptime
▁Management
Mirror
▁getRead
An
ang
▁tmpval
▁CommonTree
▁_3_
Registers
▁TerminalSize
Now
▁what
▁FONT
▁startExecParams
▁perms
▁standalone
LINE
Substitute
▁SystemUser
▁AFTER
▁enforce
▁getRegister
▁anchorNode
▁ResourceValue
▁hit
▁Pluggable
SCM
▁PortalUtil
▁mTagInfo
▁yacyURL
byte
▁checkName
▁foreach
PART
CacheKey
▁sampling
▁paramName
▁createEmpty
Ring
▁ownerId
▁messageId
▁MASTER
▁decl
▁FluxPeekHelper
▁Upload
Problem
▁instances
▁setValidator
▁setSuccess
▁dataset
▁GeneralUtils
izing
NER
FileFilter
▁sqlState
▁CtClass
▁ctClass
▁cmp
▁serviceType
▁Navigation
▁perm
▁Compound
us
▁GLES
ColumnName
ationTime
▁AtomicReference
tag
▁ofSeconds
▁selectedFile
▁kbuilder
Series
TEAM
▁byteBuffer
▁prepRet
▁ie
▁ProjectStatus
NodeId
Supertypes
▁currentValue
▁Atmosphere
▁theLogger
▁KettleDatabase
▁sep
▁fromMap
▁findElements
▁DataFrame
▁Parameters
▁privateKey
Terms
▁getEndpointUri
ListModel
▁deploymentUnit
Ranking
ValueDefinition
▁pa
ient
Contact
IDLE
Switch
Inclusive
▁getStructure
Conditions
▁caching
WORDS
Throwable
Containing
PrimaryKey
▁libdivide
▁denom
▁entityClass
▁getSessionId
▁getRoots
▁GENERIC
▁activations
▁JobNodePath
▁DISABLED
▁PrimitiveType
▁API
MINIMUM
▁setUrl
▁jobScheduler
server
▁startServer
▁indexer
PASS
Criterion
Waiter
▁110
Coordinator
▁AVM
Disposed
▁cubeRef
Shard
▁perf
▁hasSize
▁aMethodCall
▁argNr
▁pentaho
▁Sampled
▁thisType
▁registerVars
▁inFunction
▁inMethod
▁InstanceType
▁clientsMetadata
namespace
▁failCount
▁tbl
▁parseContext
▁rootCell
▁LIR
DROP
▁stackSize
▁aStartLineNo
ibleTask
FA
▁getPrivate
Checked
▁BatchReport
▁keywords
REDIRECT
▁dataTimeStamp
▁CANARSIE
▁jvm
▁localAddress
▁Find
▁keyEvent
▁isSingle
▁newCall
▁aClass
▁miPop
SDK
Recompilation
Intervall
▁SimpleAction
Login
Save
▁StacktraceUtil
Receive
▁targetNode
▁mDepth
Decorator
▁mBlockMaster
▁BlockMaster
ASCII
Indexed
ute
▁Tomcat
▁Completion
▁conDef
MethodMap
▁BStruct
PARSE
▁PokemonId
▁getNodeName
▁jobInstance
ParentModel
▁icfClass
ReplicaInfo
▁resultReference
▁JUnitConfigFrom
bb
▁toBytesBinary
▁IntKeyMap
▁SimpleEndpoint
▁Argument
▁aAllowed
▁historyNum
ps
▁logTime
▁resultProviders
▁setBody
▁optionValue
Sink
▁good
RequestAddress
▁bookmarks
AttributeBase
SEQUENCE
▁dy
▁rightTuple
Proc
StorageAllocated
▁fsep
▁actor
▁BOOK
▁ComponentDto
TextSizePixels
▁capabilities
▁_0
▁aCompileFlags
FileDetails
▁lastEntityId
▁hostPort
▁Aggregate
▁Deflater
▁AnonymousClass
▁GraalOptions
▁SELENESE
▁getAndIncrement
▁relation
CommandStream
▁writeShort
▁ConfVars
▁MetricsConstant
▁NAVIGATOR
▁digester
▁All
ACTIVE
▁utf
split
▁UnitOfWork
ow
▁ActionKeys
BITS
SUCCESS
▁ratios
▁journal
▁maxAge
▁subdomain
▁capitalize
▁Modifications
▁DBObject
▁deregister
▁Shell
▁prg
▁setBytes
▁HUtil
Confirmation
ComparatorClass
▁relOp
▁ent
▁mId
▁hasPermission
TimestampEnabled
▁OpenClosedType
▁writeAsText
▁isTransfer
▁stateMachine
▁baseNameArray
len
▁RandomPort
▁ASSIGN
TransportFactory
▁trainer
portletDisplay
▁exlode
dTomcatDeploy
▁referenceText
Partitioned
▁zone
▁PROFILER
▁Pipe
▁maxLength
▁addButton
▁ll
▁street
ssl
▁writeln
▁setErrorHandler
▁CodeBlock
Sig
ro
▁queries
▁Bucket
▁getBucket
▁getBooleanValue
Head
▁getShardingItem
▁formParamNames
▁ClassDoc
▁pres
▁openNode
▁DBCException
▁Vertex
▁listFiles
▁fireException
▁rgba
▁createEmptyBpmn
▁processName
constraints
▁fieldNumber
Excecutor
▁Company
▁With
▁makeLock
▁showConceptIn
▁addResource
▁alternative
▁phase
▁RUN
▁TrendsJSONImpl
▁ContainerUtil
▁IWhereFilter
▁setExecutor
▁HtmlElement
▁incomingEdge
Math
▁wpool
▁searchValue
▁getFieldName
Clock
ConfigDTO
▁fabrics
od
▁getSrcPath
▁locks
▁JavaType
▁lengthBuffer
▁columnNo
▁texture
▁SELECTED
▁sessionContext
▁CLOSURE
TextPresent
▁enclosingNode
▁referenceNode
THAN
alParamSpec
▁Email
Composite
▁accumulateBug
▁getBugInstance
▁debugMode
▁expireAfter
▁channelName
▁TestStep
▁getArray
Allocation
▁isM
Throw
▁TextView
▁inEventLoop
▁projections
▁ExceptionInfo
▁toSource
▁GenericMeta
VersionForThisOp
▁changeContext
HandlerResult
▁Regular
▁allowNullBody
▁CRV
▁sur
▁catalogName
▁updater
▁parseResource
▁disovery
▁asyncConsumer
▁Con
▁spaceWords
▁mFile
▁mRoot
Clazz
ConfigId
AVAILABLE
▁917
▁phone
ENGINE
▁HistoryEvent
creole
GapMultiplier
▁MSSQL
▁940
▁getErrorMessage
▁SUBSYSTEM
Horizontal
▁searchQuery
▁realposition
ForTest
▁defaultLang
Boundary
▁sizes
VmIpFinder
Possible
▁demo
StepDefinition
▁serverPort
▁diagnostic
▁aStatic
▁aCurrentGroup
▁price
▁Console
Effect
▁nextDouble
FieldValue
▁PRE
QUOTE
▁94
▁ALARM
BREAKING
closeBrace
▁authConfig
▁OPERATING
ARGB
COLUMNS
▁tempFile
Ident
▁subtypes
Basic
▁500000
▁messageSelector
▁eigen
▁numNonZero
▁schemaLocation
▁testText
NonPrivateCtor
withSet
▁ab
QueueEntry
▁GlowServer
▁Foo
enProperty
▁PostgreDataType
ern
▁maxBy
▁positionToMaxBy
▁EOF
TransformHint
Enc
▁Trans
▁whitespace
WORD
▁RESPONSE
▁sheetNumber
▁startColumn
▁isHttpProxy
▁BOLD
NumberOfReaders
▁getFieldValue
Letters
▁IMPL
CompatImpl
▁nodeEditor
▁XYChart
▁invoked
Uris
TaskRunner
▁Cloneable
▁nm
▁baseMappingRule
▁BaseMappingRule
Intentions
AndNot
▁drawCatch
▁tiFile
USERNAME
OPT
▁aaa
▁dbStorage
PortalCache
▁Player
▁mErrorListener
▁mHTextView
AsBoolean
DL
▁mScope
▁52
string
▁executorService
▁NullDeref
▁setLock
OnActivate
▁Dialog
▁getShell
▁executionId
ian
pe
ion
NonTypesystem
▁RCURLY
▁~
▁own
BufferLength
Timeline
▁Complex
▁connectionModel
▁setAsync
▁networkPicture
▁EXTERNAL
▁regI
▁RelationalOp
▁attrib
Redundancy
▁Alignment
NORMAL
▁UTILS
hsv
background
▁starting
▁calling
▁mDetector
▁iRecordId
ast
ResolveUtil
▁getTypes
▁getBuild
▁HStoreKey
▁isWhitespace
▁testZip
▁cd
▁languageTool
Assert
CONTROL
HEADERS
NotPresent
Graphics
Devices
COMPRESSION
PROVIDER
Checks
Dis
FileEntry
▁endElement
▁addStyleName
▁asyncHandler
▁getRun
▁libName
ParserException
▁toJava
▁tagParams
▁findNextWord
Expiration
▁setGpx
FileToDisplay
▁getLongName
▁setTag
▁recent
▁descriptionMap
▁SavedSearch
SavedSearch
▁TOKEN
▁IntRange
▁Transform
▁CANCEL
MXBean
▁SDVariable
▁axis
▁Pointer
▁getErrorCode
▁setVersion
▁TwoDimensional
Slide
DefinitionId
KB
▁Unmarshaller
PREFERENCE
▁threads
TaskToComplete
▁RuleField
ions
Executors
Scaling
▁timeValue
ProtectedAllowed
▁PublisherUtils
▁queryStr
▁HTMLUNIT
MOBILE
▁transferList
▁chosen
BestBethod
PubSub
scale
▁Side
▁market
▁mHeaderLines
OPTS
▁usages
getPortalCache
Interactions
OM
Recent
▁JMeterProperty
▁Sponge
▁On
▁ClassReader
▁interceptor
▁bin
Through
▁UnicastSubject
▁avro
hostLog
▁getReturns
▁getPortal
ified
▁LOCALE
▁sourceModel
▁instant
Ser
▁previousLine
▁TemplateContext
▁ITemplate
RAWCODER
▁PathManager
▁getHomePath
▁180
▁addException
▁enumValue
▁CoverageInfo
▁buildHeter
ogeneous
ResolutionView
CREATE
AspectDescriptor
Perm
▁949
▁Debugger
▁problems
ListTo
▁mColNo
▁normalizePath
▁columnPrefix
ErrorResponse
▁METRICS
LIGHT
▁oos
▁wireType
▁getServerPort
LoggerFactory
▁getParentFile
▁setMonitor
▁defaultMultiple
▁Optim
▁github
▁syntax
▁CENTER
▁openSession
▁getFeatures
▁48
Tester
▁seAttribute
igned
▁lp
▁getPaddingTop
▁JsonWriter
▁filterFindByG
▁expectedResult
▁GroupProperty
PUBLISHES
▁qm
▁NumberUtils
▁tenantDomain
▁None
Cancel
▁BUNDLE
License
▁copyinvokers
let
▁getOld
▁ServiceResponse
▁preload
▁pp
profile
▁localRepository
Animation
ler
ingCondition
▁Mutate
▁InputField
▁testNet
▁iterations
▁getTemplate
ors
ql
▁executeScript
▁sendAndReceive
▁RipDatabase
▁getDay
▁BOOL
▁currentFile
▁putLong
▁scopeName
▁postContent
▁jumpStack
▁150
▁TACHYON
ual
▁getTo
▁HBASE
▁SystemConfig
▁chart
▁ICursor
▁CursorFactory
▁findViewById
Theme
▁100_000_000
Free
▁findNextWordEnd
rz
▁Openapi
▁RepositoryModel
▁getIndexName
▁RELEASE
▁setException
Cause
▁extractNumber
▁typeClass
ListDataList
▁savepoint
▁PDRectangle
atureRectangle
▁selectedItem
▁startElement
Projects
▁mapJmsMessage
Compatibility
▁third
▁httpd
▁executeUpdate
▁adapt
ak
▁clients
▁assetTag
▁startY
▁MetaAnnotation
▁54
▁loadImage
▁liveDocs
Once
▁strokeWeight
▁synset
SyntaxException
▁localName
▁getPid
▁IType
▁ColumnFamily
▁aID
▁Javadoc
▁unsigned
▁ptypes
▁leastIndexs
mp
Inspection
▁yacySeedDB
▁transacted
▁addClassEditor
▁AT
Reload
▁setScope
▁1002
▁Heaps
PT
▁useC
executor
DO
AtLeast
▁aUrl
book
EffortItem
▁30_000
▁contentdomCode
▁DurableTopic
IDX
▁ib
▁testQuery
Adapters
ir
▁netty
▁FriendlyURL
▁getAllow
InactiveInterval
▁Analyzer
▁TimeZone
UN
▁OracleTable
▁expiry
▁ELEMENT
▁strategyConfig
▁mCustom
▁clarans
▁declaration
▁SessionErrors
▁SourceLocation
Protocols
PropertyAsDouble
▁PointerBuffer
ServiceFactory
Annonymous
▁reccordProject
▁Undertow
▁ops
▁runMethod
vec
▁logout
ObjecLitKey
▁isRegistered
▁setRe
▁Orient
▁dlFileEntry
▁causeMsg
▁viewName
▁threadPool
state
▁endPos
BinaryOperator
▁heartbeat
▁readLong
▁getBack
▁getServletPath
EXPIRY
▁getColumns
▁Keys
▁123.5
▁glGet
▁jspWriter
FanInNode
▁strings
▁selectList
▁SECOND
▁getPropertyName
▁exe
▁historyService
▁variableEquals
Specifier
▁mediaType
▁addTest
▁Partitioned
▁fqClassName
▁createNative
▁getR
▁Jimple
dd
Topology
▁seeds
InputPlanNode
▁compiled
▁jkiss
▁CONTEXT
▁transName
Anchor
▁Exclusive
▁resetPortletAdd
CheckWhitelist
▁isFile
▁setNode
▁CacheData
ADMIN
▁Testdata
▁solverFactory
▁IMPORT
Variations
ConfigHandler
▁initCore
▁SOLR
▁DeleteIndex
▁withName
▁getRestBaseURL
▁deprecated
SampleCount
▁crlfString
▁alignment
▁PartialConfig
▁KEYS
▁setModel
ative
PE
▁transpose
▁markBlock
AsNeedsUpdate
▁xCoord
▁yCoord
▁zCoord
▁DDMStructure
Joint
▁conceptFqName
▁lastDot
WithLog
Then
Shown
▁driverClass
▁distanceTo
RECORD
▁isInvalidate
▁findByG
▁ModuleContext
select
▁getListenerList
▁home
▁objectMap
ending
SYNC
▁getBtcSync
Parametrized
▁Middle
Light
▁Go
▁updatedAt
▁note
▁JSType
▁dm
▁toJSON
▁malloc
▁exposeListener
INTER
Signal
▁Contact
▁pet
Configured
▁Promise
Media
Attr
▁setInitial
▁Mouse
ButtonEvent
▁Transport
Highlight
Jvm
MEMORY
▁GetLens
▁mc
row
FONTS
▁aFilter
▁canBe
▁LSH
StartTime
▁scores
▁idOrFullName
▁mColumnFilter
▁owasp
▁dependencycheck
▁Collator
NodeDescriptor
▁getConstraint
emptyCellModel
▁Screen
▁refreshInterval
Energy
▁may
▁ignite
▁deploy
▁lastTime
▁pass
▁marshal
sTest
▁spongepowered
Arrays
▁currTag
▁Spatial
▁getLookup
Ch
▁setPath
▁getAdmin
▁pathPrefix
▁behavior
▁lv
yphenation
▁auditFinished
mark
▁mParameterNames
▁writeData
▁CRFCliqueTree
▁DismissTop
▁Js
▁Codec
▁PostgreSQL
DATETIME
▁pageWithSelects
GENERATOR
▁mCol
Balance
ExportSettings
▁VMediaBase
TXT
▁tryEmpty
▁fluidSource
▁maxAmount
▁jobManager
▁Child
▁ALPAHBETS
▁matchNodes
▁getUnitName
▁UNRECOGNIZED
▁scanners
▁logMinimal
▁formatTs
ITY
▁streamId
▁tempFolder
▁BreadcrumbEntry
▁parseByte
▁testGetExiting
▁CSS
▁getKeyStore
ZOOM
int
ET
ResourceNameMap
▁approved
▁notEqExpr
▁miFile
Planner
▁CONTROLLER
ia
▁findAnnotation
oder
WithBackpressure
ViaException
Invocations
nullText
▁sanitize
▁NOCACHE
▁getClassifier
▁objectweb
▁asm
ments
▁ints
▁EXPR
▁le
▁typeDescriptor
▁readable
▁explosion
body
▁equationInfo
▁getEvaluator
▁eol
▁Concurrency
▁phones
▁Unknown
HALF
▁newType
▁JDBCEx
▁Device
▁kbase
▁digit
Has
Exist
Consequence
Alignment
▁newFixed
PlusPlusComments
fa
▁lonlitude
▁accountId
Beans
Pixel
▁getWrapped
INIT
Disallow
▁Reteoo
▁retries
WINDOWS
parent
▁JavaValue
▁fromJDIValue
▁EB
▁cubeName
Routing
▁defaultVal
Aligned
▁600
▁isClosed
Inteface
▁fa
▁toFinal
▁AttributeKey
▁FAILED
sonarqube
AndPatchEntry
descriptor
▁createWrapper
▁Include
la
▁PropsValues
▁UI
▁MapUtils
ChunkingCRLF
▁toSelect
▁getProfile
▁lex
▁AbfsRest
SLASH
▁expTable
ingIterator
PathProvider
▁assertEmailSend
FqName
▁Export
MessageLogged
▁mPosition
▁tPC
▁annotatetFile
▁Slice
▁clearCache
▁Immediate
jt
▁lowerIndex
▁upperIndex
▁isSolid
Mismatch
Fs
▁runManager
▁NodeUtil
▁memberselector
▁MemberSelectors
TimeoutInMs
▁visitLiteral
▁lockService
▁printState
Partial
▁getFileVersion
▁rid
▁autoDeobfuscate
ColumnNames
▁MIGRATION
▁BString
▁createRule
UID
▁columnMember
LocalServiceUtil
om
▁Ordered
▁Toolkit
▁resequencer
▁Connector
TestUtils
▁addEnviroment
▁HORIZONTAL
▁toUri
ModificatedTime
▁CLOSED
▁algorithm
▁themeDefinition
▁Symbols
Suppressed
▁operand
▁PA
CpuTimerEnabled
▁MockHttp
▁Wrappers
prefix
Put
POST
Management
▁jsonDecoder
ROOT
▁columnCount
▁Mixture
est
▁userGroupMember
▁getUpdate
▁startDate
▁accumulator
▁copyFrom
▁getPC
▁PoolBagEntry
EL
▁cellspacing
ack
▁dataList
▁Dis
▁Updating
De
▁getIntVariable
▁Drop
Lists
▁moveSelector
SECTION
▁deleteBatch
▁CTRL
▁copyOfRange
ionPolicyFactory
▁getAbstract
VersionName
Ack
▁storeName
▁reloadAll
▁Ws
EVENTS
▁mLineFilter
▁Verification
▁notifier
▁getDb
▁testRemove
▁router
▁testType
PermitedCapital
▁Split
▁JDBCSession
Fill
traits
Replicas
ObjectField
▁getDuration
▁Principal
▁setCache
▁nsp
▁outputConcept
▁testCase
▁ruleMatches
xFFFFFF
EventType
CauseMessage
▁assortments
double
▁SolrInput
OnClose
TemplateId
▁perform
▁longName
▁BrowserInfo
▁getWorker
InfoList
UserAgent
▁selectBy
▁conceptName
▁TopBar
settings
Launcher
▁Suppress
▁fqName
▁kelondroBase
▁BUILD
▁About
▁aSeverity
RootElement
▁ap
▁FST
▁JSError
ANALYSIS
▁Missing
validate
LogLevel
▁EXPIRATION
Skip
▁draw
▁inspector
▁getLocalAddress
Curly
▁oprot
▁redelivery
▁JobPlan
▁Phase
▁blank
Cookie
Vec
▁shouldSkip
▁partitionOfIds
▁LANG
▁embedded
ToStream
▁objectOrder
▁localPort
▁setProperties
▁actionType
▁localFile
▁FileType
fix
▁pdf
▁Tabular
▁createAggrgated
ResultsInstance
▁DateUtil
▁FolderInfo
▁argSpec
FSDATASET
VOLUME
CHOOSING
BALANCED
▁variableDef
▁isBlock
accumulate
▁ValueNode
▁stateAfter
▁dirList
▁EventTag
▁trash
▁ApiException
▁isAlive
▁isCache
▁shadow
▁difference
▁0.4
▁tryCatchStmt
▁removeBook
▁agendaItem
▁workingDir
▁useMessageID
Matched
▁colName
CC
▁typeDescription
Machine
▁bitCount
▁pause
DATABASE
KeyFactory
▁CRLF
▁createTest
▁Grammatical
▁fq
▁xxxtestEval
Charset
▁StampPair
▁dispatch
▁addLocal
▁editable
VS
▁RequestType
Offline
BLACK
Provided
▁Coverage
▁getWebElement
▁getPlatform
▁Max
DIGITS
▁newcrawling
CheckedException
TupleExpression
▁computeNext
Difference
NullToDefault
ExceptionHandler
Disk
▁tryConvert
ight
▁descriptorMap
▁DescriptorType
fulKnowledge
Virtual
▁SM
WorkspaceMode
▁Sharding
▁nt
▁byteArray
Snippet
▁profiling
This
▁SE
▁getSample
Bits
▁getTimeout
Handshake
▁runJQuery
▁minBy
▁cubeDesc
▁Forwarding
▁searchResult
Allocator
▁curResults
▁commitParams
UpdateCheck
▁ALWAYS
▁decision
▁optimized
logger
ErrorCode
Purpose
▁getManagement
DirectMessages
▁sys
▁arch
▁doNext
▁nr
▁RoleUser
▁remotePeer
▁Trait
Bounds
THREE
caL
▁BeanDefinition
▁UserSession
▁HOST
▁selectMap
CallbackService
Wrap
MutableTreeNode
▁lastKey
▁listIterator
▁PLUGIN
Received
▁ruleContext
▁BuilderWith
Kit
▁AUTHORIZATION
▁toDate
▁recon
▁retroactive
▁extraInfo
▁maxId
▁migr
AB
CIPHER
▁stopped
▁Direct
Fixture
MBean
ped
▁PhpClass
▁CommandSnippet
▁eventLog
▁Defaults
▁BillingMode
▁CL
▁setFlag
Notify
Coords
▁interceptors
Suspend
▁CudaContext
▁getFlow
▁prepareAction
MethodSignature
▁ioResult
▁mIllegal
nf
▁getCapability
Ptr
Tracing
▁getLs
▁Money
AFTER
▁remoteAddr
OperationType
▁excludes
▁referenceName
▁coverage
TrainingConfig
▁InputSource
RegexpChild
▁Convolution
▁thenThrow
ARGS
▁PackageConfig
▁RecyclerView
▁isIgnore
▁toe
▁errorOn
embed
▁Mappeable
Messaging
▁isDebug
▁Requirement
▁putHTML
▁Transition
▁backup
▁Fiber
▁ofType
▁aCond
▁PERIOD
▁references
▁SolverFactory
Warn
▁WeakHashMap
▁originalNode
AM
▁getVal
▁Instantiation
▁mHeaderRegexps
▁uiContext
▁dec
▁HttpPost
▁sceneCam
▁getWorkflow
▁isNot
▁opHandle
DESCRIPTOR
▁ZLBoolean
▁OperatorImpl
▁isRoot
▁1.
Inter
Frames
Requested
▁InvokerHelper
▁broadleaf
▁verifier
▁encodeAll
Subject
Alpha
▁expandDigits
Consumed
▁getProduct
▁incoming
▁workUnitState
▁MySQLGrant
Post
▁StreamEx
Cipher
▁tv
▁friendlyURLMap
▁isDigit
▁mainNode
▁getRelative
▁isVariable
AutoIncrement
▁dup
▁comments
Renderers
▁waitUntil
Sizes
▁authorizations
lambda
title
▁tov
▁isH
▁UnMapped
ColumAutoMapping
▁bConnector
▁attributeType
Appender
InSwitchCase
Zk
▁shift
MANIFEST
▁getTypeDesc
BetweenScopes
▁lineCount
▁neededRAM
▁aParentType
SingleLineIf
Toolbar
▁testRun
ContextManager
▁KeyStroke
▁ResourceManager
Occurence
▁processeedPage
▁getInvalid
▁MapSequence
Declarator
▁putString
▁BRunUtil
▁urgent
InstanceModel
▁Mqtt
▁TRACE
▁bit
CommentFix
▁841
▁present
▁ring
Assigned
pattern
▁HA
OrBuilder
sPer
Full
ibility
▁symbol
Automatic
▁solr
PROTOTYPE
▁coords
▁OPERATION
▁targetFlat
▁getClasses
Injection
▁wf
StaticMember
Illegal
▁loadLibrary
▁SimpleObject
▁connectionInfo
▁ObjectField
▁dbe
ifiers
Targets
▁jsonString
▁LibDivideU
jsixhd
Find
Shortcut
▁getSuperClass
▁ciphers
▁Insert
PING
▁reduceFunction
▁addStatement
▁LATENCY
UNSEPCIFIED
Seed
▁protocolHeader
▁configValidity
▁discovered
▁itemBias
▁regB
▁grammar
▁importedClasses
▁compressedProto
▁Route
▁Heightfield
CollisionShape
▁WINDOWPOS
▁windowPos
CarbonMessage
▁JBOSS
▁compression
▁dfs
▁setTesting
▁PASSWORD
RESULTS
▁toNanos
DescriptorFile
▁IProperty
▁idle
FOLLOW
▁pubSubNoLocal
Orientation
▁returnNull
Injector
▁KERBEROS
SERICE
▁CurrencyPair
FunctionResult
▁KieModule
▁typeID
▁clusterState
▁Expected
▁histogram
ffL
▁findById
▁Ambry
Cas
THREADS
▁0.001
▁getLanguagefor
▁NkColorf
▁Term
AGGREGATION
▁variableName
▁ConfigErrors
▁Magic
CommandOutput
▁maxDoc
▁snapshotState
▁anchorName
ider
▁ENTITY
▁crawling
▁DFLT
OPTIONS
Urls
▁cut
▁Performance
▁Interceptor
▁OS
▁methodSig
▁getDest
kiwa
Ordered
▁setJ
▁setContentType
Tail
▁pvqMethods
▁PVQ
▁CHAR
▁CoreLabel
▁getRegionName
mnemonic
PRIMARY
▁columnIdent
FromString
▁setBorder
▁SessionResult
Lat
▁vehicle
ClassNameFormat
▁TrutestedFuture
▁currentEditor
▁writerIndex
▁Stapler
▁im
▁dl
RecidReuse
▁logFile
TRANSFER
▁possible
aa
▁feePerKb
▁TurnType
▁tvar
▁getOutputStream
Wrong
Slash
▁recipients
CacheHitStores
WebElement
SUBJECT
▁getExt
Bendpoint
▁Values
ANDROID
▁initiator
▁stdout
▁drawer
▁XMLStreamReader
▁SelectionKey
▁getOrCreate
▁getCallOptions
Demo
DemoMock
EXTENTION
▁faker
▁matchesRegular
▁tableDesc
▁TemplateUtil
stop
▁Singleton
▁WMIClass
▁getThrowable
Flag
LessOrEqual
Dep
▁aPublicId
▁SERIALIZE
PRESERVE
SEPERATORS
▁ContentDomain
▁pkgName
Caption
▁CLASSPATH
▁getProxy
Bus
▁Payment
port
Nonnull
EXECUTOR
VM
▁altLanguages
▁biasGradients
Modes
▁NoOp
validation
▁applicationName
▁AND
▁dg
MUTED
▁ArgSpec
▁marshallAs
▁streamWriter
TypeMap
▁NkHandle
handle
▁TRANPARENCY
EXTGSTATE
▁converted
▁getAsSize
▁Dataset
▁coll
▁Flash
▁mainPanel
▁getBilling
▁rowKeyColumnIO
▁encodedRecord
sp
▁External
▁Heartbeat
▁jobPrefix
REG
▁IOperation
getOperand
▁loss
▁srcLine
▁Solution
Managers
▁PsiFile
WindowedCustomer
▁subsumes
Syntax
▁BasicStroke
▁4.0
Informations
▁MessageReciever
▁SetSequence
▁fromSet
FileStatus
▁sx
▁airFrance
SCHED
ocation
Good
▁getDivider
▁CachedField
▁safeDirName
samples
▁projectFile
▁firstName
CaretPosition
▁AllGroups
▁ldap
▁edit
FirstSearch
▁NEGATIVE
▁TableColumn
Dereferenced
▁TrainingTask
▁lastStop
▁cake
Tablespace
▁DBNDataSource
▁categories
BranchFree
▁materialMap
Javadoc
▁getCondition
window
▁setSslUri
▁testSelect
▁indexCount
Restore
▁HOUR
PerSecond
OAuthAccessToken
▁getAccess
▁toCompactFiles
Readers
▁FileSplit
▁pt
LimiterFactory
METADATA
▁scoreDirector
▁userDB
StaticMethod
▁getProtocolName
▁aLineNumber
▁rowBounds
Unconditional
ColumnCache
▁exporters
PreferencesIds
▁bucketIndex
MOVE
KeyMap
▁jge
PropertyFileName
▁sha
▁GUI
▁ManagedListener
HELM
▁useDis
preferList
▁servletRequest
▁goal
▁Curator
▁momentum
▁DER
▁OVRMatrix
▁gpx
▁fileStarted
▁Form
▁previouslyKnown
ReturnType
▁attempts
▁reactor
▁MoveNodesUI
▁LocalDataArea
▁MERGE
▁tableRef
▁lessThan
▁InlineMethod
▁linesRead
▁MethodVisitor
▁newFolder
▁palette
▁AssetKey
MetaStore
LookupRequest
▁way
▁addTag
▁cap
▁readFile
▁bytecode
▁Opcodes
▁getErrors
▁loadIcon
▁MacrosUtil
▁BYPASS
DISCOVERY
▁lineSeparator
▁sstable
WindowSize
▁getCompilation
▁gender
▁tmpHopp
▁rulePkg
▁getEmail
▁getEmailAddress
▁ratelimit
▁assets
▁maxThreads
▁dataSize
DigitNumber
Resolve
ViewMessages
▁Download
▁getConfigLong
Satisfied
Instanc
UniqueName
▁Galen
▁maxHeight
▁bp
▁Psd
▁ask
▁stages
SequenceNumber
▁dflt
▁explorer
fail
▁setExtended
ContentStream
▁promptText
Tokenizer
▁tokenize
▁GraphQLError
▁testGood
MissingLocation
▁DigestURI
▁VOID
▁destoryInstance
QUEUE
▁geode
▁LayoutImport
▁myCache
▁Password
▁zipFile
BALANCER
▁ResourceType
▁MetaData
InterfaceMethods
▁envelope
▁RSSFeed
▁getValueString
▁aClassDoc
project
▁LongWritable
▁training
Compiled
▁getInventories
Bag
▁isOptional
▁ctor
▁IRON
▁sitemapName
▁txTimestamp
▁BufferOrEvent
StringUtils
▁initWebArchive
▁0.3
DisplayName
▁ARTICLE
Article
▁prime
▁KnownError
▁TIMEOUT
▁whenComplete
Mechanism
▁isPre
jb
CaseSensitive
element
Country
▁getFormatter
▁Compilation
SUM
Quoted
Mixed
Requirements
ableValue
OuputSymbolsMap
CommandPlayer
IfSetOrGet
▁57
▁getUse
childCellModel
▁getHistory
▁MacrosFactory
▁mpsHomeMacros
Anonymous
▁UTC
▁BooleanClause
▁SubTableSchema
▁QUEUE
▁AbstractQuery
▁getExchangeId
▁DataType
▁soft
Undo
loader
Appropriate
▁setQuery
▁currentString
▁450
▁getRegistereds
▁getQueryFields
▁isolation
▁identation
▁cmdLine
▁CodeBlockForAlt
▁DefaultPortlet
▁textGen
▁mappingName
▁IMixin
Interpreter
▁verification
▁images
▁both
DELIMETERS
▁face
▁subscriber
▁fileSize
▁objectCache
▁addEntry
▁fixParamLabel
▁ORCScehma
▁Sums
▁sumValue
APK
BaseEffort
▁elementNode
▁getSLink
SConcept
PartExt
different
TypeOfChildren
PartEx
SortedMap
▁recordStats
▁fmd
▁crawl
▁setLabel
▁Article
CHAR
▁schedular
▁BAssertUtil
▁validateError
activation
Roots
JAR
Spatial
▁DefaultTree
▁putShort
▁AnagramClue
▁rootRegion
▁FlowRule
▁calculated
▁responses
Issues
Ticks
▁mHeader
▁getLoad
▁DoNotReport
▁tls
ToXML
▁calls
ulation
▁cfs
▁HISTORY
▁FRAME
▁migratedBpmn
▁unbind
▁DELAY
▁getToVertex
Assets
▁ArrayDeque
▁nc
▁getDirection
▁sourceforge
▁readSettings
▁localNode
▁occurrences
Distinct
Percentage
▁BoundingBox
▁ContextCarrier
▁UserInfo
▁OperatorID
▁modelPackage
▁TO
DECLARED
▁getBroadcast
StateDescriptor
numbers
Appearance
RD
▁operatorId
DELTE
▁UnknownType
▁requestedDate
▁tid
ServiceConfig
DoesNot
VoidMethod
▁jBody
age
Face
▁DataOutput
▁calcMSM
SCRIPT
JavaMethod
▁SofaRegsitry
▁registryConfig
StoreTest
Micros
▁Asset
DescriptorList
ee
▁Jme
▁divide
ATTEMPTS
▁Parent
Loc
▁autoSingularize
Sent
▁apiPackage
▁postfix
▁testNon
FileWith
▁ISeq
▁classForName
▁errorTracker
Peer
▁reuse
WS
▁getTree
ATOR
▁getRoles
▁Rtf
bed
Proposal
▁changeSet
Deprecated
Assistant
▁CheckBox
▁winner
IsPublisher
▁commandContext
▁addCommand
▁MySQLUser
▁fillAndFlip
ByteArray
ParametersItem
BIT
LoopMacro
dropout
FLUSH
▁fieldNames
▁fo
SUB
▁acceptor
▁createRowCell
▁generateAddress
ManagementAgent
▁Emitter
▁DefineBits
▁putInt
Many
Reg
Center
QueueSize
▁mapName
▁16384
▁setIs
HttpProxy
▁wBadDestDir
▁StringExercises
▁editProject
overed
▁Errors
▁idGenerator
▁reconnect
▁maybeQuote
▁ClientUI
▁invokeAll
Initialized
▁retainAll
Designation
▁getReporter
sConfig
by
Minimum
Retries
▁SYSTEM
▁storages
Checking
MarkerMessage
▁getDefaultValue
Translator
▁SoapUI
Remaining
▁filterService
▁ParserException
▁SEND
RATIO
Seq
▁getBuildV
▁67
▁keySerde
▁setCategory
▁commandExecutor
Outline
ry
art
▁newBlock
▁TabButton
Dex
ally
▁nsname
PH
▁defaultTimeout
▁Sync
▁Ticket
▁glob
▁newConfig
▁fos
▁gradle
Replica
▁cik
ViewName
Restriction
▁setCollapse
▁textLayout
▁StaticLayout
LeftOffset
RightOffset
▁getPaddingLeft
▁getPaddingRight
▁ClockUtil
▁transparent
ModelFactory
▁servers
ByType
▁sqlStatement
▁maxWait
▁fetchBytecode
COLON
▁queryName
▁maxConcurrent
ings
▁getDesc
▁bci
▁storeDir
op
▁jsonschema
▁tabTitle
Comparators
▁71
▁HttpHeaderNames
AsyncClient
▁PropertyKeys
▁blog
Paren
▁getMaxAge
Navigator
▁DeploymentUnit
▁SQLite
▁setFull
DomainNameName
▁GroovyBugError
▁onContentWriten
Hashtag
CodeHandler
▁resourceBundle
▁79
InMs
▁Use
LikeN
▁superMethod
▁writeLock
▁onResponse
▁DefaultPlugin
▁glDebugMessage
Large
ets
▁BigScore
▁dan
gerousCallTarget
▁getHostname
▁adjust
▁GraphBuilder
▁SOUL
WithBarrier
▁SEARCH
▁getAs
▁mTfs
▁tt
▁putResult
▁sup
Exclude
ManyToOne
▁getPre
Dict
▁75
▁modelClass
▁isFailure
▁addTagValue
▁ZIP
▁lastSectioName
▁Es
▁daemon
▁Transformator
▁uploadFile
▁MultipartFile
EMPTY
▁getColorSpace
▁reqType
ens
em
▁sourceObject
MA
▁testRunner
▁createUser
▁CHROME
▁IPHONE
▁valueSerializer
▁Aggregator
▁completionId
▁preflight
PK
▁ModelKeys
BookProperties
▁blockUri
▁getNodeAncestor
▁mLineSeparator
▁WORD
MT
▁thiz
My
▁ftpUrl
▁getChangeSet
▁ge
▁druid
▁ZuulMessage
RequiringNonNull
▁getUsages
sFrom
▁mCheckRegexp
▁pathsTo
SymblolsOfDeps
▁provided
▁CONSTRUCTOR
▁fullPath
▁getRightInsert
▁does
▁revert
▁toMilliseconds
▁isStrict
▁getMeta
▁Worker
Crawl
SourceProvider
▁Polynomial
Kernel
▁sourceFolder
▁ClassLoaderUtil
▁Initialization
▁maxDepth
CE
TrueOptional
▁CodeFolding
▁JsonObject
Modified
EntryPoint
▁getMillis
▁isMonitor
▁ROLLED
▁Callback
day
▁Batch
▁threadLocal
DISK
ALGORITHM
▁jumpEntry
Rest
URE
▁Rollback
▁Lawnchair
▁assignment
▁ChangeStatus
▁checkStatus
▁addToWhitelist
Sorted
▁rsw
▁currenciesMap
▁optString
Sharding
▁sortDirection
▁Define
MATCH
PEND
sCount
▁skyframe
▁assertContent
Disposition
next
Caches
Optimization
▁getInter
▁themes
▁SizeValue
QueryTest
▁draft
TabbedPane
▁elementList
▁wikiTransformer
▁makeProperty
AVM
▁ASN
ObjectIdentifier
▁isMethod
ost
Utility
▁TTY
Watch
▁TURN
▁viewable
▁mViewPager
▁getPadding
▁WHOLE
▁migratedContent
Par
IMPL
▁0.95
▁mapperService
▁getWrite
▁mJTextArea
▁getCre
▁Toast
▁usingSRTP
▁Utf
▁intervals
LI
▁minSize
Spinner
SCHEME
SERVLET
▁buildSegment
▁AprLifecycle
Enablement
ATT
▁coordinator
It
NotifyLatch
▁combine
▁waitForItem
▁systemLogger
▁Char
▁getHeaderNames
og
▁HtmlUtil
ITERATOR
▁Delegating
▁getMainFrame
▁Representation
▁applications
▁sensitiveDefaut
▁staging
UsedInClosure
ContainerType
Declared
▁getOrginalName
Backup
MEAT
REPLICA
SCAN
▁DO
▁lazyLoad
activities
▁getTimer
▁stayEnd
SortedSet
IfNotSet
TypesUtil
ModifiedDate
▁getValidator
▁getMemoryIn
▁resultsProvider
▁queryProcessor
▁tol
ans
▁baseLanguage
▁fbs
▁mAllowSameline
▁dueDate
▁getKeyStroke
ay
Orders
▁BID
Validity
▁endX
▁endY
Turn
▁DI
▁projectExplorer
▁LatLon
▁latitude
▁picker
▁stingUtf
MEDIUM
Gc
TokenTypes
ish
▁sqlSession
▁iUserName
▁wordHash
▁creationTime
▁pipelines
semicolon
template
▁eclipse
HashLength
▁mTagCheckRegexp
▁align
▁createFrom
▁EString
▁sd
▁animate
▁PatternToken
WrapTest
▁Kettle
▁pruned
Cart
▁orient
▁getW
▁prot
token
StartLine
▁creatRMClient
▁readerIndex
Bundles
NOTHING
▁getEnabled
▁strict
Footer
▁lastTerm
▁consumed
▁RECORD
EXPRESSION
▁massUpdate
breakpoint
▁clause
FileContents
Singleton
▁XxlJobLogger
▁TMP
▁cliOptions
▁CliOption
▁aRule
▁execId
▁ServiceTestUtil
▁notifyItem
▁Ribbon
SubrIndex
ObjectArray
▁wms
stitution
OPEN
▁ndx
▁typeArray
INE
UpdateTask
MSEC
▁aComments
▁RemoteException
▁isSuccess
▁getRoutes
▁getUID
▁tint
▁10_000
app
PartList
▁NAMESPACE
▁selectedNode
▁smi
▁JOYCAPS
Parameterized
▁getClazz
▁scraper
OperatorTest
▁classpathEntry
▁Kafka
STORAGE
POLICY
▁getInstruction
▁FIXED
▁Rpc
▁ADMIN
▁jmx
Documents
TypeString
less
▁checkMethod
PathQuery
▁headersSent
▁dbeaver
▁CI
Exc
▁appendChild
▁buildTarget
▁hashed
▁kelondroFlex
ASSIGMENT
▁setValues
▁getAccept
▁EvalUtils
▁HIVECONVERTJOIN
▁activemq
preferencePage
Modeler
▁iContext
BOOL
Author
▁taskManager
▁qb
▁solver
fb
▁caught
▁valueTransfer
SeqNum
BatchSize
▁JA
▁branchContains
▁fingerprint
▁messenger
▁userGroup
▁CommandExecutor
▁addFile
Zip
▁createProxy
Invalidate
MessageFormat
▁getHdfs
▁groupIds
▁markers
▁contextNode
▁GHUtility
▁friend
▁ParamGroup
▁GLM
aretPosition
▁changeLogFile
▁Extract
Qualifiers
▁xmethod
▁CONLL
SCORE
▁paramSpec
ParameterSpec
▁getDriver
CONCURRENT
NativeLib
▁nearCache
Viewer
▁STATS
▁myWarnings
pre
▁aCount
▁getIspResponse
▁Blob
▁blobServer
▁dataFile
Sameline
▁defaultCharset
lyRelatedClasses
▁projects
▁SimpleNeighbor
▁CREATED
▁testGetConstum
IdMap
▁volume
▁ticker
▁BOTTOM
▁testFile
stack
▁calculateValue
Successfully
▁setProgress
Shader
ities
▁invokeOn
▁RECEIVED
▁series
▁UNSUPPORTED
▁isCluster
▁COLOR
replacement
▁fullRepaint
▁sibling
▁responseHeaders
▁getClassPath
▁colonIndex
▁1017881
▁isShutdown
ine
▁languageId
▁isRequired
▁Reflect
StrategyLibrary
▁mx
▁configFile
▁ByteChunk
▁overflow
▁invFrame
SECOND
▁Wallet
Hide
▁Visible
IsNull
▁findNodeCell
load
▁asMap
▁useCompoundFile
▁KeyRequest
childNode
▁EMBEDDED
▁MethodHandle
ns
▁defaultAudited
▁getCFG
▁toWrite
DataException
MaterialRevision
▁createDatabase
▁fileType
DOCS
rt
▁freq
eter
Already
▁appContext
▁Is
back
bv
▁hsva
▁templateNode
▁headerName
▁replacements
▁AsyncMultiMap
▁WebgraphSchema
▁codePointAt
▁readType
▁toIndex
▁Dashboard
AndReturn
delete
MembersScope
▁xx
▁currentIndex
▁blenderContext
UsageException
▁endTag
Intent
▁Visibility
▁CM
▁MINUTE
DOUBLE
its
Signed
bytes
▁randomUUID
▁messageFormat
▁StaxEventItem
▁xxxtestQuery
▁desired
ide
ANTLR
▁De
▁ttl
Invalidation
▁setLast
▁INDENT
▁populate
▁CoreMetrics
▁Recognition
▁httpProxy
UseDigestAuth
Repair
▁GRAYLOG
auto
Revisions
▁restored
▁GroupService
▁Markup
▁EditSession
BlockChange
Degate
▁editSession
▁getGroups
▁DBP
▁KeyType
▁Launch
▁sendDelete
RequestURL
TenantCreate
▁byteCount
Bit
▁websocket
▁splitPane
UnusedThrows
▁alSource
AUXILIARY
▁withBody
▁VFS
PreviousSibling
▁known
ses
Jackson
PrimitiveTypes
AUTHENTICATION
Lang
▁needsQuotes
▁typeQualifier
Uninterruptibly
VER
TransferResult
Vertices
▁Extractor
▁getConcurrency
CandidateAnd
▁emails
▁Throwing
▁installed
▁roundAbout
ErrorHandler
▁getRootPath
▁setScale
▁asType
▁hasPositional
ecutionContext
▁deep
▁selectByKeys
FirstChild
▁Psi
Grid
Limiter
▁Compare
▁getThroughput
timeout
▁sortBy
Deployer
▁keystore
Marker
▁FOR
Integers
▁FieldDescriptor
READER
▁getDimension
▁checkC
SubTreeNode
▁jni
CONSUMER
Views
web
▁statusLabel
▁math
▁graal
▁AllView
TASK
▁psmt
▁sipAccount
LED
▁NodeWrapper
FromNode
▁fam
▁mTagMessage
▁ignor
▁getBlockX
▁getBlockY
▁testGenerate
IntentionsUtil
▁containers
▁ai
Ad
▁isE
▁DataManager
▁another
Seen
▁mergeSegments
▁mType
▁srcs
▁writeField
COMMENTS
▁mapService
▁Integration
▁LeftCurlyOption
▁rss
▁slices
entions
▁fireChannel
▁Pagination
Main
SingleNode
▁lf
FieldType
▁getModelClass
LoadBalancer
▁CiUtil
▁distributed
JoinsEnabled
▁getBill
▁CFGBuilder
▁getBlockState
▁modelNode
▁Rep
▁modify
▁BOUNDRY
▁getFee
PdfException
KeyManager
▁keyManagers
▁tablefile
▁900
▁retention
▁IMap
▁ReentrantLock
▁serverService
Secondary
▁750
Instant
▁Io
▁BValue
▁Algorithm
Streaming
▁getBuilder
▁getReport
OC
▁RegressionTree
MaxSize
▁rewrite
▁Unmodifiable
Reply
create
▁CoreMap
Mention
▁aOther
▁NoSuchProvider
▁RSSUtil
xt
▁getObjects
▁mesh
▁CONVERSION
Toolchain
Failures
STR
▁decrypt
▁deriveKey
Generators
▁newLinkedList
▁SUPER
ContentTypes
▁jdbcUrl
▁createSimple
TypeConverter
▁aLparen
MASTER
▁mtry
▁std
▁addMapping
▁errorCounter
▁sinceId
▁Buffered
▁orginal
▁UserGroup
CallExpression
▁rad
Descendant
Modify
KEYS
▁ItemType
AssetAddon
▁testutil
▁createContainer
▁NS
BACKUP
▁BLang
pro
▁mRegExp
▁positions
Locales
▁cron
▁opening
vel
▁getCCExpri
SquaredFemtos
DetailNode
Aliases
▁PREFERENCE
beta
▁poolName
▁elapsedTime
▁weakCompare
AndSet
AtOffset
▁svms
▁getExport
MetricName
▁recordsize
▁EQUALS
EQUALS
ResolveInfo
▁occ
▁nextValue
▁CacheWrapper
▁processing
orted
▁GC
▁setSeverity
▁fis
MaxCount
MustBeEmmpty
▁browse
▁getPrice
tracker
▁getLineStart
BasedMapStore
ToUse
Suggestions
▁Nio
▁formatShort
▁corre
▁getFullName
PARENTHESIS
tr
gers
Wrapping
▁ccfg
▁imFile
▁hasRemaining
▁cons
▁assertMessage
▁POS
▁LOWERED
BOCK
OT
WithoutPackage
▁PEERTYPE
▁languageIn
▁setIfNullOrTrow
▁countMatches
▁CharPool
▁AB
SelectionModel
▁Severity
TI
▁groupSettings
▁setMin
Absolute
▁DatabaseType
▁FieldParser
▁tn
▁indexDir
▁writeTroughMode
▁anchorCell
EXECUTE
▁cloned
▁MULTILINE
MismatchHandler
▁mBlock
▁Wildcard
▁plasmaWord
IndexEntry
▁getTables
▁IntBuffer
▁getInputModel
▁xGet
▁subMap
▁MockRestRequest
▁restMethod
▁jobParameters
▁FS
▁mPkgName
▁resourceManager
▁getPlane
▁insertDebt
Characteristics
▁uriAuthority
ttl
NoQuotes
▁sendfileData
▁quality
▁isLast
▁fromJson
▁lengthStr
▁mimimumSize
▁targetModel
▁itemsPerPage
▁subst
zone
▁unmarshal
▁slash
▁getExpiration
▁EAGER
COMMUNICATE
▁ColorUtil
▁hasUpdate
▁MapActivity
▁ClassLocation
▁aCharset
ut
▁setWidth
Destroy
JsonTypeInfo
▁JsonTypeInfo
▁defaultImpl
LatencyMs
Ssl
▁song
▁Left
▁git
▁handleException
▁ips
▁Admin
▁CLASSNAME
▁getApp
▁maxMerge
▁Legacy
▁hasInstance
▁textBuffer
▁httpBindServer
▁AttributeColumn
MORE
StateMap
▁mFileExtensions
▁buffersize
▁nodesize
▁fillChar
output
▁Crawl
Visited
▁isStarted
▁routeContext
▁AdminName
▁Bootstrap
▁getValueType
Images
▁5.0
TRANSFORM
▁getMain
BackgroundColor
pack
iations
▁settingsFile
▁messageListener
Tenant
▁categoryLabel
imation
▁ACL
▁invoice
when
▁det
▁tagopts
▁WMIObject
▁createBlock
▁parseTree
AndArticles
CONSTRAINT
▁lt
EqualsIgnoreCase
▁addE
ElementName
▁xpos
▁0.8
InConstructor
▁getAnd
▁minValue
FriendlyURL
▁inititate
▁webDavRequest
▁databaseMeta
▁getMemory
▁removeContainer
TokenReadings
▁verifyNo
▁coerce
▁myManager
▁getIntermediate
▁toRemove
▁CommandLineSpec
▁linked
▁getStage
▁ActiveMQ
▁cx
Binder
▁FuzzySet
▁declaringType
FF
▁matching
KeepAlive
▁dbManager
▁getDynamic
▁getLatest
Tip
ron
▁TestServiceImpl
MapValue
▁systemId
▁EL
▁getSubject
▁runTest
▁textRect
GRANTINOG
▁mColumnNo
▁Multiclass
DURATION
▁setVariables
▁getLocalFile
usesFolding
▁Inventory
Show
▁sourceStep
▁isConstant
▁getPer
ulfillmentGroup
ValueMap
▁look
▁propertyMacro
GetPropertyValue
DataSet
ElementElement
▁spliterator
▁Arithmetic
ValuesPerKey
▁setH
StorageFormat
▁WebdavStatus
▁ReferenceMap
format
▁jndi
▁isPrimary
▁ChannelFuture
▁jmsConnection
▁getReceive
message
▁slaveServer
▁EVENT
▁vURLService
▁OPTION
▁susi
▁initialState
▁JFileChooser
▁expectedValue
▁StopWatch
▁mat
▁ConsoleLogger
▁LineSeparator
General
▁isEditable
▁ChronoUnit
Minutes
SPLITER
▁snqMethods
▁SNQ
▁blackOrWhite
▁checkComment
▁SOURCECODE
▁scrapeText
FIXED
▁ant
curly
▁warehose
Subscribe
▁libraries
▁getPrev
▁getURI
Fire
▁menuBar
▁getLib
▁BufferUtil
▁DBCExecution
▁Datatype
▁printHexBinary
SECURITY
▁mImport
ToGroupList
▁getEditorOpener
▁artifacts
ible
▁outPropNs
YET
▁65535
Addresses
▁directories
OP
▁ActionConstants
MODIFY
▁isEmptyType
COMPONENT
▁contex
▁HeaderMap
▁firstChild
▁targetFieldName
▁randomFieldName
▁NamedList
TOO
▁logTable
CANNOT
JDBC
▁incremental
▁isBlank
▁PARENT
ProjectRoot
Rel
▁dv
▁BufferUtils
▁createJob
▁testAsycService
▁MotionEvent
▁getLibrary
▁ZL
▁retryCount
▁mMaximumNumber
▁Authenticate
consequence
▁getRecieverSans
IndexArgs
▁blue
Way
▁varName
▁cacheFile
DelegateTo
SUITES
AddedPortlets
▁WMI
▁splits
▁isAlways
Arch
▁newGenesisBlock
▁AppModule
▁aLength
▁nextParam
▁getVariable
▁win
Scoped
▁onThrowable
▁Atomic
▁jjtGetChild
PENDING
▁aForImport
▁icons
▁menuContent
ION
Implementation
▁minMaxDiff
▁MATCHING
FORBIDDEN
nbr
▁Str
▁removeAttribute
▁errorOuput
ress
▁getCached
InParallel
▁SigninState
SizeInBytes
▁Provider
▁getOrderItem
▁jgroups
DELTA
▁isCommited
▁completion
▁AsyncAtomicLong
old
▁registerAction
▁InvocatonTest
case
▁127
ise
▁loadResult
▁CommitFile
▁getAccount
▁reuseAddress
▁getPayload
Protected
▁lastClient
▁getValidTags
▁JavadocTagType
▁room
Conversion
▁TOO
ListType
▁cxxPlatform
bf
Deps
▁addInt
▁addressMap
▁Full
readPref
▁visitMethod
ISO
▁showError
▁EnumMap
▁ld
fr
▁fonts
▁setOn
Inflight
▁aVariable
▁accepts
▁aLiteral
COMMIT
▁byteBuffers
▁dockerDaemonUri
▁QMMetaEvent
▁ghStorage
▁JMeter
▁currentResult
▁localData
TITLE
▁highlightColor
▁styleable
setting
▁OnOffType
▁UserPreferences
Exceeded
▁getO
▁getPrimaryKey
Extract
▁renderManager
▁tpf
ForType
▁RET
▁SpanInScope
▁withSpanInScope
▁setStage
ActionItem
▁isDiscussion
▁Cursor
▁logOut
▁Fragment
▁createJobQuery
imapLocation
▁ipo
▁assertLog
▁getWithCol
CT
FilesDestination
▁templates
▁notifyBuffers
▁addTestSuite
▁banned
▁agentInstances
portalServler
IconClass
db
▁isDisabled
▁fee
TOKENIZE
SSPLIT
▁FLUSH
▁DDL
▁isTag
▁callTo
▁rnd
▁ObjectMapper
▁vertical
▁isIE
▁mainUnitStr
▁mainUnit
InMeters
▁mChecking
▁toName
JNDI
EQUAL
▁agentArgs
▁instrumentation
▁bootStrap
JarPath
▁pointers
▁BiConsumer
▁copyOnWrite
commerce
PostProcessor
Normalizer
▁BytesRef
▁policies
SlashedClassName
▁tablesScan
▁outbound
▁setColumn
Explorer
▁pieces
▁secondValue
▁addLabel
▁FileUtil
▁past
▁ZOOM
▁xStream
Needs
UNZIPPED
▁testComplex
InlineIn
Expresssions
ReplyMessage
Messasge
▁getTextContent
▁testInvalid
Manifest
CopySrcListMacro
▁sizeRatio
▁octreeLimit
▁BLACK
▁RED
▁DownloadTask
▁IEditor
▁CACHED
sub
▁getSocket
▁minor
▁major
▁setEmail
▁STICKY
▁ECPublicKey
▁getChineseSeg
Consumes
▁getTrust
STREAM
FieldNames
▁propertyType
▁getNativeData
▁directive
▁Fields
▁First
▁setResponse
▁MojoExecution
▁stripped
▁mArgs
▁intermediate
▁clusterId
▁unmodifiableSet
▁viewConfig
Eval
StreamCache
▁ConfigOption
HOP
ServerVersion
▁getProjects
▁expressions
▁VecHelper
▁bugPattern
▁TransformType
Tracer
▁sqle
AlwaysShown
▁0.74
▁0.26
stepname
Bulk
Below
ingEnabled
ExpectWarning
▁Catch
▁valueClass
▁sax
▁Choose
▁voiceName
training
▁precedence
▁offsetPath
▁objectSelector
▁getNodeById
▁asSConcept
FAMILY
▁Ex
▁2048
▁salt
page
▁ObjectVariable
ContextEntry
ServiceBuilder
▁fkName
▁actualLocation
▁ProgramPoint
▁toArrayList
▁cpt
▁redis
CONTAINS
▁DBVEntity
▁getFieldNames
▁getInternal
TRACK
ArrayComma
▁HashFactory
▁WAVDIR
▁WAVEXT
▁calcWidth
Conflict
▁protocolVersion
▁AnnotationType
▁ConstUtils
TOOL
▁arity
MethodNames
DARK
▁getResolver
▁ErrorHandler
▁pageNumber
▁subclass
Dn
PoolEnabled
▁getPreferred
▁pri
▁computeWithCtx
▁tcpNoDelay
▁statusLine
▁setCreator
▁statusError
▁billing
IMPORTS
▁quiet
▁imports
▁upperCase
Ready
▁initRegistry
▁DBPDriver
▁mCurrentFrame
ression
▁mMatchValue
▁AUTHENITCATED
SolverStatistic
▁bytesToHex
▁getTokens
Iterations
▁FINER
Ns
▁bits
entication
▁isStopped
MARKER
▁Migration
▁errorMessages
Combo
▁toLanguageId
▁typeString
Include
instance
▁schemaTable
▁UINT
▁Ad
SCHEDULER
ALLOCATION
DTO
Generate
UL
▁VirtualEdge
▁unMatch
Accessed
Iteration
▁setReadOnly
▁myRebuild
▁getEndPosition
▁childCount
Exec
TempFolder
▁myClassFQName
TableCombination
▁Indexer
▁ReplicationRole
Protection
StrippedOutput
▁UIComponent
▁FlavorImpl
▁MatrixFlavor
CounterOffset
▁resolution
▁poller
▁BaseStub
▁descriptors
dfa
OperationName
▁addressService
▁PROTECTED
WithInitializer
Prohibited
encies
Latency
BugDetails
▁routing
AnchorTag
▁aNameToFind
▁RunnerException
StartIndex
hb
▁PREFER
PARTITIAL
▁country
MacroNames
▁createInter
▁requestMethod
▁getBackup
▁comparing
EventDefinition
▁Browser
▁checkbox
▁subReaders
Team
TE
▁LeaderElection
▁wrapCommit
FileInput
▁realQueryString
Deque
▁killMe
ToUnaugmented
▁SystemProperty
Measures
▁MapperService
▁Brave
HttpHeaders
▁needsActivation
▁ofMillis
IfAbsent
▁Persist
▁mColumn
AreaSize
AnnotationSchema
▁getResponseBody
▁aModifierNode
▁DBXTreeNode
▁ClusterSpec
▁1.5
ADVANCE
▁SpongeMod
▁SERVVER
ObjectValue
▁srb
SearchRequest
AffectedIndices
▁indexRange
▁deflector
ROUTE
Slots
Offsets
MethodException
▁Disk
GroupEntries
Dom
▁Rename
▁effMinWidth
▁smallestKey
▁statements
▁ExampleService
▁FILES
EndTime
While
▁adjusted
▁canRetry
TypeDescription
Dim
Fault
▁onResult
▁Mark
▁140
▁formatDate
▁DESCRIPTION
▁testBad
▁errorString
▁ModuleReference
▁aApplyTo
▁Dom
▁INodeAdapter
▁NutConfig
▁getSend
▁torrent
▁mainClass
LOCALE
▁EventLog
▁ruleBase
▁handleRequest
▁COSString
▁tokenizer
▁tagger
▁MySQLTable
IndexColumn
Assign
▁youare
▁lastUpdate
▁WHEN
▁Attr
block
▁Cipher
▁firstStop
▁sdkHome
Me
▁editorModel
▁43.739662
▁7.424355
▁43.733802
▁7.413433
WIRING
▁WordVector
ue
▁updateMetaClass
▁MetaClass
TrustManager
▁splitLen
CommandLineArgs
▁squery
▁getXml
Profiler
culateMethod
▁getSh
▁addC
▁wordIndex
▁isTest
▁termLength
Break
▁place
▁steps
▁JUnit
▁exict
OldestUnused
SessionOnMax
▁equalsExpr
▁withDefault
SparseDataset
▁appendTextField
IntoView
PosTag
▁loadProperty
▁SHIFT
▁TIME
▁toPrintString
▁DEEP
▁aAtts
▁rollback
seed
INTERCET
▁mirror
▁getUriFragmet
▁catName
style
ByMessage
▁messageName
▁Registration
▁PostDom
▁titleMap
▁propert
▁foldFunction
Probe
▁errorColor
▁Stats
▁checkIdent
▁ClosedChannel
▁GoByCurrent
aw
▁Google
▁ForLoadedType
▁roll
▁preserveSep
ItemWriter
▁getMockEndpoint
▁PAYMENT
▁Propagation
ML
Updates
▁appendObj
▁initCause
▁revision
▁cacheName
LOGOUT
▁bus
▁ISerializer
ConfSettings
▁SortableValue
▁ERR
OnError
Js
▁confidence
chain
Installer
▁androidx
▁feed
▁DOBBO
CLASSIC
▁AMD
▁asIntReg
PROGRESS
▁Certificate
RequestData
▁baseType
ridgedMessages
Ab
▁HTTPSampler
StateChanged
Replace
▁assertContians
▁commitSuceeded
▁superType
▁fileSystem
▁currIdx
▁swt
▁Menu
▁getInterfaces
▁ListPreference
▁HeartbeatTimer
APPROVED
▁readonly
ORIGIN
▁testTrashGrand
PackageConfig
▁getSt
▁mViewHolder
▁currentFrame
▁CamelContext
▁go
▁superclassName
▁DropTarget
▁Screenshot
▁supportingFiles
▁SupportingFile
▁PEDESTRIAN
▁resultString
▁imco
.7
OrRegionName
FileExists
▁PRIMARY
▁QuickTest
AssetManager
▁different
▁PERMISSIONS
GUEST
▁Osmand
▁jndiBindings
LogMessage
▁thisExpression
Cycle
▁getConstantPool
▁closeProject
▁assertLessThan
ClassDef
▁propertyPrefix
▁boundary
▁getOverriding
generated
▁writeToTerminal
VAR
▁fLon
▁fLat
▁BaseProperty
▁Clear
▁toStringMeta
▁ii
sToRemove
▁DBWHandler
▁replyMessage
▁mRegexp
▁need
▁KMeans
▁aInt
▁WHERE
▁parExpr
▁ListIterator
ConnectorName
▁repositories
LAST
ITERATION
▁keyName
▁ISTORE
WAR
▁testAdd
Paragraph
▁erasedType
▁parameterName
sd
▁GoConfig
▁FilePath
tectionDomain
RetryCount
NODES
InstanceName
▁65536
▁mFullText
NodeCondition
cf
Thrown
▁aOption
▁PreferencesData
MPUploader
▁CEAFE
▁requestFocus
▁CppCompile
▁Messaging
TargetMethod
▁asBoolean
▁getPathInfo
▁writetable
altitude
▁beforeModel
NotFound
ROW
Encode
▁Activiti
▁transferFault
▁GoBoolean
ard
▁photo
▁completor
▁startLineNo
▁iam
ConsumerToken
▁EXPECTED
▁negate
▁DockerException
Degree
LIKE
▁1000000000
▁hasRole
BROKER
Tier
▁CubeDesc
▁onUpdateError
Quad
ResponseBody
▁ArmorProperties
▁bg
LanguageId
▁serializeFields
▁MPSTreeNode
▁ehcache
SKIP
▁ratio
▁ZSTDCompression
▁GameState
▁HazelcastJson
▁jobGraph
▁Identity
dialog
condition
act
▁FileEntry
▁blob
xFFFFFFFF
▁reccordMojo
▁Init
▁getFolderId
▁jump
▁StructuredGraph
▁Equals
▁ParseStatus
MetadataEntries
▁working
▁mapSize
▁openInputStream
Geometry
▁XContentParser
▁endpoints
▁testUn
iate
POTION
▁manifest
LoadErrors
Cons
ehcache
▁filled
▁serverUri
▁Detector
▁SQLScript
CONFIGURATION
▁getSayHello
▁Setup
▁Behavior
▁invokeVirtual
▁AM
Price
self
▁robots
Pdf
▁mInstance
▁jimple
▁localVariable
Synthesis
▁AboutEvent
▁RoaringBitmap
▁createdOn
▁ExecutionEntity
▁Draft
▁GLFW
▁colorEnd
▁pollNameServer
Inteval
▁getSkinnable
Public
json
FormatUri
▁HiveConf
PreferenceStore
▁CO
▁pathParam
▁mModuleId
▁personModel
▁getKind
▁getById
▁drivers
▁954
▁setDate
▁interfaceClass
COMPACTION
ArrayList
Pointcut
Th
ey
▁getEvents
SEVERITY
▁getFacets
▁10000000
WithDefaults
▁he
▁insertMacro
WithInvalid
▁articles
▁JournalContent
▁JournalArticle
RO
sets
▁endDelimiter
RangeQuery
▁CacheEntry
▁dumpPage
▁Typed
▁Billing
ock
▁rval
▁getSuppress
▁tnode
ConfigProperty
▁defaultConf
▁nvkCmd
UpdateBuffer
▁Fibonacci
collect
ures
▁ECKeyGeneration
▁ECDomain
▁getCurve
▁delimiters
▁pad
▁aNewLine
▁ambigousHeader
OverrideJ
▁SEMICOLON
Spring
ERR
▁getReturnType
STRATEGY
▁GfshShell
ConnectionRule
▁dateTimeFrom
wards
postfixes
Inv
▁sslReq
▁MatchSuppressor
StartTx
▁endNode
▁Tracing
IR
▁wagonCaller
▁callWagon
FeaturesFile
Intention
queryIdProperty
▁typeParam
▁getStop
SearchQuery
▁anonym
izedQueryHashes
▁getCachedClass
▁BC
PathPrefix
▁COSStream
OFF
her
▁amp
▁testng
▁setHeight
▁getParam
▁writeNamed
GL
▁NetworkInfo
NetworkInfo
sequence
▁50.0
ym
▁isMatching
▁endTuple
▁QueryIdProvider
Poller
▁Versions
SystemSession
▁NewController
▁NotAuthorized
▁askToCreateNew
▁myThis
▁mLoader
▁thisMoment
FormatTables
▁Inte
Parsing
ModelCacheBase
PAIR
▁versionInfo
▁testis
Developer
▁timeTo
▁StandardWrapper
▁toInt
JAVADOC
▁getDependets
ick
▁pb
▁worldGenerator
▁keepAuthorized
▁getTimeZone
▁ActiveRuleDao
▁newPath
▁INODE
REFRENCE
colCount
▁hasChineseSeg
▁desktop
▁getDe
▁eye
▁duplicate
INVOKE
▁eventBus
▁ssh
▁copyFromLocal
INF
▁aParamDef
▁workerCount
▁currentChild
MessageID
AtFixedRate
TokenCount
▁ILOAD
▁dlon
▁isProducer
▁TcpDefaultPanel
Gui
▁ThreadInfo
▁RuleBase
TextGen
▁getUserObjects
▁TextGenManager
▁assertHas
▁minecraft
▁getTokenNames
Grammar
TRACE
▁NettyAsync
▁matchType
▁SIMPLE
▁enclosing
▁checkClassName
DateTypeAdapter
▁Ballerina
▁resumeOn
▁Fluid
Fluid
▁sides
Coordinates
▁JSP
Fingerprint
▁testValidate
Tray
▁Constraint
▁cellBorder
▁BaseMethod
AsSeconds
▁repositoryId
▁getIntegerValue
▁pushHock
▁latestVersion
Compatiblity
Consistency
comparableTo
sorted
▁MemoryControl
▁readPos
Coord
▁getStateChange
▁FileCacheQueue
▁frameA
ContextData
NotExist
▁inFile
▁isIgnored
esting
Referent
▁showingColumns
▁WordReference
▁returnValue
▁matchedOptions
led
▁dispose
edNode
▁setLanguageIn
▁updateUser
amples
▁JsonUtils
▁fromLanguageId
▁moveScope
StepScope
▁saw
▁propertySources
▁SERVLET
▁NE
Like
▁abcList
▁ConstantPool
▁scopeStack
▁Traits
▁localReg
▁mapFiles
CLEANUP
REMOVED
▁generateValue
▁getMemberID
▁ses
▁assertSubString
▁createPrincipal
▁createArtifact
NullBody
▁Routing
▁setSession
▁BeforeSave
▁getSur
▁JsonFactory
▁isInContext
▁arrayDeclAST
▁blocking
BUNDLE
▁declare
▁processors
ysics
▁MapEntry
▁ChannelMetadata
FutureResult
▁querySemaphor
▁vals
EmptyJavadoc
▁tokenStream
▁sao
▁NetworkHandler
▁getBool
▁bagRoles
▁bufferBuilder
▁multipart
▁MultipartBody
Activate
▁ReadOnly
▁InputType
▁KeyId
SHIFT
▁Modifiable
SolrParams
▁OperatorFactory
▁getReadings
▁typeHandler
▁ENT
BetweenClob
BeforeStatements
▁editors
▁childType
▁MPSModule
▁indicator
Occured
Subsystem
Ar
Lowercase
▁searchBooks
Spider
Blog
LinkListHandler
conceptLinkList
▁cassandra
▁excluded
SETTING
▁getEncoded
▁testAStore
▁getInstanceFrom
▁nowMicros
▁orderRule
▁Increment
CLIENTIP
▁fromBuilder
▁XClass
▁JMSException
read
▁textField
Existance
▁generateRandom
▁temperature
▁getDateTime
Resposne
▁43.727687
▁7.418737
Logout
▁justNumber
▁counters
Displayed
Marshall
ViewHolder
Cert
modifiers
▁Bits
▁stringTo
▁Fast
▁requestClass
STATEMENT
▁toMap
▁ColQuery
▁DefineShape
▁GraphVertex
▁yacy
▁BindingConfig
Shards
COMP
toStringFunction
▁RECT
▁boundSql
▁Reduction
▁setSoTimeout
▁MessageConsumer
▁createConsumer
▁packageNames
flushExecutor
▁printDefect
▁booBoo
ObjectReflector
▁156865867234
LINES
▁isCompatable
▁readAck
▁prepareSearch
▁QueryBuilders
▁matchQuery
▁PHRASE
▁slop
▁getLocalPort
▁actline
▁escapeJava
IterateOver
▁detach
Sc
▁tablePrefix
IsSchema
Finished
▁RuleKey
▁SA
▁osName
▁toBinary
▁effect
▁getTransferAt
▁getSort
Solr
Audit
Buffered
▁AesGcmHkdf
ryptingChannel
▁WorldManager
▁mutate
▁DRAGON
▁Ok
Expiry
▁Cardinality
level
▁maxNum
▁CAVLC
ModelAccess
MR
▁RandomTestUtil
▁randomString
KEYSET
▁405
SericeBuilder
rs
STRUCT
▁columnMap
▁Deterministic
▁beanInfo
▁Helper
▁cdn
domain
PI
▁rlepos
wildcardTopic
▁Cassandra
StorageRule
▁ModelAccessor
TokenType
separatorText
▁getSp
▁Master
configuration
SocketFactory
▁FluxOperator
▁newScheduled
▁mapClass
▁CONCURRENT
▁fwf
▁getLastError
▁isCstyle
Overridden
▁argClasses
AndRedundant
ComparisonFinder
FromValueNumber
▁clusterService
InstanceValue
▁instanceName
▁openFile
ository
▁writeStart
current
Poll
▁addBlock
▁Reject
bt
▁addTab
▁ComponentUtils
▁escapeJQueryId
▁automatic
▁trait
FieldDefault
▁getKylin
▁MessageChannel
DISPLAY
▁RestUtils
Complex
▁mCheckFields
▁symbolPat
▁corona
▁Engine
▁drawText
ured
Rect
OnReplica
▁VersionType
▁bytecodeSet
▁numberFormat
IntDigits
▁useAdaGrad
▁getGradient
▁SimpleType
▁jarFileName
▁hsv
tree
▁aHtmlStack
▁accepted
▁startPosition
▁executorName
getExcludes
▁getIV
▁getNonce
▁getTLen
▁getIcvLen
▁propertyHolder
ubSubDomain
▁isUser
ReplacementNode
selected
▁ans
DED
▁getOffsetHeight
▁mandatoryParam
Clear
yQualifiedName
▁Conf
▁8888
PARSER
▁quotedArg
▁whitelist
MethodNamesRegex
PANEL
▁JobIdentifier
▁aImportPath
▁PlanNode
▁getUserAsAMap
▁COMPA
Registries
▁mapStore
▁edgeState
TypeOf
▁AbstractList
ExecuteMethod
LB
PostingModel
▁ContentUtils
▁PaymentInfoType
▁CREDIT
Echo
WAL
CheckerBuilder
▁otherPeer
▁idxInput
▁numBytes
▁insertChild
ActionGroup
ScriptQueries
▁subsystems
▁pathInfo
▁sortable
▁DBDDataFilter
▁ballerinalang
▁responseFuture
▁errorLocation
▁addContainerGap
▁isUn
▁filterCountByG
▁profiler
▁mForceStrict
Se
▁changes
OuputSymbols
▁errorIndicator
▁xywh
▁getInteral
▁Adapter
ContextOwner
generatedClass
▁QMMSessionInfo
bL
▁portalweb
JORUNEY
▁reverbFxSlot
EFFECT
▁exported
▁mIndentLevel
▁getRoute
▁gather
▁whiteListed
.8
▁rowSelection
▁targetEntity
▁effMaxWidth
SpanScript
▁forModel
ill
▁TimeDuration
▁dirPath
VariableState
▁logTester
Authoriatzion
▁errorPayload
▁evaluation
▁newLevelStr
▁setNameFormat
▁SMALL
▁ColorSpace
▁functionsSet
▁lu
▁setIdleTimeout
▁snap
DirPath
▁getByID
▁substractor
▁gh
▁failures
▁StaticCatalog
▁jTreeTable
▁getPerm
StatusListener
▁propertySuffix
▁Face
SelectionCursor
▁getAccent
ValueConverter
▁Virtual
cb
▁getCall
▁newEntry
struction
▁930
▁onAssembly
▁getPdfObject
▁Weak
▁myDiff
▁HealthStateType
▁CE
▁ParameterInfo
▁live
▁monitoring
▁Usages
▁addInput
▁ArrayUtil
▁indexManager
▁getPropertyType
▁enc
▁ttp
▁pathname
▁Keycloak
▁getContentFile
EditText
▁wReplayGroup
▁mItems
ItemCount
▁dur
▁findAll
stituteInfo
▁fileStatus
▁listStatus
▁includeAllJMSX
▁TaskCountBy
GroupResult
▁Pass
▁MANAGEMENT
▁ResponseTime
▁getLongitude
IGNORE
▁DefineButton
▁Work
Changelog
PAYMENT
Scanned
▁textline
▁getBook
▁numbers
▁PluginWrapper
▁runTask
▁DBRRunnableWith
▁SVR
▁pingTimer
▁TimerTask
▁traverse
▁classLoaders
▁HttpHeader
▁businessDay
GUI
INITIALIZED
UrlDB
▁Score
ImportControl
▁ActionInfo
MissingJavadoc
▁ClusteredWeb
▁EPSILON
▁vs
▁createElement
▁MAGIC
▁JSClass
▁createPattern
▁valueMeta
▁yhat
TS
▁srcDir
REPORT
▁SimpleLanguage
▁health
BuildingResult
▁effective
▁lastclick
▁checkIf
▁NumberFormat
▁minWidth
checkOnStart
Redis
▁targetServers
▁editorPane
▁textBlock
▁objectList
over
▁WEBSOCKET
▁hasEmptyLine
▁viewItem
▁rootContent
▁setProject
▁msgLog
Executed
▁Theme
▁53
▁aIgnoreFinal
AuditDepth
Uuids
▁special
▁setProcess
▁lockid
▁myTree
▁factoryMap
▁OAuthException
▁expectations
▁getBr
▁Pro
Nr
▁isJ
dk
▁QU
▁containerName
▁roleId
▁IOHelper
▁TestRunner
FONT
Cleaner
▁selectOne
▁mIgnoreOverridd
▁STARSWITH
▁getUniqueId
ALLOC
▁getObjectId
▁Aeron
▁vnaDataflow
CacheLoader
GRID
ToValue
▁incomplete
▁prevTwoChars
▁AS
▁getHelp
SectionMap
Mod
▁organizationDto
vStateSnapshot
▁getDirs
▁UNITS
ROWS
▁TFsShell
▁convertMsToDate
ationTimeMs
▁withTag
▁GAUGE
emptDictionary
▁Relevance
▁getCurrCapacity
▁hideNDD
▁camunda
▁bpm
Publish
▁ChannelHandler
▁isAprPreferred
Dump
CHANNELS
▁pathParts
VALIDATION
▁isNotebokPublic
▁getColFamily
▁existsImpl
▁isWriteOnlyImpl
▁fullCatalog
▁bindingGroup
▁inflater
Void
DurationInMs
▁columnLabel
▁speak
Toggle
▁targetStep
render
▁addM
RowMeta
▁siteId
▁OException
▁isImplemented
LoggingLevel
▁ObjectArrayList
▁cpe
▁testDocument
▁sourceId
▁Duplications
▁setLength
WORKER
▁INVOKESTATIC
▁getNeeded
PlaceHolder
ResortResolver
▁ACTIVATION
▁Undo
▁LinearLayout
menu
▁isLoading
notSetString
▁setOrdered
▁SHR
▁isNegated
▁onRecordAfter
EditorCell
▁SemanticNode
PropertySource
▁componentName
▁RequestContext
▁finest
▁DefaultJavaApp
▁boundObjects
▁fileTypes
▁getSlash
▁pubKey
Icons
▁jars
▁isType
▁Savepoint
▁GridCache
▁DAType
Leaf
Pl
KeySerializer
RobotsTxtConfig
▁TypeMissMatch
▁metaColumns
▁OConsole
▁SessionMessages
▁stringWriter
ids
place
▁PRECEDENCE
RELATIONAL
▁AssetTag
▁tagId
▁startX
MetaAnnotations
▁Host
▁shouldAppend
▁waitVisibleItem
▁clientConfig
▁mapActivity
▁navigateToPoint
▁convertedSize
▁jTextArea
verview
▁infoAnd
▁tablespaceId
▁HistoryContext
▁RF
▁getPaths
▁inside
down
▁iUserPassword
▁foundClasses
ArgSet
▁resultBuilder
▁getSourceName
▁UNAVAILABLE
▁operations
▁INSERT
WriteHandler
▁translucent
▁mHas
der
▁ODatabaseObject
TestAddress
▁BLangVMErrors
▁testGetExit
ingScheduled
DelegatesTo
▁nodeView
RootPath
Times
▁getUserTimeline
downItem
▁characterId
ClientProtocol
isedClassNode
▁ListOperations
▁terminated
ContextMenu
▁msgArgs
▁UDPATED
ConfigSet
▁avail
▁getEventsParams
UE
FMT
VE
▁sourceLocations
▁AllIcons
▁useProxy
▁shardingVO
Outer
▁propInfo
▁TxOutputCapsule
▁newTx
ling
RequestId
Knowledge
▁outputBatchSize
▁startToken
SuccessCount
EDGE
▁numWords
▁DataInfo
PageOutput
▁solrUrl
▁TObjectInt
le
▁FrameState
▁createFunction
▁sinkConfig
▁promote
reeting
Ascii
▁getDateRange
▁BatchConstants
▁LongHash
ATERIALIZEDVIEWS
▁PlayerResult
▁baseURL
PERMISSION
▁Demo
▁getInterval
▁isTarget
▁isSensibleData
Ctx
FLAGS
▁BKDWriter
▁atomicOperation
▁getChanges
▁RequestEvent
▁responseString
CapacityScore
▁balancePenalty
▁emitStatement
▁proxyHTTP
DataHandler
▁interactive
▁invokeInt
▁JTree
NewMaster
▁stopRunning
▁StepData
▁sdi
▁outEdges
HAS
▁Persistent
▁facets
▁getClassNameId
▁generateString
▁IPath
▁cars
▁CarFactory
CollectionOfCars
▁localKeySet
▁epochs
▁finalTypeParam
MergePolicy
flow
▁stringify
ANY
any
▁Weight
▁hasMessageThat
▁sameDiff
▁occurenceScore
ds
▁SolrDocument
▁mLabel
▁Relative
▁AngularTestUtil
▁findOffset
▁FormException
▁dataContainer
▁getPreference
▁Suspend
▁getTags
▁combiner
▁actualType
Concurrency
▁VertexBuffer
DOCUMENT
IDE
▁FSData
SplitTable
▁dblup
▁bj
▁isUpperCase
▁CacheKey
▁aSource
▁VizController
Expectation
▁onRecordBefore
▁scanResult
▁uncollected
Walker
HIDE
▁invokeLater
▁splitter
▁MemooryBuffer
PropertyAsURL
▁BLOGS
▁sequenceFlow
Sums
Tools
▁KILOMETERS
METERS
▁Refresh
Benchmark
Digest
▁DynamicCounter
▁filterName
▁filterType
Latest
▁sendMessage
▁nullAray
Descritor
▁emptyRealm
▁CF
▁setSpeed
▁Motherlode
▁Indices
ChildCount
▁duplicates
▁isDirectoryImpl
▁changeLog
▁PubSub
▁onErrorCall
▁JAXB
▁XmlUtils
JAXB
▁baseTypeId
ite
▁petite
Narrative
▁myBuildServer
▁chooseMethod
▁psiClass
▁pId
AbstractMethods
▁mImportFullPath
BasePath
▁getBornHost
UNMASKING
Groovy
▁loadBalance
▁weighted
▁addSequence
atioknResult
▁annotationClass
Focus
▁destory
High
▁grpc
▁TRANSPILE
▁getCheck
ForNull
Weights
▁getSubtypes
▁saveTo
▁checkSum
▁142
▁RuntimeUtils
▁subscribers
▁AddRange
▁getRootCause
▁getRevision
DOMAIN
▁ddmTtemplate
▁ddmTemplate
▁plus
▁endCol
FileHeader
▁SO
ME
▁MyState
OneWait
open
▁zh
▁TestTerminal
▁us
Cat
isApplicable
▁openStream
▁reducer
▁setLog
Reservation
▁VRSystem
▁Utilities
▁getSun
▁0.0001
.2
▁getSnapshot
▁semantic
▁Queries
▁createClass
▁ResponseMessage
▁getReasonPhrase
▁toOption
Escapes
AY
▁activeEditor
▁BakedQuad
▁GroovyTestCase
BugCollection
▁curve
▁popup
Bi
▁CheckedFunction
▁DebugScope
MovieGraph
ShouldExecute
▁RpcInternal
▁deobfuscation
ToggleButton
Promise
WorldServer
▁yesterday
▁shortTime
▁ourStructure
▁prior
▁getInvocation
▁awtEvt
points
▁getWorkspace
▁buttons
▁DBPTransaction
ModelName
▁MEGABYTE
FractionDigits
FirmwareVersion
here
▁62
▁isAvaliable
▁isRe
▁authors
▁Login
▁InfoBoxManager
▁infoBoxManager
IfExists
tl
▁callTimeout
init
▁isName
▁baseUnit
▁messageReceived
Div
PROVINCE
▁ImageLoader
MENU
SHOW
OFFLINE
▁flyweight
▁retryAndWrap
▁Se
▁CollationKey
VariableBinding
▁TimeToLive
▁unlimited
▁thenRespond
▁firstNode
JsonNodeType
▁OVRTracker
▁goalName
dis
ColumnSpec
▁proto
▁codeTable
BetweenGroups
▁allowJmsType
▁Bpmn
USED
▁INTERFACE
▁getViewport
▁getParagraph
balance
▁Print
▁calibrate
SizeByDeletes
▁tableMapper
▁chat
Prev
rate
▁geom
augeId
▁objectType
▁SearchOperation
▁defaultPoolSize
▁typeSigReader
ache
▁getCommon
▁testStepName
SlowReciever
▁isReference
dToPrimary
▁OracleDatabase
▁baseClassname
ishSpellerRule
▁Partial
Agg
LazyLoading
▁filesTo
PRO
OperateOn
▁getRegistrar
ionID
▁Section
▁userToolEntries
▁candidates
StartAsync
sToSkip
Highlighter
▁abbreviate
▁blockIds
Dialect
Quality
UND
▁lastRes
▁errorResult
▁proxyHandler
▁globFileFilter
▁DefaultServer
▁COUNTER
VisibleStatic
▁isRead
▁Flag
▁repaintAll
▁findChar
Continue
Specs
VideoPlayer
▁getConsole
UTF
▁syncAwailable
▁groupOrder
▁glyphIndex
▁BytesMetrics
▁waiters
DockerProfile
▁15000
Dirty
▁jsonEncoder
▁TraceInfoUtil
▁Ints
▁mMinimumNumber
▁Hierarchy
CIRCUIT
▁testMessanger
Until
Newline
▁potentially
rough
▁setUri
▁recognizer
▁forceRepair
▁dataCenters
focus
▁localized
Mojo
▁fromNode
ActionPerformed
▁TypeToken
▁EX
Qualified
▁checkMethodsFor
OverwritingFinal
▁ToolRunner
▁testingUtility
▁canary
▁Chrome
ableMesosWorker
▁recurrent
aller
▁getEventCount
▁oldFileVersion
AgentConfig
▁getEntry
FieldMeta
Projection
▁proj
cepted
fbbd
Tick
▁validating
Scheduling
ference
JID
▁modelFQName
Payload
ting
▁66
APIHandler
▁APIHandler
PackageRegExp
listeners
ables
▁AppVersion
Positional
▁isDependents
▁cacheStacksPath
▁getResultList
▁parentFolderId
▁canSetPreE
mptive
IVE
▁xsd
▁exist
▁radio
Serializers
▁SwaggerUtils
InvokeExpr
▁ClassResolver
▁termination
FutureListener
Regular
▁dbc
MapManager
▁Inspector
Prototype
▁actualContents
▁topoplogy
▁SEE
▁getBinary
▁XmlDumper
▁Tool
▁PDFont
▁returnStream
▁setForeground
tc
▁doSquare
MergeScheduler
▁MergeScheduler
▁ProjectSelector
EVEN
▁QueryEntry
▁applyConstraint
▁backendTl
actionMap
▁responseHeader
▁recoverAfter
INITAIL
FailureCount
Person
▁sourceTask
▁Forager
▁NEVER
▁fuseExpress
sonInto
InDarSdkLib
LocalVariable
▁isBoolean
▁simpleName
sWithSuffix
▁imgSrc
▁getScale
▁aFirst
▁getCollection
▁ccyPair
ForAccount
handlerFunction
▁keyLength
▁Hashed
▁vertx
StorageDirectory
ExtensionList
▁decoded
▁findEndOfString
▁testIf
Supports
Animations
▁350
▁lineSpacing
SWITCH
▁resolveType
▁getClassNode
▁typeParamNames
▁numExamples
▁expectedType
▁inInterfaceOr
AnnotationBlock
▁Singleline
CENTER
▁hannesdorfmann
delegates
▁NrErrFiles
AttributesKey
▁CodeInsight
ATTRIBUTES
▁GroovyObject
▁ASCII
▁RTLD
MODIFIED
▁jobExecutor
▁commmited
ReadOffsetFile
▁RUNNING
▁decodeParameter
UNWRAPER
▁qual
Do
▁getBounds
▁findField
▁just
▁currSize
▁iface
▁transciever
FileOutput
▁Guard
TIMEZONE
▁getDataContext
▁RadioPrinipal
edEntries
MarkerInterfaces
▁IValueEditor
Standalone
▁iccp
▁getByteArray
▁Excerpt
▁Verify
▁AbfsHttp
▁FORWARD
▁isNamespace
▁aCalendar
▁consumeLine
WithPrefix
▁sess
▁SPatch
▁checkers
▁RootChecker
InCurrent
▁getTh
SchemaAware
Ix
▁writeImage
▁originalText
WaitFor
▁spans
BlockInStream
InStreamSource
▁PoolUtilities
▁quietlySleep
▁packagesFolder
World
▁isF
ake
▁primitiveType
VariablePattern
▁targetPeer
ConfigDesc
Inject
PerHost
▁findClass
▁getDimensions
▁ASM
▁isWebSocket
▁ServletRequest
▁aliases
▁ZWaveScene
Dimension
▁assetCategory
PKs
JoinTable
▁LOCK
▁GENERATE
▁DAYS
FileVersion
▁dlFileVersion
▁setBinding
▁getVariables
▁graphModel
executorSetToUse
DaemonThreads
ColumnIndex
▁density
ary
▁mCounts
▁isSame
loaded
▁mousePos
▁equivilent
ASSISTANT
ConfigParams
▁lpkeFile
ReadTimeout
Canonicalization
▁getBeginLine
NEED
▁browserDetails
RootState
▁textArray
▁iterate
▁mainChest
Chest
▁NbrFail
exist
▁Compiler
Encrypted
▁minorVersion
Toolkit
COMMAND
▁hstore
▁typeNode
▁pullRequest
SHA
▁JMException
▁errorSource
▁DefaultError
▁snippetLine
MaxLength
▁SubQuery
▁fakeAppThread
▁Realm
▁getInetAddress
▁ramDir
▁Toolchain
▁detector
▁operationName
▁tmpdir
▁MASK
▁ctrl
RETRIES
ype
▁getBooleanType
BooleanValue
▁pull
▁hfile
Pitch
leted
▁AUTH
▁getNative
▁SplitTask
▁16000
▁containerConfig
▁saveSamplerData
▁Malformed
▁Unresolved
Sdk
▁sdkProfile
▁maxMemory
▁isIndexedItem
GER
OUS
stubs
Renamed
▁oldName
▁Concrete
▁isSelectable
▁SystemSchema
▁systemSchema
▁CalciteTests
SystemSchema
▁druidSchema
DataObject
ToStart
▁getMac
connect
▁but
▁prob
▁currently
▁CUL
▁Can
▁61
▁isBefore
▁newContext
▁commandline
▁DbSession
▁ptr
LOOP
loop
Continuation
▁tasksByGroups
▁SusiMind
▁Reaction
▁GRADRECORD
▁cloud
PropertyCombo
▁separatorAfter
▁conditions
▁clsName
InDunration
UnitsAsStr
▁sqlBuilder
▁LASVM
▁train
Controls
▁RuntimeCall
MoveSelector
▁FTask
▁visibility
▁keyCode
Takeover
▁DBSObjectType
▁WordCount
▁getEndTime
▁deleteModel
▁ttf
▁iterative
▁toNormalform
▁hasDefault
▁classDef
▁Aggregators
OtherBrackets
▁UPGRADE
▁mTag
ContextLoader
▁getAssetManager
▁minMem
ItemId
▁PatternRule
RESTORE
DEPTH
▁firstLeaf
▁MapSrc
▁clr
GpxFile
▁findContaining
▁Notifier
▁setAffinity
AffinityFunction
▁countByC
▁namespaceURI
▁SyntaxException
▁screenWidth
▁MeowHash
▁Nutch
▁debugEngine
▁selectByIds
▁newroot
▁mLineBreaks
▁StageViewModel
null
Arrow
▁pcode
▁createChecker
▁toHumanStrings
▁peerStatus
▁NodeScope
▁iIgnoreCache
▁getFlags
▁TaskQuery
▁Limit
SkipPolicy
▁getSk
ippableSubset
▁SLASH
EscapesFor
▁getMean
FI
▁getHtml
▁fromIterator
▁executors
SETTINGS
sMap
SetTotal
▁cname
▁fieldParser
▁Loading
▁javaMethod
edDataFrom
▁recipMap
▁columnMatch
▁lastException
▁HSA
top
met
ric
NodeType
StartsWith
▁ansi
▁setSystem
Touch
▁supressSecurity
Unknown
▁StoreVersion
bac
▁kelondroTree
▁plasmaURL
▁partitionOf
fragment
▁overwrite
▁POINT
▁yGet
▁samples
▁getSupport
Owners
▁getStatusLine
▁pushBy
uc
util
▁lastKnown
Authority
▁logWarning
Ok
Mem
▁toXML
▁isComplete
ple
▁smodelAdapter
▁getRegistered
▁algo
▁setSelectedItem
ENCE
▁withShortName
ConfigFile
▁History
▁QName
iscoreEndpoint
Bitmap
Special
▁benchmark
▁ApplicationInfo
▁getOptionName
▁suspendLocation
SortInHeap
▁operatorID
▁currentAlt
▁currentPos
▁compose
▁WDebug
▁isInsert
▁searchFilter
ToplevelToken
THRESSHOLD
▁isUncachable
▁480
SinkInfoSet
▁WizardPrefPage
▁bubble
▁ImageIO
▁tips
ie
▁isG
▁getPriority
▁shoud
▁PRIORITY
Book
PromptsFrom
▁myNodes
cellProvider
▁aC
JobName
▁fired
▁PREFERRED
▁Required
▁allDependants
▁plans
▁maxThreadCount
▁getMetricGroup
▁setTextColor
▁dimensions
RegisteredAction
▁processDecodes
▁getFatalSubset
▁adminServer
▁expandID
▁usetree
▁netflix
▁hystrix
▁HystrixCommand
▁remoteHost
▁testNonExistant
▁AnalysisPhase
▁saveStep
VisitedWeight
▁wq
▁FragmentSpread
▁NkText
▁rootDir
▁isDef
▁Encode
▁setRollover
debug
▁connnect
▁EntityUtils
▁ack
xFFFFFFFFL
▁mTreeTableModel
PositionOffset
▁columnWidths
▁formatyyyyMMdd
TableProperties
▁formatterProps
OnContainer
▁VoltTypeUtil
▁DOTALL
▁amqMsg
▁mChildren
▁Backup
▁apereo
pc
▁myContext
▁subPixelShif
DefinitionClass
occ
▁zeroOut
▁headerSize
▁otherpeerName
▁mCase
Synchronous
▁ASERVICE
▁delivery
▁souceMethod
▁HighlightedText
▁getPackageName
▁JPAOverriden
AnnotationReader
GLRMReconstrut
▁newResource
▁SuggesterConfig
▁newPostRequest
Try
▁textTos
▁filterMap
▁themeName
aging
▁deleteByQuery
word
IntanceId
▁printMessage
▁libFile
PerPage
Lightweight
▁cy
▁iterationNumber
▁maxIterations
▁rawOptionValue
Numeric
▁itemUIRegistry
▁metas
▁databases
BlockCapsule
PropertiesStore
BlockHeaderHash
▁getByteString
▁libraryModel
▁mimeMessage
▁getAb
ACCEPTABLE
DIFF
▁deliverMessage
▁setDrawBorder
▁bis
▁CasProtocol
▁menuSelected
▁StatBuckets
▁prettyUptime
▁secs
▁totalLastMsg
▁lastAccess
▁SusiCognition
INVENTORY
▁zkUtils
▁evaluator
▁RemoteStep
EventQueue
▁sn
▁updateComponets
▁firstMatching
Povider
▁getExplorer
ObjectClass
▁explanation
▁lg
▁allows
Conenctor
▁xxxtestFunction
Dist
ValueSet
DataflowAnalysis
▁crawlingStart
▁JOURNAL
▁rem
▁Case
fetchLinks
Uploaded
BackOff
TargetClass
▁certs
▁aExcludes
▁setKinematic
▁addFont
▁getFieldClass
▁getRequestURL
▁multimap
▁teardown
▁getOrd
▁childName
▁clusters
▁arrayOf
NumberOnly
▁treeItem
▁myPath
▁ThreadSafe
ous
▁objValue
▁DataSet
Day
▁mFormat
▁getJmsEndpoint
ColumnValues
SUPPLIER
LevelCombo
▁SHA
▁getZk
▁transStatus
▁getTransName
▁AssetTags
▁WidgetInfo
▁logLoadError
▁REGISTRY
Calls
Power
▁addString
He
▁An
▁ReloadUtils
▁downloadId
▁Booleans
▁defValue
▁kylin
ibiltyVersion
▁fileNames
▁entityType
▁testWith
▁childLeftTuple
sEntryRel
▁ga
▁maxDocs
▁getMPSProject
▁pathList
alternation
▁startsLine
▁testRegister
nodeFactory
▁Co
▁Paintable
▁setOrganization
▁mBar
▁NSObject
▁getLower
TIMESTAMP
Significant
▁allFiles
▁OPTIQ
▁SqlGenerator
▁SqlStatement
CuboidScheduler
MODAL
▁maxSession
▁car
▁toAbsolutePath
▁Sampling
▁heatbeatTimer
Elem
▁findLastNode
▁organizationA
▁getOrganization
▁dt
Observable
▁Decision
TextArea
aving
▁delayInMilliSec
xDependences
CommonSupertypes
DeviceRepository
▁newSeg
ObjectDialog
▁moduleUID
▁doVisitToken
▁ExecutorFilter
▁executeBatch
▁shortValue
▁UserSearchModel
MINOR
ForUser
▁outputFormat
RuntimeDeps
▁offsetY
PluginInfo
▁verifyPositive
▁MUC
▁JsonToken
▁aPreviousImport
▁getFailures
▁errorLineFiles
▁MONGO
▁getScheduler
▁Jsp
▁userList
▁recycle
Quotes
RecoveryPolicy
▁validText
▁newurl
▁setVisibility
▁GONE
▁Style
dda
xbc
cab
▁errMarker
UserSession
▁adminRealm
▁aux
▁xmlDoc
▁BothModesTest
▁Jdbc
▁statistics
▁ArgumentCaptor
▁ATag
▁INV
CALLBACK
▁uncachable
LabelAttribute
▁aThrows
▁expectBody
AsStringWith
▁getSe
▁preprocessor
UndeclaredRTE
▁DIRECT
BUFFERS
▁Transformer
▁FindBugs
▁INTER
▁SupportVector
▁maxScore
▁getApi
▁scaled
ToBuilderBuilder
▁defaultSchema
▁catalina
▁Privileged
▁Glow
DECORATION
inator
▁innerForm
ale
▁dockerConnector
▁auditLog
▁CHANGEACL
Credential
▁dataId
▁pojo
▁buildComman
ProductName
jLogger
▁_4_
HttpMessage
▁Ehcache
▁WebBrowser
Spliterator
▁130
▁tokenCredential
NoEmptyLine
BetweenFields
▁sharedBrokerMap
▁LLOAD
NE
▁caches
▁cachePath
▁getCaption
▁SDF
▁TextMessage
▁originalValue
▁specific
ner
▁proceed
▁hotreload
▁su
▁fi
▁numArcs
▁arcs
▁101
▁dotIdx
▁taskName
▁setSecure
SocketProtocol
▁pu
▁randomBoolean
▁ObjectColumn
WithDefinitions
▁SET
▁propogate
▁aInPkg
▁SessionFactory
▁CommandSpec
▁messageTag
▁executionInput
OrderOf
▁sequential
InsideStage
anSpellerRule
▁nextEpsilon
▁60010
▁Angular
Directives
Download
▁aTarget
▁SHADDING
▁unsafe
▁readByte
▁CRATE
▁NamingException
▁prefixId
▁suffixId
StatusMessage
▁CAPA
▁aRandom
▁notSameGenre
LinePart
▁dynRef
▁beginProcessing
▁LifecycleState
▁fontStyle
▁Tile
DAEMON
▁generation
▁getDefaults
▁saveTransient
Keep
▁seriesName
▁dd
▁dirText
▁dirUtt
cs
▁setRequestURI
▁FileDownloadLog
AttributeValue
▁scheduled
Most
▁getCurrencyCode
▁REFRESH
▁refenceCount
▁currThread
▁mLevel
GradView
▁bias
ExposeListener
▁convertValue
Game
▁ImmutableRo
aringBitmap
Dimensional
▁bicycle
▁BLANC
▁unset
▁wasNull
TyepLength
▁MongoClient
▁edgeFont
▁BuildException
sClient
▁sourceRepo
▁ShardId
▁latency
▁interrupt
▁getApiBaseURL
▁getMapping
▁nrInputRows
SNodeListType
▁Edit
EntryIndex
▁getStartCursor
▁setTimestamp
▁ORIENT
▁setRead
ContextProvider
populate
serted
▁messaging
▁DBCursor
Insn
▁expectedText
▁isWidgetFull
▁Multimap
▁createFastTime
OperatorIfValid
▁ModelBuilding
ANG
▁speedment
▁MUTE
▁quitely
▁9.
DDM
FluentIterable
CommentContent
Requestor
▁sourceTextArea
▁barValue
▁pfloat
OPERATOR
▁formatString
▁setDateCreated
▁lineNum
▁CONTAINS
Cnt
▁getCountByQuery
▁DistanceNode
▁stringToken
▁HStore
▁unc
BugsItem
▁fieldClass
unique
ImportsInGroup
Alphabetically
▁ensureExistance
▁IssueChange
Configure
KieContainer
▁collapsed
▁sos
SHAPEWITHSTYLE
▁936
Embedded
▁LanguageAspect
Compact
StoppedStatus
▁Writable
Calc
▁TestUtility
▁ensureTestData
▁vcs
Backpressure
▁leftTuple
Returns
Minimal
▁DEST
ColumnDescriptor
▁getMouse
OwerCursor
▁findFrame
▁voiceProvider
ByUsername
▁timeZone
showInPopup
▁forkJoinPool
▁drawOval
▁IngestDocument
▁ingestDocument
▁randomIn
gestDocument
▁tmpDir
▁taskExecutor
ToOne
▁getCloase
ListenerCallback
Replay
PROFILE
Seperator
▁ExecutionResult
Prim
▁getCloud
SP
▁dpi
▁dataSources
▁ClusterNode
▁notebook
▁PLAN
SemanticUtil
▁SharedLibrary
Splits
▁ReflectionUtils
AndWait
▁ASTNode
ConsoleEncoding
Safe
▁newindent
▁recorder
Harness
▁Sp
▁XMP
▁SITE
▁setGapRight
▁TableMapper
▁TopologyContext
▁newLeft
node
▁CAN
▁GoTo
constructor
▁QueryParser
▁IndexMetaData
▁activateLock
ToBe
▁follow
▁newProxy
ERRORS
▁setDuration
▁getErrorCount
▁getAListOfMaps
▁assignedNull
▁collectionErros
▁hasSnapshot
▁SamplesHolder
▁BiFunction
▁isEqual
RegistrationBean
▁RtfHeaderFooter
Installation
▁Flow
AgentOption
▁profilerConfig
▁pluginJars
▁participant
▁emptyBlockTest
▁managed
▁jta
▁compact
▁writeVersion
▁RemoteService
▁bbb
▁useList
ort
▁currentName
Merged
▁isNumber
▁Checker
TableKeyColumn
Called
▁clustering
▁popuplateString
bea
▁per
▁PhiNode
editorContext
▁TxInputCapsule
shutdownHook
WARNING
▁getPokemonId
Fetcher
▁ThreadUtils
▁runIn
UIThreadNoWait
tributed
▁grants
▁881
▁getJobID
oomed
▁CheckpointType
Commited
▁Notify
▁gridPane
ForNode
▁INTEGRATION
▁performInternal
▁StartupManager
▁RC
Defs
▁TextContainer
▁setOrginRequest
local
allowEmptyText
RESOURCES
▁getStep
Interpolation
▁bugCollection
▁Stock
Radius
Attached
▁mLastImport
▁MENTION
▁iClusterName
▁big
ChatPanel
▁phrases
bffd
GroupExecute
▁swagger
▁VERBOSE
▁rf
▁exampleName
▁hour
▁ListUtility
▁getVarName
▁aVariableDefAST
Thickness
▁TreeTableView
▁73
▁IPluginService
▁andExpect
▁isFailed
▁getPeer
▁dataBuffer
erOfTables
FieldBuilder
▁extend
▁siteUrl
TEMP
RELATIVE
▁loadStream
▁WSLoaderResult
AnnotationBytes
▁innerLoop
▁autoMapping
▁registerGuard
one
factor
▁Fixed
▁createTarget
▁encodingManager
▁myExtension
▁actionId
▁releaseId
▁rootPath
▁Offset
AndMetadata
▁messageJournal
▁ICONST
ClientConfigKey
▁Receive
▁updateStatus
White
▁treeIndex
AliasMapping
▁TypeDesc
DependencyGraph
▁Stat
ServiceReference
▁8.0
BraceAdjustment
▁bundles
▁throwsItem
OrTypeCast
▁createUsersWith
▁getUsed
TabsColumnNo
▁replayRequest
▁fromCollection
▁maxVersion
▁responseBody
Loops
▁GetFlash
testForFamily
▁BorderLayout
▁cacheKey
▁getEmbedded
arded
GlyphShapes
ResourceBundle
ApiModel
Hours
▁closeRegion
▁getK
▁fileParts
▁ARTIFACT
IntervalMillis
▁1678
▁4623784
▁putField
html
CH
▁endFunction
home
▁sharing
▁IDENTITY
▁Gherkin
SuppressByNo
▁gson
▁addComsumer
BASED
▁300000
Drag
▁Services
▁COMPRESSED
MinValue
▁getStatement
▁handleFailure
▁hasKey
TokenEndpoint
▁bCheck
▁doNot
▁tbaseList
InRoleCount
FlowExecutor
▁sizeSet
▁getJournal
▁tick
▁Hosted
▁isEnableJmx
▁sdf
▁catchPattern
▁resStr
ConfigProvider
▁Dispatcher
▁webIndex
▁Explorer
▁getMatch
Domains
frame
Err
▁Termination
AdminFileName
▁isVar
▁Trailing
MODEL
▁completeLatch
▁specification
▁lastToken
▁BpmnModel
▁CLRF
▁LF
▁RadiusClient
▁868
▁Graal
Futures
▁disconnectOn
NoReply
▁totalPower
Unused
MIGRATE
▁iae
▁getPeriod
SubscriptionBase
▁Note
Note
▁startScan
Population
▁FeatureToggles
NativeIndex
▁setVariation
▁Parallel
▁getFQN
InputIntMethod
▁helloWorld
▁modifiable
▁getParams
▁TxnMapRequest
▁REPLACE
Spaces
▁XA
Caller
▁rtn
▁parallelStream
▁listType
▁mScopeState
▁met
▁orderType
▁cu
▁allOf
▁ColumnUnknown
▁analytics
▁BusinessPayment
transport
▁pretty
lay
▁fakeTndex
OfThisSubtask
▁getMapper
▁exportMode
▁cgroupPrefix
Undeclared
▁indexStr
▁conditional
▁DefaultChannel
▁sqlInput
▁rho
▁getOrderBy
▁javaType
▁htmlDetection
▁Resolution
▁FP
▁PortAudio
▁captionElement
AUTHORIZATION
▁resulting
Evaluation
▁Desired
▁SAFARI
WithSyntax
Adjust
▁spdy
NP
▁getUniqueKey
▁KeyTypeEnum
▁UNIQUE
▁MIME
▁rewind
EventFactory
▁cmg
ToSwitchMapShown
▁FilterBuilder
▁isUnconditional
▁Coordinate
Editable
Indexing
▁OrganizationDto
functions
▁getErrorReport
ScrollListener
▁analyzed
Probs
▁eagerLoadingOf
▁isDynamic
▁SCMs
PropertyAsLocale
NodeListHandler
Define
Inside
▁addPlugin
▁scmWriter
▁tmpDirPath
MaxConcurrent
▁usePer
FileActionCache
Concrete
▁Snippet
TemplateCache
▁RuntimeType
▁Combo
▁BugRanker
▁getBug
▁getCallNode
ave
▁EvictionType
▁eviction
▁Rec
intion
red
▁eventHandler
▁removeImage
▁RetentionPolicy
▁catalogUpdater
▁KettleVFS
▁mnd
▁newVersion
▁checkCB
▁onCheckError
▁queryGraph
▁Subverted
▁elapsedMillis
Usages
▁parentMenu
GRANT
▁finallized
ValuesHandling
ubSubNoLocal
ElementZip
▁aColumnNo
▁insideTag
▁NameGenerator
▁schemas
▁customRoute
FileList
▁cacheEntry
▁aList
▁getQuotedSchema
▁aHandlerClass
▁ENTER
▁105
root
▁opService
▁myIs
▁Roll
▁reportMatcher
▁isLazy
▁Fetch
EntityContext
▁RefType
▁fac
MODELS
▁Question
UDPInput
▁lazyChannel
▁inputStatistics
▁TIntIntMap
▁findStopsNear
▁spt
▁getTokenName
Transacted
andContinue
▁containerId
▁withForce
Volumes
▁SceneExplorer
PropertyNames
▁toNode
▁sdtId
▁sdtAlias
Prob
▁Digest
▁GTask
▁parentSpan
▁IDEProjectFrame
▁valueArg
▁animator
▁busy
▁addToDebugLog
▁recv
REGION
ItemStack
error
▁mysema
▁testSubstract
▁sendPUTRequest
▁ArrayCreator
▁outOff
▁executable
▁Radius
▁getRows
▁checkLine
▁isDirected
▁creole
▁setAttachment
▁bugTree
Utilities
DBUnitTest
Uploading
DESTINATION
▁parseMatDef
OutputDir
▁Count
GeoLocation
FunctionTypes
return
FinishEvent
▁canSend
▁encodeToString
Markers
▁AnyMValue
▁getPom
▁isPermanent
Mul
Distruption
SchemeFromNode
▁nodeAndClient
putStream
▁0.
▁serviceBuilder
▁newRight
▁securePort
▁applyPagnition
▁queryContext
▁MethodGen
▁getMethodGen
▁positionToMinBy
▁isWritable
▁BlockingQueue
▁FinderPath
ModelImpl
bcL
▁getIp
▁IScope
▁party
Fn
▁IEditorPart
▁GRID
ATTR
▁findByC
Multipart
▁writeable
▁tempErrorText
▁bodyUriElments
▁EnvironmentMode
▁FAST
ASSERT
▁setAnnotations
▁portProperty
▁ExpiryPolicy
▁HRegion
bo
SingleLine
TagAttribues
▁filterBy
▁JVM
▁constantName
▁UnionState
ged
Scheme
▁maxValue
▁mOffset
▁compound
Deserialization
▁propFiles
Extended
Tracking
▁ClientMetadata
▁withInterface
▁accessFlags
CoreState
▁Binding
▁cumulative
▁ServerStatus
▁synteticEntry
▁BugCode
▁getNodeByObject
▁StrategyConfig
FORMATTER
Analyze
OrEqualTo
▁getSlice
▁lastLine
▁getMimeType
▁median
PROC
Overriden
▁ImportDetails
▁deferred
▁getJsonPointer
ToRoot
GenerationResult
SchemaStrategy
ProcessEngine
HeapMemory
▁invokeAny
▁myUserAccountId
▁eo
DeclarationList
DataMap
ping
▁ruleSet
UnderTest
▁totalExamples
NEGATIVE
5880.7173713096
▁540
5880.717371309
menuAlwaysShown
▁plainText
▁FastHttp
▁driverName
Lon
▁cachable
Expecation
SetName
ones
fraction
▁mes
comp
ServerError
▁positionalValue
ActionProcessor
NavigationAction
▁DBPObject
▁setPosition
▁hasEdgeType
GroupCondition
▁shouldBe
▁forceLayout
FriendlyUR
sTable
▁notifyDataSet
password
alePrice
▁setLocation
▁respStr
PerRequest
ITER
▁httpPortS
VariableName
BigInteger
▁TRANSFPORT
▁comma
▁objBlock
▁aWriter
▁returntType
▁mongo
▁ORecordId
MARKERS
▁xvel
▁MapStore
StoreCount
▁actualParams
▁Orientation
storeType
▁maxPages
PageSize
▁SVNRevision
▁Sh
▁WordVectors
▁loadGoogleModel
legacyLogging
▁midKey
▁isMap
▁updateTechin
icalInfo
▁Crypto
LIBRARY
▁codeCacheDir
▁getQualifier
Masks
▁nick
▁Cons
▁lastStatement
▁containerLog
▁putExtra
▁INVOKED
▁getSomeList
▁BlockStatement
▁initTrustStore
▁clanMember
▁canBeParent
▁canBeAncestor
▁ScoreType
▁hasPartial
▁osm
▁getStereotype
▁setGapLeft
▁testSort
▁usesAnnonymous
▁outValue
▁mCComments
▁VARCHAR
KEEPALIVE
keyword
▁customSynopsis
LogFiles
KeyBindings
Training
COMPLIANCE
▁Absolute
▁Kinesis
▁isNo
▁tblName
FormConsumer
▁aFrameStack
▁att
▁JOB
SpecifyFormat
▁ChannelBuffer
▁sdkFileName
▁setIllegal
MessageManager
▁exportImport
▁openTriView
Explicitly
▁TachyonURI
▁downloadUrl
▁outfactory
▁rawKey
▁nameWithPrefix
▁colorA
▁green
▁focus
▁getTerms
▁SearchResults
▁searchResults
▁FindUtils
▁zz
▁RandomSample
Repeater
NameChars
▁addLastFile
▁getEn
▁foldWindow
▁SSLException
ContributionItem
▁TraceContext
BasedOn
InMPS
Ts
▁LogHandler
▁isBrowser
▁educator
im
PNG
▁PNG
VALID
▁corrected
UTCTime
PRINCIPAL
LogFile
▁TemplateModule
▁unwrapped
▁hasContent
PortletId
▁ServerSocket
▁serviceMock
▁ARGB
▁hostData
▁Close
▁asImmutable
▁Enable
▁Spdy
▁CUSTOM
Attrs
▁getSourceClass
VersionUnknown
▁helperTextColor
▁VIDEO
▁distEstimation
▁mTachyonConf
edModel
▁tryCreate
ludedPackage
MAXIMUM
▁typedObject
▁never
▁Sha
NamePattern
▁TestBase
▁getFrames
▁getSim
▁lastSeen
▁torrentFile
▁TOPOLOGY
▁thenApply
Inclusion
▁setRange
▁SubEntry
▁subEntries
InterfaceType
▁mbMessage
ErrorResult
SkipListSet
▁DEFERED
▁mbeanServer
▁resultJson
▁parentConsAC
▁importantNodes
Eviction
▁nodesStats
▁getIndices
▁getEvictions
▁OptionBuilder
HandlerBuilder
▁EDGE
▁miniBatchSize
▁DBScan
▁SharedBroker
RANDOM
▁hooks
▁mTagOrder
▁dlFile
▁testsLibrary
▁addToIndex
▁PowerMockito
readOnly
▁declaredClass
▁getAngleBracket
▁onFactory
BuilderSupport
▁registerdName
▁TcpBuffered
▁newStatic
▁mStream
▁mPublicIdTo
Artifacts
Ancestors
▁getColumnFamily
▁FileSet
▁ra
RegionQueue
▁isClient
Staging
ListOfLists
▁persistant
▁isCollapse
▁getChange
▁cruiseConfig
MaxAge
▁sz
▁sessionFactory
styleSheetClass
ForSubclasses
Connectivity
▁displacement
▁IColumn
Exsisting
▁OPCODE
▁xul
▁takenTimeMs
xml
▁sound
MIME
▁typeAggrDesc
▁alSourcei
DIRECT
▁tracev
▁Conflict
Paint
ading
▁MPSProjects
▁runnable
RunConfiguration
▁Rect
▁findIds
▁rightCurly
▁IfStatement
▁NkStyleItem
▁states
▁docID
ENTER
▁ioException
AllDocsQuery
▁textHeight
▁vocabulary
▁AbstractBuild
service
AccountBase
▁standardCoder
▁beforeSendTime
PlanNode
▁PARSER
TextGUI
▁indentLevel
AccountId
CancelData
▁docId
▁oldCount
everyModel
▁340
▁extResolveInfo
▁Queued
▁SvnExternal
▁mSamePackage
▁rfc
▁SPIDER
Workers
▁aeron
the
▁922
▁parentJob
ConstantCell
▁anythingButNot
▁createStatement
▁Support
CURRENT
▁virtualId
▁addTask
▁aEx
▁CommonDataKeys
▁ConfigConstants
▁year
▁aCol
efe
ContainerPointer
▁queryType
▁FilterSet
▁ear
▁Loss
▁toBe
▁getServerName
▁encryption
Renegotiation
▁isBuiltIn
Verify
▁psiFile
▁pwd
SingletonArray
ster
▁containsAll
▁TextUtils
▁PROPERTIES
▁exponents
▁readFrom
▁trunk
rowdef
▁getColumnNumber
NameTo
adapt
BeanFactory
▁rollCycle
▁Presentation
▁mIllegalClasses
▁rot
▁typesystem
tabs
▁ExecutionEvent
sToDelete
form
FrameDecoder
▁getReason
▁GlyphException
GLYPH
▁appender
▁myRelativeCell
▁schemaVersion
▁bestState
▁cancelled
▁myGeneration
▁setSub
▁mSuppressor
▁blockId
▁setExcludeScope
SubProcess
▁superclass
write
▁glyphEntries
▁executionDate
DELAYED
▁ofPattern
▁referenceValue
▁compareValue
▁storedSource
Demarcator
▁langArray
Elevation
Skipped
▁BigramColl
▁getDepth
▁txnMap
MapProxy
▁mFrames
▁nlDataOutNodes
▁updatedDocument
Wait
lem
dInput
▁getCacheSize
CartException
▁SignatureParser
▁anim
defined
▁have
▁Creating
▁ATT
▁MutableLong
▁SideTransform
▁groupField
▁createNetwork
▁perlabelTheta
FilterBuilder
▁objectTo
▁patchSize
Foreground
▁renderJson
▁Ret
▁pin
▁ddmTemplateKey
▁FeatureSet
Queues
▁myModelName
▁54.
▁Depth
LoginHint
▁itBit
weight
▁stamp
▁VM
ja
▁ScheduledFuture
▁ASGARNIA
▁bytesTo
StreamSendWindow
▁vo
▁assertReader
▁XSizeHints
Operational
SubMenu
▁StorageTierView
▁IntAnnotation
lqiec
RecordSizeMB
▁german
▁PropsUtil
Consistent
▁Idea
▁Safe
▁831
TimestampUtc
▁getTerm
▁getAndSet
▁constituents
Annon
▁validateTree
SaveValidation
▁forChain
▁recieved
▁needClientAuth
▁Attachment
Attachment
▁pageInfo
RuleIds
ISH
▁regions
▁TrainNode
▁EmailFactory
▁MessageBox
▁newOffset
BinaryOperation
▁canApplyCtx
▁setAggFunction
▁setLanguage
▁defaultConfig
▁testMethod
▁setSort
ServiceImpl
▁AbstractRedis
▁casProperties
MessagesAsGroup
EdgeStyle
OrField
▁calledMethod
▁IFEXIST
▁setBlock
▁copied
▁ReviewDto
▁hardwareState
InfoClosure
▁buildPathList
▁RegionServer
▁mVersionFormat
▁Helix
▁ConfigAttribute
Likelihood
▁PrivilegeType
▁ClassStats
getPresentation
▁mEqualsMethods
MemorySize
oss
▁elt
▁okhttp
▁Organization
PermissionUtil
▁findServerMeter
AUTHOR
▁2200
▁getIconFor
▁resultSetNumber
NameSuppier
▁scala
▁PdePreferences
▁NameClassPair
AfterTester
▁Docker
▁messageExtBatch
▁locals
STORES
▁jumpEntries
▁SHARD
▁pastEvents
▁TransformerUI
xval
▁lmin
▁rawLightValue
Overlapping
▁ConceptMethod
iated
▁untested
spec
▁TIFF
localCache
▁cfId
CommitedWhen
▁configManager
▁Destination
▁initSeach
GuardIndex
▁modelUID
▁rawLookup
Req
WeightFactory
▁inputType
▁ObjectProperty
▁anlzr
▁EventSpy
▁slug
LineNo
▁HQL
Limits
▁isRunning
ault
▁curSplit
Milliseconds
▁findID
Linked
▁addScriptField
▁servletPath
▁BackEnum
▁JVMMEM
▁Traversing
StructureEnum
▁ZEAH
▁AtomixConfig
BufferIndex
GraphCoordinates
▁SECURITY
▁Catalan
▁infos
HOOK
Temporary
Mandatory
▁usedAsObject
▁sortOrder
▁Skill
▁JsonNode
▁allNames
▁jndiName
▁updateRegexp
▁principals
▁argumentList
▁encodeBase
▁balance
▁uniqueName
VO
JSONImpl
ProcessingTime
▁rack
▁SolrQuery
Miss
▁astNode
▁OptionKey
▁aLiteralIf
FromAST
ByTailComment
▁Render
▁numVersions
ReadAccessor
cert
Variants
FileType
▁getIntProperty
Idle
ANIMATION
▁keyPredicate
▁ZSTD
▁aDefaultFormat
▁getShortcut
▁DOWNLOAD
▁colorLight
▁bridged
AdjustTable
▁classifierType
▁coord
▁Validate
Whitelist
▁Rating
▁ToString
underlined
▁399
▁finalOffset
▁stopRequested
▁getPanel
▁IDisposable
▁crawlingIfOlder
▁ENV
▁portText
▁timerBuilder
▁expressionType
▁newSubView
▁maxErrors
InstanceFactory
▁rowHeight
UST
▁STEEL
▁queryhashes
KeyStore
NodeReferent
▁notchoose
MethodInvocation
▁UNEXPECETD
JOURNAL
▁flt
StyleSheetItem
▁maxNodes
▁hive
Draft
▁LoadBalancer
KindSummary
▁KindOfEquals
Git
▁mCtx
▁vc
▁getRplicate
MessageType
▁ClassInfoList
▁Special
▁SubjectAware
▁given
▁mockInvoker
▁willReturn
▁FieldFilter
▁Compaction
▁typeObject
▁finalResult
DefaultCodec
rows
▁getJavadocTags
Detect
▁INTERVAL
▁currentCached
▁SimpleEntry
▁Visit
▁IntTuple
▁newList
AccessToken
▁GKQuantiles
▁jmDir
ryptPassword
▁getWObject
El
EditorPart
▁createInitial
▁ScmMaterial
Push
Tiles
MeasureSpec
▁findClosest
▁ef
▁uniqueField
▁colIdx
▁createProcess
▁PowerManager
RELEASE
▁lm
train
▁modelRef
▁callPJJJPV
functionAddress
▁Next
▁Manager
▁XConfigureEvent
▁sqlParser
Generics
iculty
▁getTextValue
▁econtainer
OO
▁ForeignKey
▁Preview
▁Underlined
▁newPosition
Confirm
Archiver
XmlResource
▁JooqLogger
RepoConfig
NodeAdapter
SingularName
FormField
Styles
▁WavReader
▁PathElement
▁leftRedirect
▁facts
▁copyXML
▁FilterDto
MetaCollection
▁Highlight
▁DefaultIssue
▁seek
Histogram
NotCached
DataSources
▁CorefMention
▁Highlighter
▁recoveryStatus
Alarm
▁enqueue
▁srcA
▁ROWS
▁expandReal
Folders
ProcessorInfo
▁Paragraph
▁Lambda
▁equationManager
MethodManager
▁CvPoint
▁keyPrefix
▁totalSamples
▁institution
alWeighting
▁InsertAnalysis
▁throwError
.5
▁FadeTracker
▁getRGB
▁maxMessages
FromJavadoc
ENGLSIH
ArtifactCleanup
▁nightMode
▁UnmappedKey
▁staticMetaClass
▁ObjectSearch
▁RowBounds
▁adaptee
▁setVocabulary
▁ModelUtils
▁TreeTable
▁$$
▁HTTPServer
▁ScalaCompleter
IndexReader
Tiers
▁OriginalMeta
▁ZipInputStream
Notifier
▁Inner
▁etx
square
▁GradientTask
▁ClosingParens
▁MemoryTreebank
▁executionImpl
GroovyEditor
▁resultSetView
▁newCode
ObjectCommand
VariableConfig
▁ArtifactPlan
WebExchange
▁createEvent
▁KK
▁NK
▁NV
REQUESTS
GENERIC
▁splitKey
APPLICATION
▁RANGING
▁FBUtilities
▁BIGINT
▁useRatioInt
▁ServicesManager
▁UdpConnector
▁StageId
▁moveCaret
▁keyPattern
▁AsyncState
▁currentVertical
GapProperty
▁binder
▁isLongCategory
▁Jump
▁CompoundMatcher
▁BaseChooseNode
▁FLAVOUR
▁BITMAP
▁BoostingTask
▁Heuristic
▁nodeFont
▁Forward
▁DistanceSet
▁referentNode
idPrefix
▁MetaStoreClient
routingTable
▁findServers
▁RoutingTable
▁colon
▁SELENIUM
▁Selenium
▁ODFA
▁ActionCode
MET
▁ConfigProperty
ByUniqueId
Desired
▁anyTimes
NAVIGATOR
▁IClassPathItem
▁procedure
▁addCallMethod
▁GMSJoinLeave
TER
ophoneSet
▁needFilename
▁getNonlistChild
▁recentFiles
▁openide
▁testSet
ention
Expansion
▁SQLDatabase
PersistAction
▁getNullable
▁GraphHopper
▁Reversible
ScoreMap
▁infinispan
▁Infinispan
▁Do
▁Unable
ving
▁frameRate
▁bufOut
▁expandBelow
Star
▁getAsset
DataFlow
▁piece
▁FindbugsPlugin
▁nutz
▁168
▁ToStringBuilder
▁exeptionType
Inf
▁AlphaAscii
▁pageName
▁pageDumpPath
▁isDrawn
AndCheck
▁VersionNumber
▁PayConstant
GPS
AREA
Reflect
▁globalErrors
rink
▁month
only
ver
ifications
▁propertyNames
NoWarning
SequentialGroup
▁Localized
▁kModule
▁fixedURL
▁testShould
▁WAY
▁miPopEval
▁Back
CodePoint
▁returnObject
▁expandLetters
▁omitNull
▁RSS
BC
REFRESH
▁li
▁isModulesApp
▁cos
▁MatchingFilters
▁repoURL
ingMode
ScriptEngine
Identifiable
▁SMALLER
▁deciderScore
Decimal
▁dashboard
Inc
▁mTypeHandlers
▁mDaemo
▁afterAggregate
▁COIF
▁LEATHER
OrEvent
ChangedInternal
▁filterId
▁RuntimeCamel
Obect
▁2337
▁WebArchive
▁webArchive
DFS
▁getProjectId
▁ArticleType
▁sim
▁JSONArray
▁globalResolver
PARENT
▁toColor
▁DruidNode
▁isIs
▁ipList
docs
WriteBatchSize
▁ROOTDIR
▁getFix
OAuth
ceded
Modal
Auxiliary
▁859
▁isCanceled
▁webAppDir
▁DirectoryUtil
MenuDescriptor
LineLength
ceiver
▁stanford
▁nlp
Sampler
▁shardingsphere
▁antlr
▁ddl
▁XMLUtil
▁OSVERSIONINFOEX
NotEmpty
▁linkedin
PORTLET
▁TCPServer
▁UPPERCASE
▁SUMMARY
▁PDGNode
Interal
▁getFeature
▁tw
▁termBytesReader
▁termBytesStart
ProjectIds
▁componentIds
▁jsp
▁needsConversion
▁setRun
files
▁testOccurence
ITERATIONS
▁getChunk
▁getMulti
FN
datedData
BoList
▁panelSpider
▁ApiClient
▁getDateFormat
FP
▁mname
▁UIAssertion
▁MPSEditorOpener
▁JsonElement
▁superClassName
▁devtools
▁getQueue
▁reflective
▁ChannelBuffers
hex
Transformations
▁Ordering
▁getQueued
▁myOptinal
PROCESSES
▁GOOG
▁flatMapFn
ANALYZED
▁NodeFactory
▁authToken
aintenance
▁strokeStyle
exportImport
ConfigurationId
▁getCompany
▁COMMIT
▁supertypes
▁dlat
JarUrl
▁voicedir
▁userPage
▁getMessageFor
sOverlay
▁ClusterSettings
▁CrateSettings
▁INDICES
▁addIfNotNull
▁botToken
▁JDOQL
▁Lexer
▁getUriPattern
▁topCells
▁setNew
▁mConfiguration
▁tld
TagClass
▁setBaseDir
▁GLModel
▁toolTip
▁StringFilter
ILL
AppendState
awTaint
▁toJsonString
▁mParse
Verion
▁parserContext
pecified
▁DEFIN
▁parentGroupId
▁PluginConstants
RULESETS
▁getDevice
▁getThis
▁sendKeys
▁FooterShow
▁ingraph
Dashboard
▁setFabrics
RY
RUN
customReplace
▁Apply
left
▁isShared
Deser
▁Segmented
handlerBlock
▁AccessType
AccessType
▁sqlTime
▁setModuleId
▁DICTIONARY
▁leaderHeartbeat
▁texParam
▁getVar
▁checkAlias
▁FilePipeline
▁SubtleUtil
▁DataFlavor
▁flavors
Flavors
▁WAL
▁wal
▁ListMultimap
▁Eiscp
▁deps
▁saturn
▁queryCount
Plist
▁mpsChooser
ChefGraphEntry
iroment
Excluded
▁Sc
Accumulator
▁TestHLogUtils
Datagram
▁formatSize
IES
German
▁opType
▁issues
QuantityMillis
▁AssetClass
▁ChannelPipeline
▁plasmaParser
MimeTypes
▁setFollow
Redirects
Abbreviations
▁isFirstElement
▁isPPC
ingNode
ARY
CpuLoad
StoreRegister
▁selFile
▁scriptMode
▁gridable
▁expiration
▁mSessionId
▁testReadable
Misses
▁initTraits
AssigmentIps
DataDuplexMap
▁SystemSession
▁unitOfWork
▁opSetPers
HeaderValue
AwaitsFix
▁bugUrl
▁mIgnoreStatic
▁DYNAMIC
▁getFromVertex
▁serializedUser
▁Deque
▁isSerializeKeys
▁typeMapping
Blocking
▁paymentMethod
▁getDataBroker
RulesDirAsStream
▁getOwn
▁setLocal
▁getPh
▁aScopeName
▁setHandler
sToLoad
▁Fact
▁writeCuboid
▁cuboidHLLMap
▁frequency
Requires
ListViewAdapter
▁included
▁cellWidth
▁gutterX
▁gutterY
▁contextCarrier
▁SCHEMA
▁125
▁MAXIMUM
FREE
▁switchPos
▁getUserInfo
▁GcRep
BASEDIR
ExchangeResult
▁scannerId
▁hdf
CONSTRUCTOR
FactHandle
▁historyEvent
▁TypeHandler
▁AW
▁sts
DefinitionDto
▁sessiondId
▁lineIs
▁getModuleId
Twice
SITE
▁subsystem
BRACE
cessfulAuth
▁parentCell
▁setBasic
Accessors
ToSql
▁mCurrentLeaf
PageProcessor
TimeUnit
LANGUAGE
▁setDb
▁mMessageFormat
Tensor
▁hasAtLeastOne
WithoutId
▁ipFinder
CHARS
▁transactions
▁currentType
▁nextChar
▁searchTree
▁jsonNode
RECONNECT
▁myProperties
▁Play
KeyListener
▁mPrefs
SCALE
▁Bus
▁Separator
▁MySql
ConnectorConfig
▁43.730864
▁7.420771
Company
▁infoStream
sToBe
ash
nLanguage
opping
UB
▁DocsEnum
▁commentMatch
AsArray
▁SNodeUtil
▁initialNode
Disc
▁networkParms
▁SerializerBase
▁mMaxPackage
argument
▁hdfs
▁rtf
▁pick
Declar
▁setClicks
▁clicks
▁getRealType
▁wsl
▁getFilePath
catProc
▁parserConfig
▁Pascal
▁showInfoMessage
▁Sparse
▁nextSplits
CURSOR
Small
▁TestFailure
ICMPLE
EntriesA
EntriesB
▁maxValueA
▁treshold
▁userDetails
▁udp
▁categroies
▁CON
▁Te
▁hasExpl
▁GraphStorage
▁hopper
▁QueryBase
▁Cert
▁ClassObjectType
▁InitialFact
▁Finished
▁testAll
▁ChannelMatcher
AUT
▁testBasic
▁classDirectory
▁offline
Schedule
▁realColumnNo
JarButton
JPEG
head
PartListHandler
partList
▁focusEvaluator
▁trap
▁AbstractSide
▁Tooltip
▁lnr
▁LiveIndexWriter
CompatibleImage
▁unloadWorld
Parens
▁mut
▁RUNE
PolicyFactory
Behind
▁mpsHomePath
Socks
OutputName
IGHT
▁libPath
▁contentList
▁space
▁countLowercase
ViewGroup
▁addNew
ored
▁sendBuffer
▁Uuid
ConfigReadOnly
▁srcReplace
▁anomic
▁closeAsync
imageFile
▁des
we
▁Fetcher
▁myNonConcrete
▁smart
Append
▁InjectionTarget
InjectionTarget
▁GlobalPartition
▁setUsing
▁finallyDo
▁exceptionBuffer
▁consoleView
▁REQUIRED
SuccessResponse
THROW
▁Hooks
Each
▁typeChild
▁reconfig
▁executeRange
▁getBalance
▁RemoteDebugging
FileFinder
▁cranPackage
▁Expando
▁fromStream
▁reactive
LIFECYCLE
▁ThreadFactory
▁LocalVariable
▁ner
▁Windowed
▁SessionKeySerde
wwhitelisted
ClassLoaders
ExecutionResult
▁sandboxConfig
▁optinalGroups
▁decoderMatch
ExecutionHandler
▁isCurved
▁slistAST
Contract
▁Dex
words
▁LazyFuture
RENDER
AsInputSteam
STYPE
ruleflow
▁Osgi
▁mAuthorFormat
▁getEndOffset
▁PayloadInfo
▁MAIL
Desinations
▁JaxpConverter
▁GETSTATIC
▁getXField
▁drawNetwork
PicturePeer
▁innerradius
▁outerradius
▁puf
▁qjf
▁versionAsString
▁stepDebugMeta
▁testAnalytics
AccessHelper
▁parseDateTime
▁FsPermission
DocComments
▁helperText
ager
ClosureParams
▁logSystem
Decoration
▁getCurrentTime
▁builderForValue
▁mp
▁ambigous
▁currentStatus
▁clss
Decoded
▁softPlus
▁processLines
▁anchorext
▁sensor
▁Ejb
▁getEntityName
▁jmsTemplate
▁ContainerConfig
br
▁around
▁myF
LAR
▁XPathUtil
▁getAuthor
WillAcumulate
ListsOfValues
▁storageType
▁classLocations
▁qualifiedName
▁AsyncImplHelper
▁targetCell
▁classFile
▁scannerSupplier
▁getJavaClass
he
▁eel
▁kitchen
FE
▁testPerformance
StoreName
▁indexFile
lated
BarTheme
▁astType
▁LanguageTool
EventOccured
▁scalarType
▁imagePayload
ParameterSlot
▁lzma
FDevice
▁JSONException
ArrayField
▁getDeclaredDeps
CloseableHttp
QUARANTINE
▁quarantine
▁devices
▁paren
▁createName
ValueDescriptor
HandlerProvider
▁Substiture
▁incompleteTag
▁getTagId
MagicNumber
▁windowCss
▁primaryButton
▁COMPANY
CSS
▁MethodMatcher
▁PerceptionNE
OrException
▁downcovert
▁buildNumber
▁datasources
▁portletURL
▁mapLibraryName
LockException
▁TypeCreater
▁ElementMatcher
▁fraction
▁RoundingMode
▁HALF
bOccurredRef
▁propertyValue
▁ANSI
Registrar
do
▁SinkFunction
▁sinkFunction
ClasName
Bs
▁makeBigScore
▁domains
▁adapted
▁computeMetrics
▁GoConfigField
▁InternalHttp
run
▁propag
▁predecessor
▁TestData
TypesComponent
elementActionMap
ATURE
Memo
CHILD
NEARBY
SyntaxAllowedAs
▁getterName
DEVELOPMENT
▁subBucket
▁DefaultArtifact
▁resultCount
sqcaa
▁reverbFx
▁myType
CheckingContexts
JsonArray
▁getAsJsonObject
▁dava
▁javarep
▁definitionsJson
▁FRONT
▁SimpleString
RecyclerView
▁FormValidation
▁LocalTime
▁cascade
▁gfsh
▁sequenceFrom
▁addLeftWidget
▁createToolbar
▁doInitrospect
▁Packet
▁WaitFor
▁Newer
▁12345
AllMethods
▁memtable
mb
GRAY
▁para
▁aCharsetName
EditorPane
▁successful
▁timeouts
▁PARAMATER
▁lowIndex
▁highIndex
▁getDom
FrameTag
IL
SCANNER
▁valueSchema
SchemaId
▁verboseLogging
▁setNum
EvictionRun
▁hasAttribute
ft
▁getByName
ServerPort
Phrase
▁parseTopic
▁miNew
▁PUSH
▁hasCurlys
▁reflect
Recorder
Recording
▁getSelectedCell
▁jwkList
▁getBlob
IdentifierPart
▁mCursor
▁exceptionLength
xfe
▁getStatistics
▁NOTHING
▁findEvent
▁xpp
▁addConnector
▁isReturn
enable
▁htag
▁getLineno
▁UNCLOSED
▁OServerAdmin
▁PdfReader
▁Moco
▁DBeaverUI
SPILoader
▁expectedTypes
▁newConcurrent
▁TestBean
▁Gson
▁serverHealth
▁nodeTo
▁cue
▁textSize
▁Atom
FeedChecker
ermanyGerman
▁qa
▁registerItem
off
▁liskovsoft
▁smartyoutubetv
▁youtubeinfo
▁Supported
▁rejectValue
▁shouldNotBe
▁because
Ide
Interaction
▁XContentFactory
▁verifyZero
ProjectsMenu
Forge
▁SearchView
Homes
Parallelism
FilterCoverage
▁writeTrough
▁lastStmt
▁mockRegionInfo
▁isMetaRegion
▁ur
▁DUMMY
▁subjects
▁hasObtain
VaiAnnotatation
nt
pect
RC
▁metaColumn
ResponseTime
▁baseMethod
▁Register
PaymentMethod
ExternalKey
▁getTagName
▁getDataFilter
▁0.05
▁materials
▁minKey
TRACKER
▁kdtree
VN
NioBuffer
▁CHARSET
▁GENER
▁Bio
▁changeMonitor
▁Business
▁business
▁iid
▁IExitCode
▁getETag
▁dbroot
OnExceptionPath
▁Pkg
▁mergeWith
▁errorf
▁mAllowOneChar
VarInForLoop
▁addAsWebInf
▁ruleNode
▁credential
▁rightPart
JsonPointer
▁indexColumn
▁tailMap
▁mLast
▁maxPageSize
▁factories
Nulls
▁dropFirst
▁WM
▁isHot
▁Sn
▁nowUTC
▁evicted
▁wrong
▁COMPACT
▁WrapOption
▁DefaultSettings
▁SettingsProblem
ocial
▁asHtml
CommaDelimited
▁annotationList
IndexType
▁getMaxParams
ArgTypes
Connectors
ublish
▁succesful
▁RunT
▁openFiles
▁triggerType
GROUPS
▁rollingPolicy
▁setFileName
▁getAt
▁processResult
▁MetaDataField
▁getServerHost
ListenerAdapter
▁currentDir
▁defaultInstance
Stat
Diagnostics
▁Deoptimization
▁853
▁payments
▁setStart
▁semaphore
▁Slot
aceAdjustement
▁hashAlgs
EnabledFor
▁TCN
▁currentClazz
▁clazzPojo
▁Tx
▁onCasssandra
▁getXMLProperty
DirectoryFile
▁TestSuite
▁wikiCode
▁replaceHTML
ency
▁unass
child
ProviderImpl
▁getStreetInCity
▁getAsFloat
▁lastAnnot
▁na
▁registries
▁failureLabel
▁mScopeStates
▁lenght
DSL
ALLOCATOR
Del
HEAP
▁lowerBound
▁upperBound
▁scopename
intercept
ValueString
▁unquoted
▁dialogClassName
▁removedEdgeList
TableFile
▁getWriter
▁DefaultSolr
▁encodedString
▁hexDigits
▁excludeDotfiles
▁Sizeable
PERCENTAGE
▁deferredError
▁aContext
▁translator
POWER
▁LENGTH
QueryParser
ParagraphTag
▁mEmptyView
▁getCapacity
▁normalA
appearanceEntry
▁isSub
▁DataflowResult
▁DataflowType
▁fillRect
▁getExecution
▁textArea
▁hasErrors
Co
▁sidebar
▁Credential
▁skipHeaderLines
▁offsetX
▁readVInt
▁Battle
ActionType
SPECIAL
▁transpar
ancy
▁expiredTimes
▁setTheme
▁BACKGROUND
▁Measurement
▁auxModel
▁fare
MERGE
▁192
ErrorClass
Le
▁sslClientCert
ger
▁OServerMain
▁orchestrator
▁SDependency
sh
aker
▁Micro
▁Collision
▁getJobId
▁Conversation
moved
versation
▁mMainAst
▁speakPriority
Restricted
▁selectors
▁targetStepCombo
▁signal
▁Signal
▁setInfo
AppState
▁isDogfoodBuild
▁pSize
▁promptContainer
▁creadentials
▁Override
AndIts
▁currentGraph
▁dbId
▁similar
▁Vulner
▁getVulner
▁Marker
▁getUsers
▁calendarto
▁nRead
▁handlerAddress
▁getOptim
▁assertProton
ResourceLimits
▁0.9
▁Duplication
▁leftCurly
▁GuiButton
TimeValue
TypeSettings
gy
ConnectorError
Stable
▁styles
▁hasVariables
▁buildCommand
effective
Rename
▁TextureUtil
▁getAssetName
▁LastResort
ClassRessolver
MENT
Filler
▁testStatement
▁DefineText
▁HttpParameter
▁nNFDi
▁setMode
Leading
Callbacks
favorites
▁writes
▁observ
▁dummy
otion
FromClass
▁getOwnerAddress
▁mMaxTotal
▁PhpTokenTypes
ErrorReporter
▁representator
▁strongString
AllJMSX
▁promises
▁decoration
▁mCheckLastGroup
edClassName
Keychain
▁ITEM
▁CONNECT
▁mEachLine
▁getFailure
▁setTotal
KiloByte
▁isMy
DataDir
▁waiting
▁poms
JmsMessage
▁SelenseTimeouts
Parameterless
▁Th
▁stateBackend
Discussion
OfWeek
▁Orders
▁inMemory
GrantTypes
Approve
UNIT
StopToTurn
ActiveProb
PRIMITIVE
▁isNaN
SearchPath
▁knownDrafts
▁propname
▁itemManager
▁AstUtils
▁hasLeastOne
▁OString
SerializerHelper
▁getRawType
▁isWrapper
SIGNAL
▁PhpLanguageUtil
arshaller
ingTarget
▁fillOval
▁iDb
▁Schedule
Implements
slot
▁cardNumbers
▁definitelyNull
▁deactivate
▁buildInfo
▁identify
▁FINEST
▁provide
▁myText
PropertyJavadoc
▁seedStr
▁WEST
▁taskContext
▁buildPages
▁endOffset
▁SqlExpression
▁getUpdateCount
▁affected
▁throwValidation
▁getApiImage
▁findusages
▁optionseditor
▁iDatabase
▁getSecondary
▁102
▁153
▁cor
▁subscriptionKey
▁createModel
ifi
NameCheck
▁tinkerpop
▁blueprints
▁impls
▁sbItem
▁Xslt
▁addView
▁918
▁removeCharacter
▁DummyProcessor
▁SRV
FromFile
▁headName
▁putDouble
▁superConcept
▁Computable
▁starupBean
▁RealTimeState
OffChange
SessionIdOnLogin
▁changeSessionId
Alt
StartupRule
▁msgss
▁getMessageSet
▁prepareState
▁StepAction
▁STEP
Availability
▁ASK
▁getIdent
▁twitterStream
▁megaBytePerSec
ART
MODIFIER
▁setLimit
ert
▁PropertiesUtils
JsonObject
▁querySpec
▁noMatch
▁nextSetBit
▁maxIdle
▁reInitMeasure
▁velocity
▁zookeeper
▁withMerge
▁getIid
pm
▁termEnum
TermEnum
▁brace
▁totalLoadCount
▁getFirstNode
▁sawRead
▁NEAR
▁10.0
Contextual
▁Overlay
▁getExecutioner
▁isSupported
interface
▁KML
Selective
▁methodIndex
Export
▁testKeysList
▁putObjectField
Particip
BaseDialog
▁commandClass
▁parmValue
MapSrcListMacro
Assignement
SinkConfig
SearchPageG
▁fall
▁levIV
▁RES
IZED
Seg
▁getLive
▁executeInternal
▁myVirtual
▁typeArrayString
▁IgniteFunction
▁buildNode
▁Game
ParameterSource
▁newDto
DOCKER
▁constraintType
▁yaml
▁CRETAED
BuildRule
▁topics
▁myNodeId
FUNCTION
▁setByteValue
▁getCachePointer
▁getSharedBuffer
▁50000
ExpansionUtils
▁errorWithTrace
FromLongName
▁monos
▁mDeclaredAs
▁toIntUnsigned
▁rangeStart
BugTree
▁itemAfterFirst
Transfromation
▁Descri
▁columnNames
FrameworkOp
Corrections
ByOrder
▁SumReducer
ToOutput
Shortcuts
SEED
▁extraHeaders
Leader
▁ITridentSpout
▁nodeCount
▁144
▁cmis
▁pubspec
▁homes
▁norm
▁questionsFile
▁OperatingSystem
LastSeen
▁APR
Supertype
▁connectSkiped
▁fixture
PhaseTypeWriter
▁SEPARATOR
▁entrySize
▁isBetween
inspected
▁httpsServer
▁doTestSemaphore
ChangeWorker
ced
▁getConstraints
▁mContextStack
▁dataNode
▁pagesize
▁getTestStep
Std
▁isPipe
Modifications
▁xxxtestFact
▁ft
OUR
Parition
▁regModifiedAt
▁StaplerRequest
▁otherwise
▁ROCKS
▁TemplateRuntime
▁contexts
▁opsetClass
▁setTask
Intensity
DisplayString
▁pkt
▁getSSRC
▁autocommit
▁contextImpl
▁keyType
▁mMaxPublic
pression
▁toCollection
MICROSEC
EPOCH
▁NonNull
▁UNDERLINE
▁mapView
Aspect
CONVERTION
▁mill
Liquibase
▁realmObject
▁quant
▁DBConstants
MetaId
▁RA
portal
▁asyncWrite
PoolSize
utions
▁rowData
▁sslConfig
Actor
▁ifPresent
▁setInActive
EXPIRATION
▁buildSolver
▁pac
▁computation
▁aIgnoreOverridd
▁pluginIds
▁shuffle
▁invalidMD
▁targetProperty
▁ExpandableItem
JavaTestUtil
▁RELATED
▁RpcInvo
icationHandler
▁rpc
Low
InAutoRange
Highest
RequestProcessor
▁waitTask
▁parentId
▁yarn
▁xads
AliasesResponse
▁invok
▁javadocComment
▁topLevel
▁rawClass
ConnectionEntry
▁aConfig
▁getAggreg
▁ShouldFire
▁SPAWN
CHUNKLOAD
Matrices
Configur
Board
▁formatTest
ENDIAN
InfoBean
▁stateDesc
PackagePath
▁Compile
IZATION
▁typeParams
▁initCombos
▁TRANSPILATION
CheckForNull
ChangeLog
ChangeLogEntry
ColumnType
▁defaultPort
▁setPartition
Alphas
RelevantType
Positive
▁53.
▁getJobSnapshot
▁substract
GenerateWarning
▁Mapped
▁emory
▁mathcs
▁backport
▁showConfirm
BigDecimalList
mission
▁JarUpload
MessageHeaders
▁coderOptions
▁TOPWORDS
ServiceException
best
▁getTestType
▁rootElement
▁bundleEvent
▁LabelProvider
LaterParameter
▁getNotInTrash
BaseModelsCount
TypeQualifiers
▁LoggerLevel
▁groupByColumns
▁HIVEMA
▁mCountEmpty
▁ispResponse
▁Tokens
ven
▁asc
▁getFuture
▁RegexUtil
Subprotocol
▁unigram
▁0.99
▁csv
▁CSV
▁iConfiguration
Intag
▁updateUrl
verted
▁ARM
LINUX
ADNROIDEABI
▁getColumnCount
awnchairPrefs
▁dirty
Wanted
▁EventFactory
amage
▁stepSize
▁0.000001
▁aImportGroup
ActionContext
▁DBNProject
▁Focus
Sparse
▁ResourceNot
Persist
NameString
ClientProxy
▁bufferType
▁getFactory
▁HepProgram
▁hepPgm
▁setTitleAt
▁assertNot
▁samplers
ResourceIndex
▁dumpClass
▁searchCompleter
▁getFor
ChineseSeg
JavadocTag
▁FlinkException
▁docCount
▁RESIZE
TRIM
▁Checked
cessor
CHANGED
▁anElement
▁docsPerFetch
NodeReference
▁Minecraft
▁hamcrest
▁CoreMatchers
▁getDef
▁879
▁portalLocal
InetSockAddress
▁selectedObjects
▁JWT
▁Allocat
▁baseRegister
▁JedisCluster
▁matchPattern
▁testName
▁DummySort
▁completely
▁testSigleLine
ToH
Require
PasswordChange
FractDigits
▁soExpr
▁methodNameTo
▁ViewUtils
Transient
amp
▁contentSize
▁multiplier
BootTest
▁WebEnvironment
▁RANDOM
Reactive
▁mTabWidth
▁pageContext
▁lsh
▁createIndex
▁iName
ToPipelineMap
▁pipelineConfigs
▁callSuper
▁wh
▁hint
▁mT
▁TTL
▁xam
sWithout
Namer
▁spreadsheet
DataTypes
▁GE
▁so
▁createFromClass
▁getAllServices
▁CSVFilter
▁choice
NavButton
▁Gecko
AdapterDelegate
▁DisplayableItem
SOCKET
▁maxIndex
▁getRootClasses
FQName
encingPolicy
qu
PhoneNumber
▁interrupted
▁Searcher
▁addOperation
▁testFlux
CreateOnReques
MultipleThreads
▁getHint
Hop
▁energy
▁invDataflow
Unbounded
Protobuf
indexer
▁mSeparateLine
▁sizeSlider
▁IgniteCache
▁AopConfigration
▁condenser
▁TENANT
Past
ContentProvider
ProfileSchema
AndAfterSpan
RouteDirection
▁RR
▁gpxStr
▁mergeFactor
▁minMerge
▁maxMergeDocs
ess
▁tracking
▁testBug
▁chatRoom
▁patern
az
▁addBean
▁CompilerType
EqualEvaluator
▁StringSet
▁Failed
▁sourceStepModel
keycode
▁getTimeInMillis
▁secondaryClass
▁TypeLiteral
▁textMessage
▁Lucene
ressive
▁INTERCEPTOR
MI
AndPositions
▁myElement
▁WireInternal
OrAdvance
IfNotEmpty
▁getExceptions
▁registrationID
▁docData
▁cliqueTree
▁GZIP
NodesFor
TemplateNode
▁constrArgs
Beginning
ByC
▁Branch
▁setInit
Cors
ModelException
▁elems
▁SetWindowPos
ZORDER
▁multiMap
ForObject
▁enableAudit
▁allAttr
▁unkWord
Calendar
ListBy
Within
AllocatorTest
NotExists
ACTIONS
▁STACKOVERFLOW
▁organizationKey
▁containsEntry
▁Available
▁mFilePattern
▁genericNE
▁signaturefield
▁IntegerValue
▁EXPORT
getModule
ICMPGE
▁CheckingUtil
▁Structure
▁taskProperties
▁ValueKind
▁tmpName
▁getParameterMap
▁onListener
Constainer
▁DIS
ActivityDetail
▁Datamodel
▁makeTimeValue
▁2018
GREGORIAN
▁emptiedReal
▁getDebtSub
▁expandFromCoont
ew
ell
ery
▁setEnable
ContentsHeight
SslContext
▁getReturn
▁thisMethod
Scorer
▁BeanFactory
▁decref
▁myInflating
gree
▁registerNumber
▁TimePattern
▁toMilliSeconds
▁identifiers
▁createSelect
Breaker
▁REDUCE
Doclet
▁checkOptions
▁Chef
▁getRemoteAddr
▁formatToDateStr
▁userObject
BoardMailing
ListReader
▁newC
▁cachepath
▁isNested
▁METRIC
▁9000
TextUtil
te
▁ScopeEditor
▁defaultOptions
ime
UTC
▁setCurrentTime
▁groupService
InMillis
▁CallSite
▁AutoZoomMap
▁toSet
RuntimeCall
SLOW
InScope
▁ActionGroup
▁RedisKey
▁getSQL
▁toJSONObject
▁getLocalURL
▁beans
▁3.14
▁useUPNP
▁resourceProfile
WeightGradients
▁dLdw
GG
▁MethodCounter
posed
Outputs
▁MAN
▁48.410061
▁15.63951
▁48.411386
▁15.604899
▁testExp
Reponse
▁JSplitPane
▁getEmptyMessage
Layouts
▁inputKey
▁getCanvas
▁setOpen
▁Multipart
BigCell
▁skeleton
▁mn
▁pdfStructure
NodeInfo
BOOK
OverridingMethod
ection
MetaRegions
▁appVersion
▁funnel
▁BloomFilter
Intermediate
▁testSimple
▁getCaller
tLinkTarget
▁mInstanceFields
▁classifiers
Finalize
▁testHas
▁OObjectEntity
▁addAs
JsonDataFormat
CacheFile
AttributeString
EM
▁mApplyToPublic
▁JMX
▁visitBody
▁killBillClient
▁TerrainPatch
▁leaveFor
▁JobMeta
Inbound
▁NodeUsages
unk
▁longDescripion
▁outputRow
ALOAD
▁getNr
▁tqv
▁resultDistance
EventLoopGroup
▁transformIntent
▁DefaultFlash
▁prominent
▁gridOrder
▁BlockPos
BlockPositions
▁disableCH
▁layoutSet
▁GetMaxAperture
Vendor
▁tagInfo
▁isInheritDocTag
▁doPrivileged
▁scopeInstance
photo
rhs
▁Caffeine
QueryDetector
▁textPane
▁Force
FORCE
▁sqlTypes
▁getExitOut
▁0.25
▁Icons
erything
▁addressesConfig
▁Reflector
▁knownNull
▁newInput
▁inputNode
▁Delta
▁RAMDirectory
▁initializeState
▁mStatic
cached
Overload
▁annoationKey
▁allContexts
▁updateDeliver
lyDevice
▁NodeNameUtil
▁HighLimit
▁topIndex
▁forager
▁Pick
▁domainName
▁inputText
area
▁workers
▁unitDivisor
Forbidden
▁hasCommand
▁getAuthorities
▁getSticker
▁setProjectId
▁humanReadable
ClsName
FloatValue
▁jsonContext
▁sun
▁Ping
▁doGetInvoices
di
▁boolState
▁sqlDate
▁invokedMethod
▁registerNum
▁Vertx
▁overrides
▁QDGraphics
▁describableType
▁decodeBase
▁FrontEnd
▁SearchScope
▁addItem
▁nextNext
layoutConstraint
▁getStartTime
▁fieldWithPath
▁authPlugin
BINLOG
ceedsEmptyFor
▁LEAF
▁entryConstr
▁sliding
ritcalState
▁mts
▁43.74958
▁7.436566
▁365
▁Inline
▁receivers
▁colNo
▁splitTrainTest
BODY
▁crc
▁199
▁newDirectory
ship
▁DIARY
▁Initializing
Extends
▁tri
▁MARKER
RED
▁must
Shadow
▁confluent
▁ksql
Serde
ariser
▁PROJECTS
▁comb
▁permissions
▁ldb
IE
▁qos
▁logback
MissingFields
▁coeff
actionId
▁getBlockZ
▁jobExecution
▁LARGEST
▁titleTextField
REQUIRED
▁regexProperty
▁setDateModified
▁SRCDIR
FullName
▁wrapIfNecessary
▁mGuards
Zone
MPS
edEntry
▁modelAndView
▁setHttp
DirectMessage
UTOR
▁fsPath
▁CubeSegment
▁otherOrder
Editors
▁edgeIds
▁PH
▁textPoints
▁ClassUtils
▁loadModel
ModelPath
Reminder
▁dhtInCache
▁CliLink
▁Titan
▁innerChain
▁getConsumerInfo
CheckerRoot
▁hasCategory
eClass
▁firstValue
ingThreshold
▁structureId
▁imageType
Valued
▁DefaultHttp
StreamId
▁disableAutoType
▁Tasks
▁pagination
▁assertWarning
Basis
▁getPing
idle
▁1800000
ReadCommand
RI
ParentMethod
childConcept
Bin
▁atomicReference
▁IocObject
Nickname
Fold
▁ViewGroup
SourceFile
▁batchId
ArtistAnalyzer
▁infoMap
SignificantOctet
▁longest
▁actorSystem
InputNode
▁ofConcept
Executions
▁hasF
eref
SessionManager
ommended
MergedSegment
▁ASSERT
▁omitEmpty
▁suspendProcess
DefinitionByKey
span
Deletion
Secs
▁measureForIE
▁Family
▁scopeManager
▁converters
▁processJavadoc
▁isJobStopped
Manually
Collected
▁Strategy
▁sizeCache
▁SINGLELEVEL
▁mTts
Forward
▁getSender
▁loadGloabl
EDITS
TRANSPOSITIONS
builder
Caret
OPS
▁118
EventPool
▁preserver
OnRefresh
▁pomFile
▁CHAIN
Bind
▁serverError
Selections
DECODE
▁mColumnNumber
▁isAncestor
KeyValue
▁zos
SizeInChunks
▁unsubscribe
JsonPresentation
▁addProperties
▁inWords
KOI
▁DEPLO
ADAPTER
▁families
▁ourIDEA
OpenAPIJar
▁fromUri
▁aSrc
▁setLeft
▁BuildCraft
ClientHandler
▁PackageInfo
▁entrynode
▁getSubNodeByNr
▁targetChannel
▁InvalidData
AccessApi
▁rgbwSteps
ServiceTestUtils
▁959
▁exam
▁getMembers
ucted
▁mIgnoreComments
▁PREPARE
▁timeoutSetting
▁Subtypes
▁getChidlCount
PATCH
▁DecoderFactory
▁cipher
▁isEnum
▁URLDecode
amera
Lexicon
▁aRparen
RangeChanged
▁firstFare
expires
Ignoring
▁getPathString
▁getVirtual
▁JmePalette
▁since
▁repdir
▁IndexField
▁getAllFields
▁NotAllowed
▁trial
Tri
▁lte
▁parentElement
▁visitUnresolved
▁customModels
▁findByPeriod
▁rpcService
▁xxxtestCollect
▁newline
PrefixResult
▁getProps
▁applicationId
▁JobProperty
ial
Train
▁CALL
escape
▁omit
▁toolkit
LocalData
InfoParser
▁Blog
Mark
Jump
▁encounter
▁stackDepth
▁reserved
▁getPool
▁ServerInfo
oException
▁mReliefPattern
▁Guice
ParamsBy
▁wsRequest
▁superTypes
CONF
▁bu
▁We
▁which
▁valve
▁FF
▁updates
CollectionTable
▁getMaxId
hidden
▁sortBounds
rationMonth
▁REUSE
▁FilterOperator
▁spherical
▁setNodeMemeber
subimage
ptr
▁getSlug
▁developer
▁penalty
▁queryWith
ParametersIn
▁attributeModel
▁AppEngineName
▁sourceProperty
▁tenantContext
▁conCount
▁findOne
▁rel
▁MICRO
▁mCharset
▁COL
col
▁counsumerLatch
oot
note
Partitioner
▁rng
IntegerConverter
▁jpeg
▁assertCodesOf
NeverEnding
AtPosition
▁Evaluation
▁factoriesBy
▁checkString
HomePath
▁LeapFrog
FilterStragey
▁isServer
▁fieldCache
▁Obtain
UpperLimitValue
ItemCountAware
AtIndex
▁OPartitioned
▁ioResourceTo
▁Squale
MeasuresVisitor
▁many
▁assumptions
▁folderId
▁MessageContent
ScriptException
IMPLE
DefinitionForm
▁Zone
▁upgradeCheck
▁fontBBox
SeverityLevel
▁HOURS
▁characterSet
Servler
▁iconSmGet
▁OnSubscribe
▁observable
▁trades
▁getTrades
ENOTCONN
▁mLock
FieldRef
▁vehicleControl
DebugShape
▁blockMaster
▁FileDataByPath
▁dhtOutCache
▁mIgnoreCase
▁snode
ask
▁privileged
▁getServerId
Operands
▁newSeed
▁NioUtils
odifiable
BussinessLog
▁publication
NamespaceTag
pos
PropertiesFile
Infer
NonExistant
links
Refere
▁findByBrowser
▁ready
ceptor
NamesFor
Four
Reciever
▁databaseType
▁JDBCResultSet
▁readDataSet
▁datasetName
▁indexedValue
▁aFilterConfig
▁NETWORK
▁Candidate
▁GridColumn
PC
▁getFactAt
▁getCreateTime
▁getSpeed
Assignee
ingItem
▁RM
▁ChatPanel
▁chatPanel
▁LIGHT
▁matrixMode
▁MODELVIEW
▁JBossAsManaged
▁OP
▁trg
▁contextSize
▁directBuffer
▁metadataOffset
▁openBook
TCP
NODELAY
▁getExtended
sheet
▁ALT
▁unableTo
▁scaledWidth
▁testAS
DirectEdit
ingOneRecursive
▁iContent
▁indexSettings
UIJob
SeqId
▁sa
▁graphBuilder
▁PrefixFormatter
▁storm
ClusterState
ConfigApplier
▁BaseResource
ConfigAppllier
▁ELIST
Rid
PRESENT
eleted
WithTimestamp
▁decorate
▁CYAN
▁buckets
▁114
▁isPrimitiveType
UrlParser
▁setSearchFacet
▁searchFacet
▁tempDir
OLD
▁tType
▁urlConnection
▁issuesIn
▁attrSpace
XMethod
▁isUrgent
▁synpred
▁tunnel
▁procedures
▁jobStatusFuture
▁fsInfo
▁CommonXaPool
▁IMigrationUnit
Fumpqe
XH
▁NOW
▁basePath
▁testCharacter
SplitWithMult
itpleLetters
▁potentialLeak
▁topBar
▁floatToIntBits
▁prefTweakPort
▁getBeanFactory
▁getSerialized
▁SUN
filters
▁toFullString
IntentionAction
DriverService
HmdDesc
SIGNS
▁fakeRepository
fer
▁rev
LocalMemory
STANDARD
Terminate
▁Multiline
▁OsmorcFacet
▁addCharacter
▁maxBusySessions
Fps
Allocated
attributes
▁fixViewPager
▁isTopLevel
▁ord
Confidence
▁MEDIUM
▁returnApply
▁statusParam
▁fromXField
▁xfield
▁MessageBuffer
▁isJobExecution
INACTIVITY
▁persister
▁DOMAIN
▁getUriString
GATEWAY
ingPush
backReader
▁SourcePosition
lib
salience
▁authenticated
TwoWait
▁loadDelombok
IDS
NONDUST
▁Annotated
▁109
▁jsonDelQ
▁ACCUMULATE
ACCUMULATE
▁fullUserUrl
▁mDispatcher
▁aDispatcher
▁exectuor
▁Return
store
▁UseDefAnalyzer
▁filterForRule
AndTokenRefs
▁sortFields
▁accFields
▁myResultModel
Decorators
▁isCheckedOutBy
▁setCharset
ebd
▁visitAnd
Met
▁checkMissing
InOrder
ClassDeclaration
▁ZLTextEntry
▁getEntries
▁mLineWrapping
▁ListViewAdapter
▁Suspendable
▁loadedRegister
ODE
ultaneous
▁listenerInfo
▁openListener
▁hasOnlyPrivate
IDs
▁artist
▁displayPath
▁GraphPart
Jumps
▁pane
IntegerValue
▁ListenerTester
▁ValidationBean
▁validationBean
▁GIT
▁NM
KV
▁ObjectHub
▁randomKey
▁StrUtil
▁getParseInfo
▁ProjectBuild
SPLIT
▁ItemListener
PrimaryColor
▁nextSibling
▁Jsons
▁AnAction
▁PRIVILEGED
▁messageStirng
▁nonBlankCount
Net
▁isLowSurrogate
▁moduleName
▁violation
▁HashEntry
▁INITIAL
▁autoQuoting
▁cfgService
ChannelHandler
▁ToolWindow
▁fullCalleeURI
transformation
▁commandO
ableType
▁newDoc
▁assortment
▁myRole
wh
▁addBottom
▁handleClose
mmetric
PB
baseLanguage
forall
▁detailEvent
▁`
▁qProfile
ilent
▁getMessageWidth
Potential
Loaders
▁setF
▁asSet
▁keyProperty
Widths
HHmm
▁configFuture
▁timeoutMills
▁getApprox
▁getACL
▁getCreated
▁disconnected
▁timout
catch
executed
BytesAnd
▁timeBytes
edUrls
▁BuiltIn
▁ParseArg
resource
Because
Trash
▁colDesc
▁myChange
▁ypos
▁ScoreDefinition
▁setBottom
▁pagetop
Rep
ied
▁IDLE
▁getErrorString
▁getHttp
▁getAllPaths
Countour
▁multiply
reverse
▁sourceMethod
▁0.6
ipEndTime
▁ruleMatch
▁adj
▁SOCKET
▁attempt
▁worldToCanvas
▁zOffset
▁fireModels
▁Ntlm
EngineException
ictions
DynamicRule
▁DefaultUdc
VersionForUDC
▁VarNode
▁pag
▁numSubtasks
InvocationCount
▁Snake
▁MARK
▁messager
▁aElement
▁986
▁PREFS
▁weightsExpected
▁builders
Dialogs
TimeSeries
▁createSet
Intefaces
▁constValue
xffff
▁gav
▁measures
▁pf
▁uv
▁isInGlobal
ln
▁dirFor
▁getMetaAccess
▁propertyCombo
WeakReference
▁crawler
▁crawlQueues
ificant
▁getPause
▁AMULET
▁BODY
▁maxDiffMS
▁enums
▁getSymbol
▁interceptType
querystring
sOf
▁foundCell
predicate
Encodings
▁LPAREN
IfAllCharacters
▁En
▁totalCount
GrantingTicket
className
▁mFileName
Outbound
▁parentShell
Acceptor
▁cognitions
▁getCognitions
▁inventory
▁createBroker
▁kafka
▁mValidateThrows
▁ProducerRecord
▁MBeanServer
▁getLocalHost
▁autotune
▁tps
▁ActionChain
▁getStoreByName
REFRESHING
▁globalSettings
▁Hit
▁globalAuth
Configures
▁dependencyGraph
▁getPhaseScope
fectMinimumScore
▁BadRequest
▁exs
SUR
Alg
▁pub
▁viewPanel
▁revalidate
▁ThreadContext
▁AUDIO
FRACT
▁Backward
▁nvdCveInfo
▁bytesWritten
pon
▁setExcludes
▁searchCount
▁getOrDefault
▁76
igidBody
▁enetityTokens
▁requestURL
▁0.75
▁PreferencePage
▁parseQuery
▁aFiles
▁EntityBuilder
▁sat
▁cameraDistance
▁getBackground
▁memberName
SHIELD
▁xxxtestLiteral
▁createXField
Queryable
▁zrangeByLex
Lenenc
EmptyStream
▁inputManager
▁isCursor
▁getButtonIndex
this
Precompiled
OnAll
▁dlFolder
Checksum
encrypted
SHOT
▁preHandle
▁HASMAP
BaseModel
▁Csv
▁HashAlgorithm
Containers
ClusterKey
▁stripHtml
▁isInvisible
▁CHATBOX
▁SMethodBuilder
odifiers
Privileges
▁initialCapacity
COMPRESS
▁webRoot
DetailsLabel
▁addCognition
▁cognition
▁codeValue
system
inal
▁BaseService
▁fileURI
OnSingle
▁reAddLeft
▁ORecordLazySet
▁matchTag
▁Bibtex
Sloppy
▁Reactor
▁getAsTime
keys
▁GrpcUtil
▁np
update
white
black
▁uptimediff
▁getWeight
si
Concat
Keyed
▁printInfo
▁mainLabel
▁coreName
▁aBuffer
▁mMaxProtected
▁timespan
▁cbuf
▁CommandMessage
▁CharType
▁countNewlines
▁headerFragment
▁lhsFragment
▁checkHeader
▁CODEC
▁JDialog
ListenUri
▁wants
RPCSummarFill
▁getFileContents
▁Auth
▁expecting
▁timedOut
▁failureDetector
▁visitMethodDef
▁Upgrade
▁downstream
▁componentKey
▁CharBuffer
▁isStrictFP
gre
▁URLClassLoader
▁isEx
OperatingSystems
▁When
▁MAVEN
ools
▁NamedEntityTag
▁getMultiname
Under
▁getSymbolicName
▁mMinimum
▁Background
▁SOLID
▁configURL
illed
▁MULTIPLE
▁doFinal
▁leftSide
EditorInHistory
Drawer
▁ToolEntryTable
▁srcB
▁setVal
pp
▁recordSize
COMMA
▁SH
▁78
▁0.00000001
▁conceptFQName
▁shiro
TreeMap
▁Documents
▁destinationPath
▁stallMinSpeed
▁colorsRad
▁TestEngine
▁basename
▁mutex
▁FileBasedIndex
▁TRAIT
▁kl
Tap
utation
▁birthday
▁CSVReader
▁sassyDesc
▁plasmaCrawl
ChildSampler
OfFiltered
PipelineProps
MANY
STAGES
▁encodings
DRIVER
▁NEWTAnimator
▁getProgress
▁joined
▁COOKIE
ClientId
InBuffer
OutBuffer
lement
▁referOrdestroy
▁getAttachment
Classifiers
▁DefaultTemplate
▁Arguments
▁trees
▁severityLevel
verityLevel
has
Ui
▁COLUMNS
▁nvl
▁Drawable
▁myRemote
▁Mojo
▁iOutput
PolicyDatabase
▁opensaml
▁xmlsec
▁DefaultSecurity
▁contextName
Density
▁GameObject
▁loadFromSelf
ness
▁resized
Round
stone
▁maxPostSize
▁numClasses
que
nterFormStream
▁pg
▁defaultFont
ALE
CANCEL
▁putBytes
PARTS
▁findProduct
▁commmandName
NOTIFY
NUMS
▁mapstore
▁MapStoreTest
▁DefaultAcls
▁createClient
Concern
▁ToolkitStore
AE
ChildNodes
▁retryOnConflict
Migrating
ationRequestOp
▁isLoadable
▁ItemWriter
measure
IndexDivisor
▁Synchronization
▁CompiledValue
▁IoUtil
▁dataDir
▁displayNum
▁sharedBroker
Compile
OnStartup
▁JspUtil
AcceptOnMatch
Iterators
▁operationId
PropertyAsBinary
▁DEAFULT
▁getExplicitely
▁validators
def
▁procedureName
▁TRAVERSE
▁primarySource
▁getContents
Ops
PARTITIONS
▁SUS
atation
▁groupDN
▁cacheDir
▁getCacheDir
▁fileLock
▁testFor
Syncron
▁snippets
DataNodes
▁mReferenced
HyperlinkUpdate
▁setTxQuert
▁DefaultModel
MadePrimay
verified
queue
▁toRequest
▁messageStr
▁addTitle
▁gridRow
▁IMPLEMENTATION
▁arrayType
▁childWatches
▁readFromNBT
▁stepinfo
DP
▁passed
▁Wagon
FieldBiningsAnd
▁MR
▁ServerName
▁isNumeric
▁firstRow
ReturnTag
▁byteBuf
▁getInstanceId
ARD
Pkgs
ub
task
▁colorMode
▁hasPartialTag
▁buildRequest
▁ArrayCreation
BILITY
Was
RowCell
▁setState
▁important
▁getRandom
▁writeBoolean
▁ITarget
AUTHENTIC
▁instream
LogReader
desc
▁AsyncLock
▁mapData
▁newtEvt
ACTIVITY
▁Awaitility
▁waitAt
▁getChildrenSize
▁getWAL
▁addModuleFile
▁iBuffer
▁objectValue
ByInput
▁linkAction
▁QueryProcessor
ThreadPoolSize
▁nameLabel
Tran
▁RuleStatus
Cube
▁queryId
▁intp
▁atomicLong
▁CAT
▁JsonParser
▁GENERAL
▁aCurrentAST
▁setPopup
▁isAscii
▁mFirstNode
Applied
ActionsHelper
Reported
▁regionsToKill
▁toStringBinary
▁isCstyleMulti
▁BlockContainer
▁Matched
LINKABLE
▁isSecond
▁readU
▁accout
▁getOpposite
▁docDisplay
cing
▁SUPPLIER
▁defaultSettings
▁BLDependencies
▁counterSymbol
▁maxResults
▁aSub
▁serviceClass
▁scrollPane
▁WordTokenizer
▁hClient
▁ServiceSummary
▁SummaryEnum
RestoreStatus
SinceEpoch
▁chunkZ
▁functionWrapper
▁ParserConfig
▁MemoryPoint
▁FOLDING
▁csUse
GlobalSearch
fulSession
▁armor
▁hard
Undelcared
Email
▁appendToRuleKey
▁uriV
TermsToMatch
BufferConFig
uredForWrite
▁nonce
▁TBinaryProtocol
▁912
▁getTab
▁xmlRequest
▁boundShader
▁getBufferType
▁isNotifiedFor
Invoices
Fetch
Since
JAXBElement
ri
ConstantPool
▁DLFolder
▁getHex
▁alloc
fields
ITEMS
WithType
▁actualJava
▁MEMORY
InList
▁readTroughMode
▁let
▁merges
Successful
JDK
▁modeClassic
▁maxInactivity
AccecptHeader
hostAccess
▁testEndpoint
▁patternWithout
float
▁paramCallback
▁templateSwitch
Concepts
Legacy
▁OpenSource
▁APACHE
▁testCollector
▁49.
Satisfy
▁docFreq
▁RegistryMonitor
▁getMonitor
SSLContext
HostConfig
▁userTask
▁Asynchronous
ChannelGroup
Disp
▁mCommentRegexp
FieldLength
▁FREE
▁uni
▁mCurrentMatches
▁getAsClass
REGEXPATTERN
▁schemaField
SignificantGroup
▁sortGroup
▁typeVarRefs
▁enclosingClass
▁LASTSEEN
▁cosStream
▁processFlection
▁getQueryString
▁partitioningKey
▁varargs
▁forConstant
▁fromeBase
▁quad
Notifications
▁mSort
▁PhpDocReturnTag
▁PsiTreeUtil
▁findChildren
▁enter
▁readLine
▁TregexPattern
▁beatInfo
▁ClassDesc
▁finishKey
▁PercentType
ROLLBACK
▁checkCyclic
Inheritence
▁gem
▁getRadius
▁bezier
Triple
▁mInstantiations
▁JRadioButton
JobListener
▁TimerContext
▁Skip
▁outerType
FilenameTest
▁rotation
▁blockToCheck
▁CORPUS
manager
▁NodeFileStatus
▁sourceDirList
▁DirectValue
▁scaleFactor
▁propertyElement
▁Peek
▁toExpression
ingFactory
▁migration
▁atomicBoolean
▁hasLimits
▁RevCommit
▁initVoice
DataInDifferent
Scene
▁PRO
▁rednerMin
▁mProgress
▁HtmlPage
▁gu
▁tracks
▁Skeleton
ronExpression
▁timezone
Clz
▁mSumTokenCounts
▁lurl
Responses
Handled
▁logo
Enhancer
▁sceneTarget
▁subtractLocal
FilesExtension
▁aLoader
DS
itecture
▁outType
▁payloadLength
▁getColumnKey
▁ste
▁getComment
▁IgnitePredicate
▁assertFails
▁getTestSuite
▁testSuite
▁getNodeAddress
▁stataThree
UploadHelper
▁topological
▁jobJSONObject
▁returnOrThrow
▁formatToTimeStr
▁cleanName
▁AsyncList
▁chained
▁userAddress
Recipe
RANK
Outcome
▁runCommands
ServerId
▁SPLIT
▁SessionContext
▁idleRoot
CleanupEnabled
COL
▁endLine
▁modId
rite
Geo
LEMMA
returnType
WithArgument
▁ASSET
ByteConverter
HandSide
▁recordId
▁mOption
▁Glob
▁getFileFilter
FromFileTypes
▁portletName
▁checkParam
SHRINK
▁sourceIndex
▁sampleDim
CONTANT
eterminate
▁deepestCell
AsList
connection
▁booleanCast
REFLECTION
▁expResult
FunctionName
▁isT
▁mPattern
▁Help
▁binOp
▁widgetSelected
▁SelectionEvent
▁EXPRESSION
▁xobject
ach
▁samplesStack
▁MODUL
▁ViewModel
▁ifogAs
▁Dynaimc
JobNameWith
EndpointId
▁mavenHome
ical
▁Instrumentation
▁AnnotationKey
▁annotationKey
▁pageIndex
▁FileResource
▁addFixed
NameException
▁pathName
▁ppt
▁LoginService
Normal
ces
▁testSub
Incorrect
▁clusterPolicy
▁quoted
▁currentBlockId
▁flushBuffer
WithUserData
▁invokerPackage
▁editDialog
▁newLocale
▁phis
SinceLast
▁wizard
AtStartup
▁ERRORS
▁ESJobContext
TOLERANCE
▁COMPRESS
RATE
▁12000
▁1103
ilation
▁relatedURI
NavigationTab
Tmp
short
▁Change
▁printStatus
▁doNotify
▁locationOf
KaBoom
▁FormBuilder
▁getGame
▁fileList
▁caret
▁Deserial
MEM
▁VirtualObject
▁Neo
▁ColumnIndexInfo
▁totalNum
OutOf
▁fireEvent
▁unmarshaller
▁Unmarshallers
▁getStringList
▁THEN
▁WsScanner
▁getWeigth
TABS
▁Identifier
Databases
▁homePath
▁objectFactory
▁movement
▁collider
WorldTransform
▁Quat
ity
▁Liquibase
▁JCTree
▁JC
Immediate
▁IntType
▁targetJDK
▁yylex
▁writeMessage
▁ECDSAVariations
▁readPubKey
FromBuffer
▁childElement
▁DBDValueHandler
▁contextOwner
TestData
InternalInset
▁845
KeysFromPhrases
fcL
around
▁setParams
▁MBean
ProxyField
▁COMPONENT
Hops
▁DISCOVERY
▁INSTRUCTION
▁typ
▁pong
▁ADDRESSES
DeclarationUsage
TaskNames
▁osgi
NameTest
ENDER
▁SLAYER
▁GREEN
▁fade
▁MethodIndex
▁havingValue
▁scoreLevel
SC
▁testCustom
▁getLongValue
▁TableReference
▁addCount
▁VConsole
▁getCopy
▁beanClass
stable
▁getCodec
▁AnnotatedObject
▁getStringValue
▁pdePreprocessor
▁DLOAD
▁isW
Compaction
▁wrapsDriver
WALL
Subtype
▁CONST
ClientException
▁WORKER
▁setCommand
▁arrayExpression
▁createInternal
KieModule
Places
▁JobEntryCopy
DYNAMIC
mapping
▁inference
▁1_000_000
FullTypeNoArrays
▁aTypeAST
▁privileges
▁Rate
▁DatabaseMeta
▁anc
▁aCheckC
▁iCurrentRecord
▁mMethodStack
Detection
KeyE
BuffferSize
▁Struct
▁HASH
▁PREDEFINED
▁DBPDataKind
▁DATETIME
▁isProper
▁freeze
CB
Computer
COMPA
CO
▁VarCheck
▁NotItem
▁food
▁Generated
▁reAddRight
▁ESC
Lazy
▁factoryWithNo
attachment
▁getFamily
▁ForgeChunk
▁forgeTicket
▁toChunk
CoordIntPair
STACK
▁getXML
▁MessageHeaders
▁thisLineColumn
▁SystemName
WithMessage
▁datasource
▁mAllowClassName
ategorical
features
▁scoreComparator
▁setNoTargetText
Factors
TextView
▁HttpHost
▁addPet
export
native
▁setAllowEmpty
▁CAST
stepid
▁letter
▁testResult
UpgradedFamily
MetaRegistry
ElementType
Contain
Compacted
▁processImport
ra
▁getRedisKey
▁reloadSssl
▁testList
▁queued
▁OBJ
▁parseField
setter
▁paramAsBoolean
▁getVirtualFile
▁CLI
▁needRefresh
▁HI
▁isExplicit
▁cComments
▁fineGrained
▁ResolveUtil
▁toJSONString
STEP
▁mvcc
▁nOut
Picker
ImportTest
▁OrderItem
▁replicate
▁HddsProtos
▁GetScmInfo
▁loading
▁outcome
Inst
ccb
HO
▁mLastNode
▁Explain
▁getExtensions
▁_8_
▁MockRuleFlow
▁const
DN
▁loadNative
KeySpec
▁postForm
▁getDownloadUrl
▁domicile
▁fk
▁fkTable
▁updateRule
▁fistRegistryOf
▁STANADALONE
▁userID
Visitors
▁expert
▁Listenable
ItemHandler
UnitializedVar
▁annotationName
▁anyInt
▁anyLong
▁iterating
▁ConcurrentLog
▁EXCHANGE
ATRRIBUTE
▁canceled
▁cBlock
▁getBlockForm
▁groupCount
▁myChild
ryption
▁getWorldObj
▁posZ
▁getFileMap
Which
▁High
▁dragging
▁getColumnLabel
▁authorizeURL
ToPath
▁PDPage
BlockMeta
▁setAllowMissing
▁invRotate
▁presentation
HeaderMap
ZK
▁namespaces
▁buildRule
▁resultRecieved
▁600000
▁annoation
▁tCat
NotAnyone
▁caseSensitive
▁HRegionInfo
META
▁isInclude
uncate
▁mComma
▁acd
ete
▁ConceptRegistry
ClientFactory
job
▁RedisConnection
ACCESS
▁ice
▁mPublicMember
TypeError
▁JMenu
CurrentPackage
▁pathToPackageIn
ChePrefix
▁nameCurrentTest
Contained
▁PImage
CMD
Transation
▁trxMsg
▁paramLabel
▁sourceDbInfo
▁targetDbInfo
BaseEvent
Attacker
▁bgfx
decay
WIDGET
IntegrationTest
▁getDegree
▁DERBY
▁FIREBIRD
▁doReturn
▁mockRequest
▁iParameters
▁setL
▁posConLen
ManagerImpl
▁showErrorDialog
Specular
▁inputs
Flux
IndexInterval
▁getSorted
▁xclass
▁fuzzyKeys
▁selectedList
MaximumRoom
▁keyValuePair
▁addType
▁removeComsumer
▁cannot
PDF
▁onConnect
Resume
▁mB
▁isCreate
ButtonEnabled
▁enumConstant
▁classType
▁runBuildURL
utor
▁snoop
CheckedFuture
▁under
HostnameVerifier
▁PageBox
▁GenericTestBean
SendBuferSize
▁submitted
Watcher
▁getMapped
▁deployed
▁DRIVER
▁dlFileShortcut
▁escaped
PropertyAsDate
▁stageIdentifier
ScmMaterial
urable
▁Definition
▁migrate
▁Cancel
Sz
▁ramBufferSizeMB
▁44
▁DIGITAL
WRAP
▁doGet
▁getMatrixNames
▁gloss
▁manipulator
Translog
Invoice
▁invoices
ADJUSTMENT
▁mBuffer
▁setTlsCompr
▁getCOS
▁visitedNodes
Quick
actBlock
▁checkExists
▁myMapping
▁stackTrace
▁55.6
▁getFilters
▁toggle
▁activityCheck
▁Saturn
HS
SN
▁registrar
BLOCKS
▁CallbackInfo
▁inf
▁stmts
▁SocketChannel
▁getCond
UM
▁realOsStr
▁EntryListener
▁390
▁isComposite
▁CONNECTOR
TypeInfo
▁addChildShape
▁actioncmdstr
▁actObject
▁1.2
ception
STREET
Parsed
▁xxxtestEmpty
Managment
RowSet
▁CakeLayer
Fatal
▁dotExpression
LF
ActiveTimeMillis
▁createLabel
▁expectedScore
▁bktree
▁BKTree
ActionTests
▁mCurrentDepth
ModelOrderBy
MESOS
bers
▁IndexMaker
luetooth
▁getNanos
▁HasText
▁HasHTML
▁topK
▁fBrowser
inResult
▁addCmdHelp
▁featureMap
▁Karate
FeatureRunner
▁kr
Pipe
▁myEditor
ProperySources
auth
▁initQueries
▁INamedConcept
▁publicId
MessageKey
▁infer
ParsedDate
▁mCompileFlags
pu
▁CoreMessages
▁fromName
FromMap
▁BooleanProperty
▁underTest
▁getbyId
▁aArrayInit
▁callTarget
▁reserve
▁habit
ListSize
▁OVER
▁OCommandSQL
▁dbupd
▁doSync
SendPacket
▁inputChannel
handling
Imp
▁downloadFile
ber
▁msgBuffer
▁getInstanceName
setName
dId
▁dataOffset
arized
▁fault
ImportIdent
▁IndexItem
▁getIndicies
▁JavaRDD
Continuous
Near
▁defaultHandler
▁Temp
▁BL
INK
COMPARISON
validator
▁TreeTransformer
▁Leader
▁getIndexer
Cookies
▁Helgins
▁xxxtestImport
RID
GE
UriRequest
▁LAZY
▁resolveDefault
▁ControlFlow
▁epp
▁mLogLoadErrors
▁innerClass
▁addToBlacklist
▁58
Letter
▁Transferable
▁getNextState
▁newDM
▁JSONFactoryUtil
▁createExecution
▁duplicated
▁parserMap
▁columnIndexes
▁ifogZs
▁Recipe
ollers
▁highLow
▁Vaadin
▁KPCA
▁datasetIndex
▁TWO
▁deltaY
▁getRowHeight
▁Mod
▁withRemove
▁computeIfAbsent
IZ
[...]
