<pad>
<unk>
<s>
<\s>
▁)
▁(
▁.
▁,
▁;
str
▁"
"
NUM
▁=
_
▁{
▁>
▁+
▁<
▁new
▁public
▁String
▁private
▁if
▁return
▁final
▁static
▁node
▁context
▁&
▁SNode
▁null
▁void
▁0
▁EditorCell
▁!
▁editorCell
▁int
▁EditorContext
▁[
▁]
▁this
▁true
▁|
▁@
▁}
a
▁_
▁1
▁false
▁get
▁class
▁e
▁List
▁i
▁-
▁boolean
▁?
▁:
▁value
▁setupBasic
▁throw
▁create
▁ArrayList
Exception
▁throws
Collection
▁log
▁Object
▁equals
▁assertEquals
Label
▁import
▁setupLabel
▁name
▁Integer
▁sourceNodeQuery
▁debug
▁length
▁getInstance
▁Boolean
▁org
▁add
▁getName
▁type
▁long
▁*
▁Exception
▁com
▁size
▁protected
▁toString
▁2
▁for
▁result
▁Map
context
▁logger
▁text
▁T
Constant
▁put
▁error
x
▁else
▁append
▁nodeToMatch
▁System
L
▁ast
▁ctx
▁File
▁liferay
▁HashMap
▁TypeChecker
internal
▁set
▁portal
▁service
▁createConstant
▁extends
▁kernel
▁LOG
▁getMessage
▁info
▁Source
Property
▁performTest
▁package
▁Long
NodeContext
SubstituteMacro
▁DetailAST
▁getString
▁Qu
eriesGenerated
▁format
▁IndexWriter
Support
▁key
▁IOException
▁DEFAULT
▁SNodeOperations
Type
▁id
▁getRuntime
▁out
▁input
Name
▁valueOf
▁data
▁setCellId
▁t
▁byte
▁test
▁childRole
▁is
▁HashSet
▁m
▁Set
CheckingContext
▁Class
▁createProperty
nodeToCheck
▁double
▁/
▁super
▁childVar
▁catch
Context
▁expected
▁3
▁p
Test
▁getChildren
▁s
s
▁java
▁assertThat
▁typeOf
▁warn
▁config
▁file
▁x
▁isEmpty
▁c
▁createRefNode
f
▁message
▁println
▁request
▁o
Builder
▁provider
List
▁languagetool
entionProvider
▁instanceof
▁path
▁Assert
▁required
▁index
▁contains
▁SLinkOperations
▁getTarget
▁current
▁default
▁R
Configuration
▁while
▁writer
▁model
b
Id
▁getClass
▁getId
▁max
ID
▁4
▁map
Value
▁cellWithRole
▁args
▁apache
▁assertTrue
WithRole
▁CellProvider
▁aProvider
▁Throwable
▁IllegalArgument
Map
▁getType
ApiParam
Service
▁sb
▁method
▁response
▁url
▁v
▁ServiceContext
NAME
▁parent
▁getNode
in
refNode
▁Log
▁client
▁getValue
▁r
▁defaultValue
▁f
▁entry
▁b
▁10
▁cast
▁getProperty
e
▁assert
c
Options
▁field
Factory
▁event
▁count
▁parser
▁createNode
▁serviceContext
▁buffer
▁Node
String
▁check
property
▁list
▁1000
▁QuotationClass
Config
▁Pattern
▁a
▁it
▁write
▁Math
▁implements
▁ex
Listener
Operations
▁LOGGER
Declaration
File
Properties
▁target
▁source
▁getPath
Manager
NativeType
Handler
▁5
▁build
Default
▁float
With
▁n
▁synchronized
▁Runtime
▁MAX
Parser
▁Default
▁start
▁query
▁builder
▁item
▁FOLLOW
▁j
d
Class
▁startsWith
▁match
Path
VALUE
▁V
▁addEditorCell
Result
Message
Action
▁next
▁state
Descriptor
Component
▁Double
Node
▁line
▁y
▁E
▁to
▁replace
▁Messages
▁8
▁token
RefNode
▁version
LocalService
▁dir
▁Max
▁remove
▁from
Count
▁msg
FieldLength
▁case
▁description
▁LIM
ITED
▁pos
Info
▁Checkpoint
.
▁DRL
▁substring
▁verify
▁Illegal
Item
▁groups
▁K
KEY
▁d
▁session
▁LinkedList
▁A
StateException
▁in
▁string
Provider
qy
uft
▁obj
Enabled
▁createEquation
▁offset
Ref
▁execute
S
▁k
▁checkConfig
Analyzer
Cache
▁my
▁indexOf
▁instance
▁cs
▁Type
▁getParent
Index
▁TokenTypes
▁thisNode
▁position
▁abstract
To
▁TimeUnit
▁className
▁w
Size
▁Arrays
▁object
▁MSG
Parameters
name
Data
▁conf
TYPE
▁of
▁invoke
▁status
▁last
info
▁user
▁fileName
▁Collection
▁values
▁res
Group
▁row
Cell
NotNull
▁Task
▁I
ing
▁100
▁params
▁initTest
▁getReferent
Expression
▁util
▁parse
▁options
▁l
▁update
▁rules
▁edu
Version
State
Method
Set
Container
SIZE
▁other
▁findbugs
▁1024
▁createLessThan
Inequation
▁forCheckpoint
Request
Model
▁allowableValues
g
▁min
▁umd
▁SProperty
▁ignore
▁group
▁getText
Key
▁load
For
▁filter
▁PARAMETERS
▁iterator
fi
▁StringBuilder
▁table
er
▁content
▁end
▁settings
▁root
▁array
Util
Operation
▁connection
▁handler
▁req
Settings
▁find
Tag
▁BehaviorManager
Field
▁volatile
▁prop
▁properties
Location
Annotation
▁resource
Element
From
▁getParser
Response
Filter
▁Collections
Time
▁column
▁setText
▁quotedNode
▁allow
▁has
▁getResource
▁L
Object
▁toLowerCase
RequestParam
And
▁timeout
▁tag
▁split
▁trim
VERSION
▁getInteger
Description
▁getKey
▁operation
▁Constants
Constants
▁URL
Definition
▁generate
▁Builder
▁process
Override
Nullable
▁param
▁char
▁child
▁Locale
▁compile
▁output
IgnoreCase
Instance
▁lang
▁first
Reference
▁Iterator
▁rule
▁project
▁uri
▁S
▁putUserObject
▁base
Behavior
▁separator
▁sql
▁fromString
C
▁Whitespace
▁TYPE
▁getDefault
▁snapshot
Status
▁Date
Mode
▁location
Text
▁matcher
MultipleOr
▁num
q
▁ba
▁call
▁Abstract
▁Meta
▁60
▁cache
▁port
▁asList
▁Configuration
▁getBoolean
▁Response
▁90
▁read
▁BaseInt
Client
▁configuration
▁use
▁pointer
▁db
▁listener
▁Iterable
▁Path
▁try
▁hasNext
▁register
▁TreeSet
▁exception
Types
AdapterFactory
▁server
▁env
ERROR
Server
F
▁err
▁with
URL
▁str
▁Thread
▁failed
▁__
▁channel
Utils
▁Simple
Attribute
▁constants
▁StringUtils
Names
▁trace
▁fs
▁6
Concept
Number
▁CELL
▁graph
▁limit
Error
▁SECONDS
▁scope
▁print
▁fail
▁PatternUtil
v
▁logSevere
▁g
▁getAbsolutePath
▁matchReferent
WithNode
Event
l
result
▁pattern
▁endsWith
▁Logger
In
h
ContainerParams
▁Entry
▁BigDecimal
Column
Resource
▁getLogger
Supplier
▁replaceAll
Function
▁database
▁Token
TIMEOUT
D
▁LocaleUtil
ed
▁Item
vwsftd
▁resolve
▁http
▁InputStream
▁tokens
▁on
▁logging
Reader
▁post
▁Level
▁getChildCount
▁actual
▁stream
Query
▁annotation
Impl
▁getSite
▁jetbrains
▁getE
Position
Content
Url
▁abc
▁pushFollow
▁Standard
Step
▁Number
▁props
Address
Params
▁buf
▁ret
▁enabled
▁prefix
Buffer
Check
▁sm
▁Message
OrPattern
▁handle
Statement
DEFAULT
▁left
▁element
▁clazz
▁getBytes
▁host
Entry
▁createRefCell
Option
▁validate
PATH
▁getLog
▁val
▁property
Valid
▁container
Directory
▁command
▁run
▁ListSequence
▁time
▁matches
▁Method
▁Request
Quotations
▁findFirstToken
▁fromList
▁parameter
▁mps
ge
▁getLineNo
▁header
▁20
TimeMillis
Environment
▁close
▁task
i
ConceptProperty
Pattern
▁Debug
Metadata
▁json
▁assertFalse
▁bytes
▁attributes
▁Field
▁editorContext
Representator
▁core
▁reportTypeError
View
▁when
▁mock
Tool
▁URI
▁containsKey
▁LinkedHashMap
▁concept
▁waitFor
Repository
OutputStream
Connection
▁code
Parameter
▁exists
Length
▁var
▁Optional
Editor
▁interface
▁tags
Fields
▁page
Point
Resolver
▁juli
j
▁language
▁User
Source
▁len
▁parseInt
quationManager
▁Function
▁all
Values
▁getConcept
Session
ElementHandler
Prefix
Base
▁init
▁sub
▁right
▁module
WithDefault
Stream
Header
▁Value
able
▁image
▁block
ozj
▁label
Schema
▁C
▁random
▁width
Table
▁Rout
▁visitToken
Bytes
FILE
Helper
typevar
▁schema
▁environment
▁isEqualTo
Strategy
▁7
▁charAt
▁1.0
▁apply
Iterator
▁h
CLASS
▁execution
pezsk
▁entity
▁ch
▁Float
▁io
▁SModel
StringArray
▁view
▁Serializable
▁indent
▁open
▁copy
▁hashCode
▁javax
▁local
▁tree
▁O
Command
Format
▁getCurrent
▁
▁lines
▁VERSION
Code
▁Model
N
Array
▁getModel
▁render
▁M
O
▁arguments
▁filename
▁messages
▁Void
▁LinkedHashSet
▁Const
▁Base
Operator
▁template
▁store
▁ERROR
▁cause
▁keySet
▁old
▁expression
ClassName
▁toArray
Timeout
Or
OperationContext
▁hash
Pool
▁Scope
▁doc
Str
B
▁job
▁directory
▁show
pf
SuppressWarnings
▁Context
▁caller
Long
Task
▁idx
▁height
▁retval
▁checkNotNull
▁80
dr
▁500
▁D
Executor
▁break
▁cell
ConceptFqName
▁Hashtable
▁Filter
Execution
RequestPart
▁getInt
Start
▁action
▁ResponseEntity
ator
InputStream
▁date
DateFormat
▁z
▁0.0
K
▁statement
▁Duration
Future
▁warning
▁search
▁swf
▁wordRelation
Block
▁columns
QueriesGenerated
▁ByteBuffer
▁insert
Level
▁swing
▁awt
▁SWT
▁internal
▁argument
▁results
Entity
Offset
▁Property
▁Unsupported
Application
Identifier
▁body
Token
▁16
▁SWF
▁component
ProcessInstance
▁reader
▁gen
▁PARAM
RuleEqualsNull
▁NO
▁Pair
▁immediate
▁runtime
p
All
▁meta
▁Resource
Style
▁mapper
▁lock
▁invokeSuper
▁DEBUG
▁9
▁P
▁Status
▁SReference
▁SModelReference
Serializer
▁H
▁verifyException
On
▁getLocal
▁getIsNamespace
▁intValue
▁getAttribute
▁record
▁exchange
Classes
Target
User
▁expect
Variable
▁thenReturn
▁compareTo
n
▁getShort
▁setProperty
ah
Checkpoint
▁Openapi
▁$
▁30
▁convert
▁cluster
▁WorldPoint
Dir
Channel
▁clear
▁Result
Graph
▁range
LIR
▁TEXT
▁plugin
▁metadata
▁q
Writer
▁continue
A
▁col
Store
cc
▁getData
BY
▁lineNo
▁files
MAX
▁Color
▁Text
▁getElement
PREFIX
▁before
Line
▁myListHandler
▁address
Rule
▁SNodeId
ING
▁api
Integer
Handle
Mapping
▁Runnable
▁Query
▁newInstance
▁executor
▁tagging
Width
▁methodName
Condition
▁Character
▁MediaType
▁isInstanceOf
▁future
▁200
▁Upgrade
▁sleep
▁tmp
▁INSTANCE
▁getSimpleName
▁Preconditions
▁assumeTrue
▁Test
▁createComponent
▁frame
IN
▁total
▁children
▁256
▁equalTo
Root
Comparator
▁layout
CLIENT
▁COSName
▁DB
BagConstraints
▁Element
▁APPLICATION
▁push
▁Client
Constructor
▁accept
EquivalenceUtil
T
IteratorState
▁arg
▁streamFactory
▁eq
▁await
▁X
▁keys
▁Comparable
▁10000
log
PARAM
▁receiver
▁unit
TAG
Order
▁getConstant
Template
Engine
▁Custom
▁parameters
▁font
▁visit
▁repository
▁setValue
▁%
Subscription
▁getConfig
▁Calendar
▁Random
By
Output
Thread
▁32
▁Transaction
▁Json
▁Vector
▁short
▁CONTAINER
id
▁iter
▁headerLength
▁callback
▁comment
▁color
▁make
▁Attribute
▁Config
AST
▁src
▁Rule
Part
OF
xf
Date
NOT
X
Methods
▁12
▁names
▁OUT
▁fields
▁profile
Transaction
▁delete
▁async
Preferences
▁compiler
FoundException
Registr
▁generatedXML
Wrapper
▁Concurrent
▁transient
Param
▁nk
▁available
Processor
▁app
▁switch
▁84
Converter
Creator
▁order
▁counter
▁B
▁getP
▁send
Holder
▁decode
Adapter
▁NkColor
▁NAME
Image
▁subscription
▁stack
▁groupId
Update
▁after
Queue
▁attribute
Registry
▁MILLISECONDS
▁Tag
EncodeMethod
R
▁protocol
▁merge
▁pipeline
o
▁clone
Ids
Keys
▁newValue
▁ByteOrder
▁HTTP
Stack
▁TrieParser
▁parseTrie
Database
▁STRING
AsStream
Interface
▁collection
▁MIN
▁u
▁Expr
▁do
▁dev
▁getProject
PORT
▁printDbg
Port
▁score
▁Session
▁accessToken
▁option
▁re
Button
▁ParseException
▁editor
xa
▁getParameter
Hash
G
WhileNotNull
Errors
V
▁factory
▁StringBuffer
▁select
PER
▁addReference
▁Action
Async
SubstituteInfo
▁getTime
▁items
STRING
Screen
refNodeList
▁timestamp
▁Neighbor
▁DetailNode
PRIORITY
▁lineSeparator
Attributes
▁isAssignable
▁transfer
Not
Of
Profile
▁serverLog
▁temp
▁compare
type
▁getAdapter
▁ref
Connector
▁any
▁tableName
▁lastIndexOf
▁returnValue
▁writeElement
▁Document
▁Build
▁expectMessage
Proxy
▁locale
▁JLabel
▁rs
Released
▁nio
Receiver
▁title
Preference
▁nodes
Input
▁getAll
▁owner
P
▁Error
HashMap
▁patternVar
▁queue
▁KEY
E
▁monitor
▁step
▁expr
▁username
TO
▁entrySet
▁SIZE
▁Block
▁Cache
M
MAP
▁Data
RequestHeader
▁word
ClassLoader
▁ORDER
▁op
Frame
▁save
▁EMPTY
▁as
Interval
LENGTH
Files
JobExecutor
ToProcessAllJobs
▁Matcher
Library
▁getFile
I
▁document
▁backend
▁Http
▁ModelAccess
▁should
▁packageName
▁50
Transformer
▁remote
▁getFirstChild
▁State
Layout
▁grid
▁trigger
▁enumQuery
▁getLong
Color
▁Utils
Encoding
▁variable
▁getMethod
Ast
XML
▁getContent
▁require
▁getClassLoader
▁commons
▁errors
▁setResponseData
Height
▁isDebugEnabled
izedMessage
If
▁web
▁Label
▁nextInt
▁J
▁acquire
▁AuditEvent
Registration
INT
▁Single
Namespace
▁WARNING
xFFFF
Controller
▁Index
▁TRUE
▁destination
Uri
Folder
▁Key
Messages
Snapshot
▁addAll
Bean
▁cmd
Generator
▁loader
▁reference
▁Meter
▁getContext
JSON
▁addError
▁getField
LOGGER
▁enumHeader
▁evt
▁getRawResponse
Ignore
Received
▁level
Callback
Dialog
▁function
▁Job
Link
End
ationRequest
▁priority
▁registry
▁springframework
▁getAncestor
▁Module
▁bean
▁getCheckMessage
▁empty
Annotations
▁Short
▁isPresent
▁join
▁ImmutableList
▁StringUtil
▁getClassName
▁setDefault
Package
▁F
TIME
▁2000
▁Artifact
▁getSource
▁Language
Servlet
Page
▁stop
▁transform
▁isStatic
▁USER
Job
▁original
Document
Log
▁seen
cellMenu
▁getCause
key
Loader
▁getSub
▁number
Counter
ENDIAN
▁dataSource
▁Project
Language
▁RULE
▁addAttribute
Plugin
▁common
ru
▁operator
Access
get
BuilderFactory
▁getEdge
API
set
▁N
Int
Authorization
▁isTrue
▁change
▁now
▁BugInstance
Actions
▁utils
▁getAddress
▁LITTLE
▁getLast
▁helper
▁Service
▁XField
▁getUser
▁Pet
▁calculate
▁returnType
▁getC
▁tools
▁google
▁headers
Panel
Elements
▁onError
▁logError
▁prev
▁drawable
▁petId
▁lookup
▁containsString
▁VALUE
▁generator
Y
Member
▁isDirectory
▁top
▁proxy
Entries
▁Server
▁enable
▁parseBoolean
▁junit
Un
▁getModule
Timestamp
▁distance
▁ClassLoader
▁getCOSObject
▁partition
▁getRequest
▁category
▁Inter
RuleAssertNull
▁style
Filename
▁desc
▁U
▁Subscription
▁skip
▁collect
▁assertions
▁areEqual
▁errorMessage
Host
Range
▁ElementHandler
ImageParams
▁ws
ToString
PROPERTY
▁remaining
▁getLabel
▁getToken
▁report
EVENT
▁LogFactory
▁getS
▁assertNotNull
▁Composite
▁classes
▁usage
▁Command
▁15
▁Invalid
DB
REQUEST
▁Util
▁kind
▁screen
H
▁24
▁SConcept
▁mode
▁reset
▁custom
ORGANIZATION
▁SModelUtil
▁mapping
Extension
▁commit
Meta
▁delegate
▁connect
▁Future
▁filters
MODE
▁transaction
▁processor
FileName
FORMAT
▁TreeMap
▁Mock
ingContext
▁throwable
▁stmt
EditorBuilder
▁Point
▁abs
CODE
▁driver
▁FILE
▁fine
▁include
TYPES
▁isNaN
▁TEST
Indent
▁fieldName
WS
▁Material
▁selected
Module
Tree
▁serial
▁duration
▁encode
Case
▁Component
▁getMax
▁listeners
▁NONE
Process
Word
▁memory
Limit
PATTERN
▁LoggerFactory
▁Expression
As
▁region
▁MenuItem
▁main
▁translate
Policy
Consumer
Interceptor
ENABLED
▁getNamespace
▁forName
ListHandler
▁PersistedModel
Args
▁matched
▁JSON
▁permission
▁endpoint
Invocation
Visitor
▁interval
▁ROOT
ruptedException
Columns
Lexer
GROUP
▁Location
▁notify
▁getPort
▁arrayArrayOf
Instruction
Repositories
khm
Read
Call
▁nodeToCheck
Non
▁getElementRole
▁active
▁Version
▁found
▁dbSession
▁toUpperCase
▁Channel
▁tokenizers
▁force
SOURCE
▁getFirst
▁Lock
▁FALSE
▁cncpt
▁processInstance
▁boost
▁PARTIAL
▁Application
Return
es
Children
TestUtil
▁ensure
▁View
URI
ATTRIBUTE
▁signature
▁Record
AsString
▁Animal
GetAll
Results
▁edge
At
ent
MetaData
QueryParam
COUNT
▁holder
▁andReturn
▁Concept
▁Get
▁full
▁Group
▁scale
▁thrown
Internal
lhs
▁routes
▁release
▁flag
▁cfg
▁calendar
Z
▁getVersion
Nodes
Barrier
Rules
▁tasks
▁Mockito
Local
▁namespace
Comment
ff
▁getReference
▁shell
▁os
▁raw
▁attr
new
▁getUrl
Project
ExecutorService
▁Event
Debug
▁lambda
m
▁UTF
▁Publisher
Script
sWith
J
▁types
▁Stack
▁Time
list
▁rows
▁checkArgument
Kind
Empty
▁IMAGE
map
▁reason
▁trans
u
▁getNew
Selector
▁Edge
Exchange
Partition
Active
Arguments
Authentication
ClassifierType
▁charset
▁prepare
▁userId
HttpServer
▁Byte
▁cur
comparableWith
Available
▁IN
▁password
▁85
▁native
▁folder
MESSAGE
▁setName
▁getCode
▁ValueNumber
▁Servlet
Permission
Analysis
▁Connection
▁seed
▁DateTime
▁html
▁NOT
▁getComponent
▁CharSequence
▁measure
Def
▁hostname
DATA
Lock
xFF
▁actionRequest
▁Bytes
▁Objects
▁SNodePointer
▁application
ThreadPool
▁25
▁resources
▁netty
OFFSET
▁xml
▁minimum
W
▁manager
▁stats
▁loc
Generated
image
DEF
▁un
▁Environment
▁initial
Xml
▁ClassName
▁getFull
on
▁Icon
▁NULL
Enum
▁getLanguage
Row
▁Properties
ingClass
▁export
▁RBFNetwork
▁suffix
DataSource
▁Annotation
▁hasType
▁Database
LOCK
or
ArrayEquals
▁SecurityContext
▁securityContext
▁extract
▁help
Pos
Lines
▁sort
INDEX
▁setId
▁window
▁getConnection
Distance
▁Uncollected
▁en
▁Range
▁enum
▁sync
Before
▁isIn
▁Create
▁mut
▁getObject
Changed
▁offsets
▁peer
▁not
▁cls
Control
Variables
▁getProp
▁AUTH
TABLE
▁isNull
▁flags
▁notNull
▁world
Exists
Initialization
▁portlet
▁setAllow
▁methods
▁cached
▁entries
Write
▁ClassDescriptor
▁candidate
▁success
▁AbstractConcept
▁CONTENT
▁de
METHOD
Paths
▁Completable
▁alpha
▁hashMap
▁shutdown
▁getHeader
▁selection
▁role
bc
▁Checkstyle
▁progress
POINT
Threshold
▁0.5
CONFIG
▁adapter
al
FieldName
▁DateUtils
▁getNextSibling
VersionUID
▁Mono
▁parts
▁INFO
Cluster
DIR
ized
SubstituteAction
RESOURCE
NodeList
Equals
▁comparator
LE
▁socket
MS
Renderer
After
Nested
▁constructor
▁Row
Endpoint
▁self
▁auto
▁CommonUtils
▁arr
▁modifiers
▁elements
▁inspect
▁Internal
▁OAuth
▁14
▁classLoader
SQL
Services
▁STANFORD
▁previous
▁Stream
INTERVAL
▁addr
▁escape
▁configure
▁getIndex
▁getDescription
Metrics
▁longValue
▁router
▁HttpServlet
OR
Logger
Body
▁Process
Failure
▁apiKey
▁11
▁part
ea
cL
Record
Resources
▁pop
▁defaultLocale
▁parseLong
PathSanitizer
Listeners
▁round
▁Template
▁regex
Dispatcher
supertypesOf
▁Actual
▁toURI
▁Comparator
▁encoding
▁resolver
▁Common
▁orPattern
Change
▁subject
Json
RULE
Segment
▁impl
▁handlers
▁LocaleException
▁condition
▁getOffset
▁READ
use
▁ok
▁getDeclar
▁SQLException
▁engine
▁setHeader
Transport
▁SAbstract
SEPARATOR
▁getExternal
Search
▁tok
▁consumer
▁64
k
Password
▁catalogService
▁allowed
▁copyOf
Collector
Algorithm
▁RIGHT
▁getL
▁JMeterUtils
Iterable
Sub
▁getLeft
▁ids
▁cl
▁ID
▁ning
▁ReadOnlyFirst
▁payload
▁GET
Unit
Icon
▁lineNumber
▁depth
Constraints
▁subscribe
▁matrix
▁LITERAL
TEST
▁fieldType
▁RESULT
▁ident
y
▁ClassNode
▁_2_
Display
▁icon
Null
▁getGroupId
▁spec
▁iterable
Where
CONTENT
ChangeProperty
▁mustApplyTo
▁W
DEBUG
uclideanDistance
Contents
▁300
▁fill
▁qpm
▁pkg
▁toByteArray
Substitute
▁Image
▁global
▁128
▁Array
▁bug
▁TestTools
▁getFullCatalog
▁dynamic
▁KeyedState
IS
Validator
▁ErrorCode
▁5000
No
▁contentType
▁wrap
▁Dimension
▁setMax
ad
▁wait
▁dataLength
▁Callable
▁Content
▁getError
Left
▁propertyName
▁WIKI
▁JComboBox
▁Constant
▁head
▁Search
▁Column
Role
disposeBlock
Localization
BYTES
▁getResources
▁Size
UN
Required
▁getCanonical
▁PsiElement
Fragment
▁dialog
▁getTargets
ARRAY
▁getLineNumber
AD
▁fragment
▁chain
▁returnStatement
ersistedModel
▁invocation
▁childConcept
▁3000
▁Repository
▁ModelNode
REGEX
▁refactor
▁Operator
DataType
▁getDatabase
Num
ER
▁doubleValue
Is
▁visitor
▁addClass
▁bundle
Sequence
▁CacheModel
▁Decomp
LineSeparator
▁assertNull
▁script
▁member
is
▁getHeight
▁errorMsg
PLAIN
Groups
AccessHelper
Feature
Checker
▁thrift
▁getGenerator
layout
Catalog
▁Sets
Exist
Score
▁getComp
Overlay
▁php
▁getColumnNo
▁NullPointer
Tokens
ceaf
gment
▁cleanup
▁myProject
▁segment
▁SQL
When
▁deflt
▁yacyCore
▁until
Category
▁MILLIS
identifier
▁DefaultClass
Doc
▁currentThread
▁ThreadLocal
▁Option
▁deploy
Items
▁sourceNode
▁maximum
Signature
▁term
▁forEach
CACHE
▁resp
▁Parameter
▁latch
Depth
▁6000
▁users
▁ENGLISH
ilerContext
▁thisObj
xff
ca
▁pre
▁doTest
▁getFileName
▁Light
▁mask
Build
▁18
Delete
Final
▁ENumber
▁Persistence
▁analyzer
▁InnerEnum
PathVariable
▁Statement
▁menu
▁fileId
fh
method
▁Namespace
DESC
▁conn
▁acknowled
▁StringBundler
▁Local
Activity
▁mt
▁setAttribute
▁getTag
▁Entity
SECONDS
▁SERVICE
▁682375462378
Child
▁security
ConceptInList
▁AnalyzingS
uggester
▁ArrayEnumEnum
Mapper
▁illegal
Fail
▁no
table
▁form
with
▁prefs
ly
Processors
▁Executor
Space
Millis
▁SAXException
▁30000
Literal
▁Cluster
▁link
▁Id
▁TypeUtils
▁APP
▁deletePet
▁OBJECT
▁connector
▁BufferedImage
▁longs
icon
▁answer
▁Generic
▁emptyList
▁CHECK
▁HttpConstants
Pointer
▁variables
▁setMessage
▁fix
▁Serializer
Without
Import
▁13
▁AL
▁indices
▁rep
Duration
▁AST
▁dest
▁second
▁filtered
▁getScope
Add
▁admin
U
UNKNOWN
▁flink
Title
Dataset
Transition
▁getParentId
▁ds
▁Font
BufferSize
Weight
Argument
▁NORMAL
AL
▁span
Char
Publisher
ONE
Selection
▁getAnnotation
▁CaseInsensitive
▁G
▁Processor
Boolean
▁INode
▁sequence
▁NoViableAlt
▁1004
▁getNext
▁getNodes
▁capacity
▁AttributeMap
▁exec
▁instantiate
Dependency
▁Position
r
Static
▁HIVE
Expr
ize
UPDATE
▁Hazelcast
Allowed
▁DataSource
Expected
▁sum
▁javadoc
Destination
▁typeSettings
▁APIException
▁descriptor
Formatter
▁0.1
MessageAsGroup
▁par
▁broadcast
▁OutputStream
▁testProject
TestCase
▁binding
TEXT
▁Lists
▁rest
▁existing
Objects
▁getSNode
▁logDebug
▁INVALID
twfax
Spec
▁#
▁labels
▁Remove
Missing
▁exclude
▁getMap
Protocol
System
Presentation
▁domain
▁ICON
Sanitizer
▁RET
▁WarningProperty
▁hours
▁setIgnore
▁destroy
Seconds
▁calc
Tags
▁identity
▁DataStream
▁controller
AGENT
▁LT
▁transformation
▁ORACLE
Symbols
▁jobName
▁Binder
extends
Constraint
Mappings
izedObject
Matcher
ViewModel
▁columnName
▁getMessages
▁Platform
▁inputStream
▁library
▁SCOPE
▁occurrence
▁literal
▁getFont
Amount
▁Modification
▁extension
▁LAST
Flush
▁setColor
FILTER
weightThread
▁that
▁toSortedString
▁feature
Props
▁ActionListener
▁additional
Dto
count
▁retry
Sentence
▁checkpoint
▁button
w
▁Diagnostic
ALL
▁getImage
▁serializer
▁ps
▁Yarn
AND
▁ioe
▁localName
▁packet
▁Null
▁replacement
▁ByteArray
QUERY
mentLink
▁Add
▁rsp
concept
Stats
▁COSArray
▁JOptionPane
Commands
ParseException
USER
▁STATUS
ErrorMessage
▁constant
Priority
Information
▁master
▁HttpMultiMap
▁testGet
▁Dependency
Sink
▁AccessResult
▁BOOLEAN
▁setString
▁ImmutableSet
Desc
▁incrementAndGet
▁Env
▁EOL
Match
Threads
▁control
▁sample
▁CrypticClue
QueryFunction
▁hadoop
ers
▁testEnum
▁enumQueryString
▁enumQueryDouble
▁enumForm
▁enumFormString
Memory
COLUMN
Max
▁route
▁neighbors
▁getPattern
▁smodel
▁structure
▁ROLE
▁addElement
▁getTop
▁Classifier
Mock
▁lowResults
▁simple
est
UriParam
▁getRoot
▁getSession
▁getSelected
xt
▁hazelcast
▁HEADER
▁IdentityHashMap
▁newHashSet
▁BUTTON
▁getContain
SPACE
▁formatter
First
Headers
osedMessage
▁Twitter
Setter
▁kalessil
▁phpStorm
InspectionsEA
▁400
▁UIUtils
Min
▁getAllEdges
Region
RE
DIRECTORY
Flags
▁US
▁con
▁persistence
▁asset
MILLIS
START
▁Nd
▁Names
▁TAG
Get
Stat
▁dim
sTo
▁printf
Deployment
▁delay
▁JDBCUtils
▁safeGet
▁22
Cmd
FOR
ActionsFactory
▁real
Tab
▁getDescriptor
▁ALL
SearchScope
▁policy
▁fn
HOST
▁PrestoException
Details
Detector
Codec
▁be
de
▁Paths
▁ImmutableMap
▁getDebug
▁topic
StrategyConfig
▁pool
▁checkState
▁dist
MimeType
▁PROP
▁STATE
▁TypeQualifier
Produces
▁yacySeed
▁batch
▁ExecutorService
▁artifact
▁BitSet
▁shape
Validation
▁asString
xb
▁def
▁classContext
▁autoCommit
CODEC
MISSING
CSV
Window
▁CACHE
▁Root
ModelDescriptor
PAREN
▁MODIFIERS
▁generated
▁setting
▁DefaultJava
BUFFER
▁getID
Exceptions
▁flush
▁Mutable
▁mse
chunk
▁ins
test
▁ServiceWrapper
MANAGER
Failed
▁comp
▁getIdentifier
▁arrayNumber
▁getBase
▁inner
ASC
▁Window
▁Datum
▁cf
▁evaluate
ON
▁FullIdent
▁ignored
Copy
▁net
▁answers
▁fetch
▁findPetsBy
▁LA
▁tokenVal
▁strategy
▁initialized
▁delta
▁SimpleAttribute
section
▁LEFT
Trans
▁MockUnit
▁PMD
buffer
▁startTime
▁eventName
ParameterMap
cfoj
▁concat
Const
▁Grid
▁where
ERS
▁FSTClazzInfo
CONTEXT
▁tx
AndGet
▁DFS
▁suggested
▁Not
Scope
▁getRow
▁ScopeUtils
▁getM
▁getLocation
▁Import
re
▁isValid
HeaderParam
Binding
▁sessionId
▁Ignite
▁getOriginal
▁getLine
Separator
▁getPropDefault
▁bugReporter
Persistence
▁isDisposed
▁Socket
ENTRY
▁getQuery
xceab
STATUS
▁JComponent
▁maven
▁getDouble
▁actions
▁getRight
▁optional
▁Predicate
▁BufferedReader
▁or
ged
ResourceParams
▁Plugin
▁NkRect
Runner
▁JSONObject
ConstantOperand
Val
▁subtype
ated
ation
▁Dataflow
provider
dir
Dictionary
▁filePath
▁quote
▁myFixture
▁exit
▁JCheckBox
▁TextBlock
Vector
SET
▁toURL
▁activity
▁localLast
▁can
▁UUID
▁MethodType
▁beginTree
▁SolrException
GreaterThan
▁getProperties
group
▁arraycopy
▁one
ar
Phase
Matches
▁Instant
▁player
▁txt
DAY
▁insightfullogic
▁chapter
▁ns
Between
LOAD
▁returns
▁sc
▁34
ByName
COMP
Regexp
▁Timeout
Constructors
Cast
▁SQLSERVER
▁SYBASE
Dependents
▁RS
▁getProtocol
Occurrence
▁UNKNOWN
▁INDEX
▁BaseLanguage
▁patterns
▁writeText
Top
▁CASE
TextData
▁SubstituteInfo
▁RefNodeList
▁setType
▁scheduler
Out
▁catalog
CallContext
▁fullyQualified
Suffix
ONLY
▁Jsr
SERVICE
ConditionalOn
▁capabilities
▁OneRun
▁collector
▁ClassNot
▁disambiguation
initBlock
typeSettings
▁getSize
t
▁floatingLabel
STORE
▁thread
Compilation
▁HttpResponse
▁toHexString
▁highResults
▁Cycle
AS
▁setS
Tasks
One
▁arrayArray
▁urls
▁Splitter
Right
BindView
RESULT
Inset
parms
▁protobuf
▁Instance
ate
▁getStyleClass
▁off
Namespaces
▁system
▁contents
javax
annotation
▁Conversion
▁LoggerManage
▁tr
▁getServer
▁emptySet
▁uuid
▁done
▁AtomicInteger
Re
▁ObjectName
▁OrientGraph
▁valid
NO
FailureCount
ResultSet
▁chunk
▁unsupported
CommandLine
generate
▁exp
Comments
▁AnalyzedToken
DefaultValue
Matched
▁HttpClient
▁Exchange
▁sonarqube
▁getMaxId
▁MessageFormat
▁analysis
ClientBuilder
FAILURE
▁setRole
▁iw
createBlock
▁iRecord
▁account
▁sp
EscapeUtils
DEFINITION
▁ClassHelper
▁objectName
▁getResponse
Next
▁article
value
▁transMeta
▁dbResult
▁CUBRID
GenerationBlock
▁ClassInfo
BEHAVIOR
Single
▁Basic
▁getPresentable
Box
▁getState
Vertical
▁createNew
▁Memory
JComponent
Transfer
▁hbase
▁setDescription
▁Assume
Span
▁numberOf
Statements
▁consume
▁ISO
▁UN
▁mapProperty
▁PriorityQueue
▁submit
Specification
▁POST
LONG
New
Aware
▁bufferSize
Double
▁suppress
Multiple
▁Tuple
▁severity
Font
▁TestEvent
▁Dynamic
▁debugf
Progress
▁Access
RequestMapping
LIST
▁getTable
▁constraint
Timer
▁getF
NULL
__
Safe
▁visible
▁complete
▁timer
▁getWidth
▁AnnotationValue
Artifact
▁getTestConfig
▁scanner
file
▁BigInteger
Volatile
TARGET
▁radius
Connections
Macro
IF
▁disabled
TreeItem
▁fileEntry
▁registered
NODE
▁FuzzySuggester
▁ModelReader
▁NAMING
▁SC
▁NVGColor
▁17
▁si
▁mapMapOfString
▁Sub
Selected
▁console
▁512
▁getJournal
iationStrategy
▁solr
▁getH
▁modifier
Monitor
ibility
▁31
▁getChildConcept
▁lib
▁ip
LEVEL
Security
▁isFinal
Arg
▁material
▁mockDeployment
▁defaults
▁dialect
▁nvae
IllegalArgument
THRESHOLD
▁initialize
▁getY
▁setup
Alt
▁DOM
▁schedule
Credentials
IO
▁COUNTER
ProgressMonitor
▁getChild
generic
▁FutureUtil
▁millis
Mask
AndMethod
▁WebSocket
▁centers
Serialize
Parent
▁SEVERE
▁Parser
▁standard
▁ActionEvent
▁Validation
SQUARE
▁BAD
Only
▁Alert
▁expectedRetType
▁USE
Report
THREAD
Db
▁expectedResults
Representation
EXCEPTION
▁tab
▁shorts
▁BaseMessages
▁mkdirs
▁JavadocParser
▁bcp
▁committed
SESSION
▁21
▁logPrefix
bde
baL
▁IS
Facade
▁al
▁getMethodName
MemoryError
Components
▁sendBody
▁RequestMethod
▁Settings
Open
▁chars
▁getClientId
▁Enum
Notification
▁exceptions
▁ctxt
▁HttpServer
text
LOG
▁getApplication
▁low
statement
Admin
▁realm
HEADER
▁cr
dc
InequationStrong
Shutdown
▁compute
to
▁PrintWriter
▁myModel
▁NkVec
Finder
▁NameUtil
▁getTableName
▁StringPool
▁best
ag
▁CR
▁validation
Other
▁direct
▁Condition
▁hiddenLayerSize
▁android
Form
▁mContext
▁ssl
▁elementType
▁CheckResult
Chars
▁FileUtils
index
▁JAVA
▁FIELD
Principal
BATCH
▁jobEntry
CoreState
▁PROCESS
▁getBaseURL
FOLLOWED
Spacing
▁intention
▁REPOSITORY
▁60000
and
▁getStatus
▁commandLine
▁Factory
Warning
▁gui
Widget
▁Authentication
▁me
▁newClient
ORITY
▁HSQLDB
▁getTrans
▁WRAP
▁registration
SERVER
ATED
▁toBytes
Most
constraint
Fixed
▁getFunction
▁outer
Deserializer
INSENSITIVE
▁isDebug
▁THIS
▁access
▁Closure
▁Catalog
caption
▁tests
▁endProcessing
READ
▁schemaName
▁AnalysisContext
MenuItem
▁AUTO
▁40
▁widget
▁none
PathParam
DATE
▁RT
en
▁addValue
▁reportBug
INTERCEPT
Assert
▁arrayOfString
▁isNotEmpty
▁ui
▁predicate
▁Streamlet
▁setDefaultValue
▁payloads
Predicate
Storage
▁HIGH
▁isLocal
▁getItem
▁saved
▁FileInputStream
▁addAction
▁ext
TableName
▁getPosition
HTML
▁updated
▁httpclient
▁refresh
▁untypedValue
▁diff
▁Descriptor
▁Execution
▁ORecord
▁AppStrings
▁setParam
▁NUM
Capacity
▁metrics
Complete
▁LogType
Migration
▁JavaClass
▁conversion
Delegate
▁getJob
▁cube
Strings
FIELD
el
▁GaussianProcess
Regression
▁JobInstance
▁getResult
▁kie
▁Table
▁KettleException
▁Sql
▁isS
▁shortName
model
▁Metric
Create
Api
▁Web
▁SeverityLevel
▁Inspect
▁issue
FOUND
▁addListener
▁responseHandler
▁renderer
History
▁getVersionNum
▁versionNames
▁timeStamps
Load
▁st
ListPattern
▁DATE
▁Permissions
WsParameters
ic
JsonProperty
▁RE
Eventually
▁dp
▁shard
▁getZ
▁Driver
▁stringValue
CLOSE
Optional
▁INDArray
▁runSnapshot
▁disable
Initializer
▁BLOCK
▁instanceType
▁download
▁seconds
▁suggester
ContentType
DESCRIPTION
▁toFile
Obj
Multi
▁AbstractCell
LAYOUT
▁objects
▁Frame
▁DateTimeZone
▁canEqual
▁attrs
▁getWorld
▁bucket
▁Operation
▁allocate
▁visitclass
Modifier
▁DateFormat
Outer
StyleSheet
Broadcast
▁removeChannel
Disconnected
▁typeName
▁jooby
▁locations
rule
▁runIfNotDone
▁principal
▁Handler
▁mb
Last
▁queryResult
HTTP
Chain
Auth
Env
▁Editor
▁snippet
▁isSubtype
▁getRepository
▁hostName
isygg
▁md
Jobs
▁METHOD
▁ODocument
▁Insert
▁Select
▁mapOfMap
Split
▁IndentLevel
Register
▁PKG
▁currentNode
▁ON
▁soot
▁pipe
Custom
▁bind
▁HTML
▁Portlet
emptyCaption
Stub
Character
▁Files
Layer
izer
at
▁paths
▁peek
Assigned
▁newState
WIDTH
▁setDebug
▁checker
▁ti
▁using
▁getOptional
▁kelondroDyn
▁broadcaster
PropertyAs
▁firstNonNull
▁clusterhashes
▁the
Driver
CHECK
▁closed
▁deployment
▁delimiter
Closure
▁getD
▁sampler
Members
▁inline
▁XMethod
▁auth
▁Constructor
▁eval
▁getExt
size
Models
um
▁broker
Http
st
▁Consumer
Setting
▁LinearSearch
Dimension
▁Controller
Succeeded
▁getClient
▁cc
Global
▁graphics
ArgsConstructor
▁getHost
▁ElementType
ManagerFactory
Term
▁getIn
▁LS
LinkLocalService
▁MetaIdFactory
▁Page
Events
Brace
▁nextToken
FROM
▁cb
▁userName
▁MyClass
▁Reader
▁BuildRule
Invalid
▁Terminal
▁cursor
▁jobMeta
▁NumberExpander
Period
▁CREATE
WITH
▁arrayEnum
▁getTitle
Remediation
▁EmoteClue
▁cp
▁ModelType
▁DBSEntity
UP
Interfaces
Cacheable
ref
▁getModifiers
PROJECT
JAVADOC
▁Queue
▁toMillis
Rows
▁clean
▁ST
▁IDENT
▁getCount
Transform
▁getGroup
▁processed
Tables
Dependencies
▁booleanValue
ac
▁GraphTargetItem
▁servletContext
▁contentLength
▁ATTR
▁pending
▁isEnabled
▁systemOut
Descriptors
Translation
▁printStackTrace
Plugins
INSTANCE
▁getBean
Usage
▁tool
PROP
▁device
▁cn
Labels
Socket
▁getNumberOf
▁addOption
▁MESSAGE
▁slot
▁Enumeration
▁getLength
▁STRUCT
END
▁Flux
▁fixed
▁httpHeader
▁concurrent
▁Layout
▁OLogManager
▁Charset
BYTE
Processing
▁verbose
▁^
▁errorNode
▁YES
▁toList
Through
▁255
▁components
QueryContext
▁XMLWriter
▁mapOfEnumString
Op
▁opt
Disabled
fd
▁single
▁getLocalString
Close
▁selector
▁dst
▁imports
ED
TypeAdapter
▁CSVMessage
BodyWriter
▁initialValue
PackageName
▁newArrayList
un
LIMIT
▁indirectMap
▁getX
▁getChannel
▁ConstantNode
▁55
▁CLASS
Material
se
Send
▁setSelected
▁Instruction
TimeoutMs
▁management
▁fallback
▁pl
▁errorCode
▁getStyle
▁leaveToken
▁MQTT
▁getNum
Advice
▁getRemote
▁HeapSelect
Raw
▁checkstyle
▁docBase
Angle
▁extra
ICON
Comparable
▁Types
▁Pipeline
▁Morfologik
▁Script
▁hilight
LinkDeclaration
Repo
▁getFields
Enable
Packet
RegistryService
▁se
▁facebook
Stamp
z
▁func
▁getColumn
▁assertOpen
▁atLeast
max
Defined
▁Un
▁Link
▁BaseModel
ss
ById
▁VT
▁reg
▁pair
▁conceptId
▁virtual
Configurations
up
▁SOURCE
▁26
▁sink
▁populate
▁anyString
ES
▁Example
conceptProperty
FailedException
Ex
▁cycle
▁Invocation
ive
Auto
Edge
▁replaceFirst
OPERATION
▁PullParams
▁firstLine
▁sourceName
▁sitemap
▁refs
▁Initial
▁compilation
▁struct
▁getContainer
▁TestUtils
▁rightTransform
Utf
IndexOutOfBounds
itive
▁ProcessInstance
▁pause
▁annotations
Anonymous
▁My
▁Chunk
▁weight
▁DOUBLE
▁addComponent
LINE
Standard
▁allowJavaSerial
Patterns
▁amount
▁CONNECTION
UI
▁36
▁sourceEdge
▁VisitHandler
▁VISIT
HANDLERS
BLOCK
▁cols
▁FastStack
FINDER
Batch
▁fr
▁Buffer
▁JScrollPane
▁FROM
Prop
▁icCommon
▁verifyWarns
▁Segment
ByteBuffer
▁modelDescriptor
▁gl
SocketAddress
NEW
▁setTypeSettings
Management
ABLE
▁getCache
Topic
▁absent
io
▁Trace
▁IClassifiers
▁setLowHigh
▁setReference
▁serialize
▁layer
▁requireNonNull
▁author
ization
Init
Use
▁workingMemory
HOME
▁multi
CallTarget
▁support
▁Write
▁Configurable
▁binary
▁adaptor
Down
▁getPackage
▁facade
▁EventHandler
TP
▁storage
Continue
▁addWord
▁setTarget
▁side
Summary
iv
▁writeString
▁ConcurrentMap
Classifier
▁FoldFunction
▁supertype
Reason
▁getEnvironment
PropertySource
LargeInputs
Home
Visible
▁Expectation
Startup
▁isC
Updater
▁ACTION
▁getLastChild
▁MoreObjects
▁isFalse
GroupId
▁setMinimum
▁getColor
▁canWrite
scope
ClassPath
▁configured
ingException
▁LinkageError
▁cancel
▁isSelected
Proto
▁Transactional
▁quantiles
Charsets
▁NoSuch
▁aColumn
Quote
▁ResourceBundle
aL
Lookup
▁Main
Alternation
▁Measure
Byte
▁jobId
▁puppycrawl
Termination
▁instanceOf
▁getFrame
▁ErrorDialog
▁Cookie
▁normalized
▁Put
▁roles
Al
ong
▁Oracle
▁setTitle
▁curr
▁intent
DataFile
Alias
Functions
▁getFloat
▁lazy
▁compareAndSet
▁tail
▁getPage
▁baseModel
VT
▁ViewHolder
▁By
▁fd
▁BasePersistence
▁Security
▁getIcon
▁logInfo
▁browser
▁BASE
Invoke
OPTION
▁getG
▁newColumn
▁JavadocUtils
Compatible
▁expand
▁setReturnValues
ObjectName
▁addChild
▁getRecord
▁nested
Backed
▁supports
BASE
▁CxxPlatform
ILER
SANITIZER
▁ASSERTION
Domain
AUTO
▁setImage
▁TABLE
▁DBSObject
▁forID
▁8888
Matrix
▁inv
▁ColorUIResource
PropertyName
▁flow
▁resultSet
Resolved
ary
lf
▁FSTFieldInfo
Scheduler
▁Redis
▁spoon
▁currentClass
Bug
App
ChildLevel
▁getSystem
Any
▁getStart
▁FIREFOX
Browser
Ip
▁deserialize
▁getItems
▁logBasic
BufferBuilder
▁actionPerformed
▁getDictionary
▁sorted
Suppression
INITIAL
SYSTEM
▁cookie
▁comparison
▁alert
▁MAP
▁FileContents
▁failure
▁getDataSource
▁Match
Specific
cdqxf
os
ObjectType
▁history
▁ix
TextColor
▁oldValue
ations
▁each
Declarations
Discovery
NonNull
ExclusiveLock
▁MethodNode
▁Hex
▁Validator
▁stageNames
▁mv
Matching
▁Collector
OutputCollector
▁FileSystem
▁classpath
NS
refCell
▁lo
QuickFix
Compiler
ce
▁seedDB
VariableDef
▁Logging
▁getCategory
▁GaussianKernel
SetPresence
▁sendError
▁Coin
action
OutOf
▁parsed
▁SDK
Indicator
Select
▁zoom
▁origin
ifier
▁taskService
▁MPS
INFO
▁getRe
USE
▁givetype
Reporter
▁companyId
Colors
UnsafeSupplier
▁preloadTime
Short
RIGHT
▁SystemException
▁directMap
▁Network
▁instruction
▁ObjectType
▁parentNode
TargetNode
df
▁overlay
Generation
▁startOffset
Cursor
Infos
synpred
▁baos
▁MapCache
Committed
Common
▁gradient
▁parallel
node
▁getBundle
▁display
▁constraints
ATION
OnMethodExit
▁heap
▁rect
▁getPrevious
▁SE
IC
▁ss
▁getParentNode
BaseModel
▁containsOnly
Family
▁pat
▁LineTo
ContentMapReader
▁scroll
Producer
▁describe
▁XML
▁THREAD
java
ensor
SpellerRule
▁opcode
MethodCall
▁JavadocTagInfo
▁getOp
iiuth
▁icRoot
▁865
Chunk
typingManager
▁edges
expression
Imports
▁received
▁Maps
▁referenced
▁sentence
MASK
▁CLIENT
▁at
▁getBlock
▁Global
ExecParams
▁getActivity
▁fb
▁person
data
▁convertTo
▁tables
NodePath
▁missing
▁big
ian
▁resourceName
ability
▁maxFileSize
▁Body
QualifiedName
▁drop
▁numberString
Records
▁numDocs
▁attach
Endpoints
▁NextEvent
▁pData
▁outputStream
▁taskId
▁loadClass
▁BasicDBObject
▁keySerializer
▁getOperator
Occurred
▁JS
Con
verted
▁120
Keyword
▁REQUESTED
sList
▁UserService
▁setClass
▁ca
Handlers
▁getDef
▁PipelineConfig
Flow
REGEXP
▁tabs
NAMES
▁getTest
▁written
Super
▁pid
TreeNode
▁Linked
▁transport
▁aggregation
SSL
▁getOutput
Explicit
GroupName
St
Menu
▁ev
covariant
▁es
▁getOut
▁Flowable
Vertex
▁point
▁rate
▁GroupLayout
▁HMM
▁pi
▁setToolTipText
▁bd
InputSource
▁extensions
▁elementCell
LOCAL
▁encoded
▁Reference
Tests
▁addSort
▁SortBuilders
▁imp
▁setMaximum
▁myClassMock
▁trainx
▁trainy
▁FUNCTION
Float
▁modules
▁identifier
▁getPlugin
▁mult
WRITE
▁setForward
▁high
▁bitext
gb
Ch
▁DISTRIB
▁Java
▁Step
▁ClassSize
▁SERVER
▁VertexType
▁DISALLOWED
▁varX
▁Mode
Completion
▁ct
▁googlecode
▁lanterna
▁DBUtils
CheckBox
MBean
▁transferStep
▁mappers
▁LONG
▁createNewNode
▁Re
OUTPUT
▁keyStore
▁Executors
▁used
MODEL
Inbound
Var
▁PUBLIC
▁addProperty
▁Xml
Languages
▁Discarding
▁Analysis
▁addServlet
MacroContext
Applicable
▁isH
HashCode
▁Acknowled
▁stage
▁Shared
▁attributeName
▁TException
▁logDetailed
▁MutableList
Success
▁META
ch
▁correlationId
▁sonar
▁getSettings
▁getB
▁SVM
▁Apps
Modules
▁getConstructor
ExportMode
ens
▁ActiveRule
▁activeRule
▁Chart
▁getCore
▁baseDir
▁writeLock
▁setSummary
▁finish
▁Sponge
▁LogRecord
description
▁vector
▁toCacheModel
▁payment
▁Variables
▁ASM
Identifiers
▁getPartition
▁getSModelFqName
▁mod
Revision
MethodDescriptor
ingPortlet
▁Input
Latch
▁JiveGlobals
▁UnsafeSupplier
▁httpServer
▁pr
▁bufferkb
▁checkpointId
TenantContext
Used
▁Kind
Structure
SystemProperty
▁promise
▁loaded
▁configs
▁Wait
▁codec
Sql
▁move
▁getEntity
Times
▁integer
Bundle
▁getOr
▁BaseAdapter
▁getA
▁metric
▁getTotal
Locations
▁placeFlagHas
▁GL
LITERAL
Filters
▁ResultSet
▁CONTEXT
▁DE
DataList
▁onThrowable
▁findChild
import
an
▁workflow
▁increment
▁serverCore
▁19
▁intern
▁setItem
Run
▁startPos
Padding
▁qName
Equation
AssetAddon
Site
▁WriteConcern
LED
▁keyspace
Current
▁systemErr
DE
▁Invoke
▁times
▁sw
StateBackend
Queries
MB
min
▁switchboard
▁cid
Core
PAR
SharedLock
▁AtomicBoolean
ThreadLocal
▁addRule
▁isTraceEnabled
▁cpg
ib
▁INT
▁models
IP
▁Workflow
▁findConcept
▁StringTools
▁book
▁CURRENT
▁attachment
▁allocator
xhv
▁KeyStore
ut
Runnable
EditorComponent
▁ProjectRelease
▁retVal
▁already
▁getDeclared
▁hits
▁getSelection
▁external
▁Maven
ENCODING
▁elem
▁IGNORE
▁getFilename
▁Remote
▁getCurrency
▁themeDisplay
▁orig
▁CommandLine
Logging
ny
▁transformer
NUMBER
PRECEDED
▁edgeId
Scan
▁offer
▁SITE
▁determine
▁getActive
▁mark
WINDOW
PACKAGE
▁replay
▁Tree
▁getSolr
▁contact
Updated
▁ES
▁pdfSource
▁days
lang
▁extended
▁configureQuery
Disable
Removed
FIRST
▁Trust
▁trust
Decoder
▁sign
▁SHORT
▁Writer
▁MISSING
▁Target
▁details
▁tracef
sequence
▁criteriaType
▁CriteriaType
entry
▁authentication
CURLY
LEFT
▁assign
.0
▁Symbol
XA
▁em
▁wrapper
▁MPSProject
▁TestMain
▁classInfo
▁lower
▁messageRegExp
Ratio
▁dateFormat
▁fp
▁getAsInt
▁getRule
Hook
PAGE
Texture
▁Sequence
▁MARIONETTE
attribute
▁GraphQL
▁testStep
▁getGlobal
Written
▁HStoreFile
▁bcel
Extensions
▁Static
Transitions
NON
▁clock
▁JLanguageTool
▁Async
Col
▁Hudson
▁TableSchema
▁site
▁basic
▁showLabel
▁endTime
▁javaClass
▁SIZEOF
InnerClass
Dependent
▁OPERA
ServletRequest
Stop
▁841
▁bulk
Pack
▁scan
▁pages
▁assertSame
▁converter
ApiResponse
▁TraceInfoUtil
ex
▁declaringClass
▁setter
▁dataContext
▁trade
▁isError
▁HttpStatus
Expressions
▁referent
▁bootstrap
HttpClient
▁START
▁Trigger
Pair
▁FutureUtils
Ping
▁subEvtCollector
▁dom
▁Logs
th
▁FileText
▁parentType
▁synthesis
▁PARAMETER
▁Activity
▁track
number
MIN
Indexes
Fire
▁SortedSet
▁CONF
▁subList
▁0.
▁cv
▁Graph
▁prim
References
▁getDisplayName
▁setFont
▁getAsBoolean
▁App
Remote
LineNumber
▁markup
▁Button
▁isInternal
▁No
▁404
▁shared
Factor
Realm
▁copyNode
▁normalize
▁longitude
DataListByStack
Scale
Found
▁Db
▁least
▁INTERNAL
▁Binary
▁bottom
fact
▁getSuperclass
SS
ATE
▁deleted
▁setEnabled
▁reduce
▁getServletPath
▁ordinal
▁equal
▁reject
▁FIRST
LEAF
Variations
▁lst
FilePath
PA
ap
▁MESSAGES
▁Cached
Refs
▁Unit
ls
Cost
Equal
▁strProblem
▁getCompiler
▁getService
Random
▁DataSize
▁firstNode
▁OrderBy
▁getContextPath
▁direction
▁alias
▁audit
▁groupCount
▁interfaces
▁DetectorOptions
▁fatal
of
ClassNames
AN
Users
cache
it
art
▁applyTo
▁getEndpoint
▁pq
▁isValidOn
▁deref
▁up
▁nl
EXTENSION
▁Read
▁37
▁setInt
Successful
▁addSourceLine
▁CoverTree
▁findPetsByTags
mvbroc
▁isDefault
▁cmt
COMMENT
▁PROJECT
▁DISPLAY
FULL
field
▁myNode
▁textBlock
Begin
Indentation
▁foo
▁ic
▁reporter
▁construct
▁variableDef
MetricGroup
LibraryBuilder
SERIALIZER
Res
▁Headers
▁pack
▁JavaFileObject
▁debugTime
▁errorHandler
Tracker
▁artifactId
▁FLAG
▁Pre
ObjectFactory
Retry
Pane
▁bindView
Conf
Serializable
▁httpClient
▁DeepLearning
▁assertContains
▁AgentStatPoint
▁img
▁Person
▁95
▁setIcon
ur
▁media
Join
▁boot
▁getContaining
▁RETURN
Warnings
▁lucene
▁textPaint
HISTORY
▁IndexReader
▁getPublic
content
▁toCharArray
▁pullParams
▁UP
Insensitive
GL
▁drools
▁fireModel
▁definition
red
▁BuildTarget
variable
▁plan
Parts
BlockingQueue
▁PipeBase
lucentKey
▁ANNOTATION
▁getUse
Setup
▁VAR
▁loadProject
REFERENCE
▁floor
▁Multi
SUPPORTED
FileSystem
▁unique
Created
▁getAnalyzed
▁emptyMap
Unsupported
Portlet
▁anchor
▁getHash
ManagerAdapter
▁Open
▁redirectUri
iav
▁expectation
Commit
component
▁commands
▁newBuilder
Pause
▁682375462379
JSONObject
PROCESS
Direction
▁unmodifiable
Vars
▁timeline
▁PdfName
▁Variable
Generic
▁HunspellRule
▁invalid
▁cg
▁isM
▁rbf
▁getFrom
▁discovery
▁bag
▁hasOption
DELETE
▁singleton
▁CellLayout
▁20000
Execute
▁withDescription
▁hasLabel
▁REP
▁remoteAddress
Mismatch
▁checkAccess
▁js
NamingStrategy
CheckConfig
Binary
▁singleResult
▁JFXUtilities
Accessor
▁firstOne
▁setMinimumSize
bL
▁LOCAL
▁dict
▁rowNumber
annotations
▁cells
▁sessionHandle
▁curNode
ClassifiersScope
▁osmandSettings
▁percent
▁MultiProtocol
Area
Organization
▁Merge
Should
met
▁fontName
fv
▁getRequired
▁Make
▁NON
▁Modifier
▁compress
PortletRequest
▁getRead
StateAfter
▁rAxis
▁ALLOWED
▁CLOSE
Fee
▁Matrix
▁Selection
▁servlet
▁toolbar
▁daemon
▁WordRelation
▁UNCOLLECTED
Encoder
Callable
▁ARRAY
mode
▁endObject
▁theme
MessageHandler
▁currentState
▁opened
▁VirtualFile
RM
▁testNon
ENCE
▁IOUtils
▁writeObject
▁th
POSITION
▁addressHolder
▁Scheduler
Sample
▁getCell
▁Fixed
▁getOption
▁branch
Facet
▁28
▁42
▁showMessage
States
fieldDeclaration
▁getCatalog
Based
▁worker
▁fieldNames
▁separatorChar
▁br
▁textLine
▁TestProperty
▁htmlElement
▁getSh
ape
▁annotated
▁cond
ted
▁dc
▁services
▁getSignature
▁MavenProject
▁serialization
Descriptions
▁wrapped
▁Term
▁creator
▁JBUI
▁DELETE
▁ide
▁parms
▁chineseSeg
▁workspace
CAPACITY
▁mid
HASH
Zero
paren
▁Parse
▁getExecutor
▁uid
▁alt
ferability
▁Lifecycle
▁EntityManager
▁CellFinders
SELECTABLE
LineAnnotation
▁getCommand
▁createList
Sibling
▁COLUMN
▁Media
▁slice
▁jar
▁getTestCase
check
▁and
Second
▁getAbsoluteFile
▁getIdentity
▁primary
ype
▁ke
▁hasMessage
▁dimension
Zoom
▁addMethod
▁shouldHave
▁EnumSet
ET
Pipeline
▁connections
Router
▁section
Dimensions
▁retrieve
Percent
▁GLOBAL
▁CrawlProfile
▁lat
▁activiti
MethodName
Supported
Unchecked
▁parseResult
Device
▁Pokemon
▁lastModified
Maps
▁panel
▁getBody
Delay
▁CountDownLatch
▁cellspacing
▁PApplet
WithDelay
▁fc
Worker
▁nodeEngine
MaxLength
SessionId
▁sourceFile
Clause
Perm
▁FileUtil
▁Scene
▁singletonList
▁JavaScriptDebug
OBJECT
FormatException
eL
▁beanName
OS
▁added
NameIfNone
▁kelondroMap
▁press
▁combo
▁rec
INFINITY
▁SSL
▁mw
ec
Detail
▁currency
▁PDDocument
Annotated
▁classConcept
▁getEnc
hash
Initial
▁getSchema
▁urlEntry
dump
Compression
DemoMock
▁TypeDescription
▁getCellContext
StyleClassItem
Public
Master
▁interceptor
UniqueName
▁27
config
Metric
▁HS
▁LocalDate
▁named
▁IModule
▁jboss
MetaClass
▁fileObject
▁ro
▁needs
▁getHeaders
▁Name
▁pairs
HOUR
▁Strings
▁ir
▁getParameters
▁KylinConfig
▁nodeName
Cert
▁CHEdge
▁getModuleFqName
▁expectedType
▁Capabilities
▁Native
IfNecessary
▁encodeURL
point
Writeable
▁restore
▁FINE
▁batchSize
StackTrace
▁842
▁el
▁closure
Dispatch
▁reload
▁Struct
▁unregister
▁ms
▁rhs
META
▁getRegistered
ae
StrutsTag
▁PACKAGE
▁getTimestamp
▁DBR
Pass
▁isVisible
ab
▁countDownLatch
Side
comparableTo
sorted
▁Switchboard
▁columnIndex
▁recursive
InfoCache
▁mi
▁shardId
▁randomInt
▁Report
ingService
Insert
▁createMock
FACTOR
▁Kill
CacheSize
▁PORT
▁Feature
▁getTask
Statistics
▁average
▁setRemote
ist
widget
▁addresses
POLICY
ModelAccessor
INVALID
▁publisher
▁updateJ
LEADER
▁recover
▁setTime
▁matchIfMissing
▁Start
supported
▁newContent
▁getRange
RepositoryFacade
▁ErrorMessage
FETCH
▁fullName
▁IF
▁consider
am
BeanDefinition
▁jfoenix
▁maxSize
CONNECT
▁JCache
▁PortalCache
Warn
▁SAW
▁ar
Runtime
AT
▁gap
Platform
▁parseFloat
Overridden
Ext
▁showWarning
ct
▁HttpUtil
▁PATH
▁Supplier
▁AssetPublisher
▁jsonObject
PH
AC
STYLE
▁getT
SessionFactory
▁visitVarInsn
ITE
Whitespace
▁numCols
Drawable
▁blocks
▁getEncoding
▁elasticsearch
▁putAll
▁Plan
▁assertion
▁reportError
ProjectPlugin
▁rootNode
▁getDocument
ValueException
▁Insets
▁eventId
▁Run
▁RuleMatch
▁isSubConceptOf
▁JsonLibrary
▁FINDER
▁XMLHandler
▁38
▁TimeValue
▁getControl
LabelTable
▁StringValue
TypeName
Delimiter
OM
Break
▁RpcException
Deps
▁isTransient
▁SUCCESS
▁IO
▁Send
OrDefault
External
▁Address
▁getSql
▁getSegment
Consumers
Started
Sender
▁bufstrwriter
▁ParseTree
▁getByteBuffer
ProcessingTime
Overridd
enMethods
▁mergedServer
▁anotherServer
▁spi
▁getUri
▁getFormatted
Resolution
Closed
▁getArgument
LoggingEnabled
▁credentials
▁isMatch
▁ZK
▁Escape
date
ListType
▁ksession
ChunkSize
POSITIVE
Jar
▁Mapper
▁functions
ExecInfoParams
▁ODatabase
▁Sortables
▁OTHER
▁warnings
Wrap
DSLMap
▁pet
▁getAllow
izedString
▁langTool
AR
FS
▁AB
Assignment
▁FLOAT
▁addHeader
Transformation
LineBreaks
▁runtimeService
▁bounds
▁setSource
▁SimpleAnalyzer
▁dispatcher
Positional
▁gridwidth
▁customer
▁invokeOn
▁Extract
Concurrent
Creation
▁our
▁valueNumber
▁mention
ToCheck
▁neighbor
▁removeAll
Servers
▁currentTransfer
▁getNodeId
Two
▁ancestor
▁supported
CURRENT
Loop
Pending
Counts
▁DAO
FOLDER
il
▁ItemStack
Dead
▁fmt
ider
▁bitmap
▁leg
▁CacheStrategy
▁getHits
▁running
▁topology
LocationSet
▁unsolved
RESPONSE
▁incompatible
parent
▁uidl
▁PROTOCOL
▁merged
▁highlight
▁opts
Capabilities
Ms
▁tracer
▁getCharacter
Dec
▁isInterface
▁methodGen
▁NkImage
Aggregation
▁DiagnosticType
Refresh
Gateway
▁_1
xc
ConceptName
▁bb
$
▁unlock
▁logFine
has
Deque
FORM
Per
▁pageSize
▁facet
▁xpath
▁PATTERN
▁cubeDesc
▁ByteSizeValue
▁docker
CAST
PROXY
gn
▁isNotNoOps
▁sslContext
▁Extension
▁dependsOn
▁maxTime
▁ruleId
▁unknown
▁smooth
▁intellij
▁twitter
▁StyleAttributes
▁suite
▁activation
▁setCount
FormParam
▁bone
end
Negative
▁checking
▁getNumber
▁New
PUT
Supertypes
▁Span
Regex
▁fieldReference
▁Rest
Hint
▁terrain
tqv
▁isInstance
Presenter
▁getDisplay
Capability
▁FaultType
▁CO
Throws
▁datum
▁dao
▁cert
▁sentences
▁histogram
▁getReturnType
▁nextElement
function
Work
▁setAuto
Suite
▁sources
▁Stop
▁REMOTE
SEARCH
▁Groovy
ADD
▁poll
EXCEEDED
quotation
▁assertCompile
items
▁LocalQuickFix
▁forward
▁Trainer
▁getAvailable
▁setFloat
ceiver
▁twitterAPI
▁OptionValue
▁friendlyURL
▁href
executeFunction
▁AUT
Sessions
▁composite
▁clientId
World
▁statusCode
▁getDelegate
▁Registry
▁nanoTime
Directories
▁getAuth
Observer
▁ByteBuf
▁BaseAdditional
▁isP
Scroll
TrendsList
▁getRestBaseURL
▁outputs
▁symbols
▁caps
▁paragraph
▁scmMaterials
▁Program
JAVA
▁webElement
▁columnNo
▁events
▁disk
▁GREATER
▁partitions
▁ci
▁non
▁Sample
▁fromIndex
▁scriptIndex
Writable
▁Transition
▁getBit
wise
▁LOCALHOST
▁inputFile
Temp
▁getContentType
PreferenceValue
▁VARIABLE
▁MB
Owner
▁regexp
▁bs
▁DBNDatabaseNode
▁Z
▁getRegistry
▁summary
▁STATIC
▁addParameter
Docs
▁getDebugText
Classpath
Scanner
PRE
▁getDate
MultiMap
▁margin
IterateOver
▁getMetadata
▁keepAlive
▁DetectorFactory
Subscriber
▁getWidget
▁getDeclaration
▁Observable
▁TRANS
DELAY
swagger
▁methodDef
▁storeString
▁AbstractDebug
AndSuper
Wildcard
CLASSNAME
USERNAME
▁TypeKind
▁structType
▁Classpath
▁was
▁addContent
▁completed
▁co
Added
Java
Shift
▁SwingUtilities
Ancestor
TimeZone
▁lRate
▁variableUsage
DOC
hz
▁referrer
▁Comment
▁decoder
▁runWriteAction
▁box
▁getFilter
▁Store
▁setParameter
▁addTo
▁jp
▁problem
▁DAY
▁regionName
▁JMenuItem
▁setCheck
QueriesUtil
▁epsilon
▁ls
▁invokeMethod
▁levels
FileDataByModule
Streams
▁MorphShape
▁getUserId
VARIABLE
▁1000000
not
AndHeader
▁createCells
▁rebuild
Popup
Animator
▁isTerminated
▁getOrder
Background
▁relative
▁getCharset
▁orElse
▁war
▁keywords
▁edgeValue
▁itemName
ment
▁streamTask
▁BugAnnotation
▁fold
▁Distributed
▁propertySet
▁wire
sEntry
▁tagName
▁keyword
▁validator
▁LoggingHandler
▁nativeOrder
▁propName
▁Permission
▁attrName
Bottom
AP
▁AssertionError
▁updatePet
▁qm
Journal
▁getDomain
▁getServiceName
▁readUnsigned
PS
unary
▁escapeTableName
DocBuilder
▁rand
▁repo
▁4000
DSL
▁forConstant
begin
▁StepMeta
▁MODE
▁email
▁toExternalForm
depth
Total
▁getCube
Edges
▁setD
▁exist
▁begin
erManager
▁Broker
▁TopParams
▁jc
▁override
models
RA
The
▁Globals
VM
▁getMaximum
▁finally
if
▁megabytes
▁CLARANS
sc
▁uncompressed
Ack
▁network
▁words
▁Scheduled
▁FAILURE
nessAnnotation
▁isPublic
▁getExpression
▁initialParams
REMOTE
▁getTransaction
ating
▁ranges
Fact
▁toObject
▁into
SEC
ModelReference
▁Mongo
▁Metadata
LOCATION
▁disconnect
Upload
open
▁nameMap
Sync
▁are
▁groovy
▁JavadocTag
▁exitCode
Primary
▁Period
Locator
▁ILLEGAL
LABEL
▁65
▁getDatabaseName
Into
▁fqName
TRANSACTION
Upstream
Div
▁propagate
▁LCS
Profiles
▁urlPath
▁Js
Redirect
▁kelondro
▁ts
▁NDArrayIndex
▁guess
Fast
▁GAUGE
▁ApplicationMode
▁ce
Connect
Extra
▁flatMap
▁annotationType
SHORT
▁padding
▁Dart
▁Mapping
▁LockService
▁getUn
▁preserve
▁targetClass
▁columnFamily
▁PUT
▁pref
JOB
▁ordered
▁getter
▁only
Delta
no
▁createDiamond
▁numTopics
descr
▁Setting
▁light
▁isPrimitive
▁DOT
▁getNodeData
OWNER
Present
POOL
before
▁bool
ubly
▁Handshake
▁getBoost
▁nonNull
▁getSearch
▁cacheManager
▁variableType
▁AgendaItem
▁getMatch
▁isDone
RuntimeException
▁getPlatform
▁OK
▁superClass
▁Timestamp
Backend
▁sig
▁Library
▁launcher
▁hasItem
▁redirect
isDefaultBlock
Modifiers
▁Notification
▁statuses
AccessFile
▁getRole
▁getAsBytesSize
FIX
▁Problem
Previous
Rotation
POS
▁Longs
HELMET
Disposed
▁stripped
▁prepRet
▁primaryKey
▁GROUP
▁cat
▁invoker
FriendlyURL
▁JsonRepository
▁QuotaProtos
▁SpaceQuota
▁tile
ParsingException
▁treeNode
Back
Len
▁Collectors
▁currentContent
▁plid
▁MetricRegistry
▁GlobalScope
▁breakingNode
▁startLineNo
▁ride
▁ConceptEditor
▁bulkInsert
ableMap
▁getSelectedAbc
▁Var
▁pd
▁STOP
TREE
updateBlock
▁expandPath
et
query
OuterClass
OUT
▁writeInt
Satisfied
Certificate
Instant
Comparison
▁plain
▁cal
▁getN
▁constructedType
▁PrintStream
ix
▁Intention
▁addMessage
▁plasma
Another
▁sr
▁Descr
BuilderTree
▁program
▁analyze
DisplayName
▁setKey
▁then
createNode
▁buff
▁PA
▁define
COLOR
CODES
Convert
▁shouldNotBe
after
▁OPEN
▁always
▁getManager
▁declared
▁drl
▁IFile
▁CATEGORY
▁Protocol
Slice
resetBlock
▁Update
▁SoftReference
▁dataType
▁Scanner
▁setPreferred
Using
▁setStyle
constraints
▁fillStyle
▁TARGET
▁potential
Syntax
▁filenr
▁footer
SortedMap
afterReadBlock
VALUES
Coord
Embedded
▁texture
▁getUnit
CellRenderer
▁putInt
Changes
▁getLimit
▁tl
▁getOrigin
▁Bulk
NumberOf
way
▁MINUTES
▁localRegNames
ATIONS
▁basis
▁kill
ess
▁rank
ings
▁assumeFalse
SCOPE
▁getProcess
▁~
▁Iterables
▁Serialization
Writ
ShortName
Accept
▁constructors
▁labelTable
▁PrefUtils
▁removed
ApiException
▁myModule
▁tested
▁setStatus
Possible
▁inc
▁probability
Contributor
Click
▁findBy
Whitelist
Blocks
zCursor
▁MemoryStore
▁LIST
▁sid
Agent
EXPECTED
Inputs
all
▁webSocket
Drop
▁Delete
▁requested
▁paramTypes
LoopMacro
▁launch
▁HttpHeaders
▁getDriver
▁notes
▁counts
▁Localization
▁LineNumber
▁gc
Slot
line
▁isUnknown
ParametersMap
Indices
Initialized
▁DBEPersist
Minimum
ResponseWhen
ThenThrowOAuth
EXTENDED
▁jLabel
▁MockProvider
Directly
▁ENABLE
▁getTrace
▁projectName
▁ParamUtil
▁organization
Uuid
▁executeQuery
Reply
getNodeBlock
▁camel
▁Q
▁effectiveDate
▁getLocalAddress
▁ClassPath
Over
ToWords
NullValue
▁StringTokenizer
▁slots
▁inject
EditorInput
Graphics
Checks
FileEntry
CacheConfig
yQualified
▁insets
Parallel
▁onException
ForDatabase
Strict
▁rowCount
Up
Retention
sFor
TX
Rep
▁OPENING
Pages
Section
▁orderBy
▁PREFIX
▁fname
▁an
▁macro
befL
TOKEN
▁resultMap
Entities
▁checks
Formats
Points
▁TestObject
ColumnSelector
▁bar
▁KDTree
▁createTaskQuery
Defaults
▁install
▁getDescendants
sIn
as
RS
▁Monitor
▁DateFormatter
▁Debugger
▁pathTo
▁fake
▁Optim
▁setTextColor
ConnectionOn
▁isReadOnly
▁writeBytes
▁matchedType
OutOfBounds
▁normal
▁metaData
bit
▁setLayout
Stmt
EN
Animation
▁over
▁redisson
▁zz
Completed
DataByModule
Characters
▁viewer
Theme
isOptional
eb
bd
Cause
▁Res
▁definitions
Track
▁currencyPair
▁OrderType
ence
▁InetAddress
▁whitespace
▁recipient
indexSearch
▁allowMissing
▁Additional
▁UPDATE
▁Endpoint
Original
Placeholder
▁VIEW
▁localiseButton
GeneratedBlock
CONNECTION
▁testQuery
Parse
▁addDiscovery
▁blockSize
Gradient
▁Listener
wn
chh
▁REQUEST
▁ThreadPool
Superclass
▁partial
▁422
edSet
TOPIC
▁PortalException
▁requestHeader
▁isAbstract
VAL
▁getColumnType
▁rv
WorkingDirectory
MD
▁TIM
Categories
▁CASCADE
▁Genetic
Stage
▁mac
▁Postgre
Bugs
Contains
▁dependency
▁getActual
▁segmentSize
▁936
Needs
ators
▁PROXY
▁period
▁health
string
▁blob
Html
color
Deleted
▁45
▁Widget
▁DEVMODE
▁slave
▁Hive
gen
Shard
ModelListener
▁isA
▁ignoreCase
▁lineNum
▁excludes
▁Registered
bs
▁css
▁getTypeOf
▁pass
Logical
▁modulePath
▁Migrating
PrimaryKey
▁LogLevel
▁MessageHandler
Merge
SE
▁Generation
▁getJSONObject
▁createFullIdent
▁TimedRule
▁sk
▁modifications
▁strip
▁GUIScreen
▁background
Player
▁RamUsage
▁mem
Rank
AB
▁enumeration
▁getPassword
▁gauge
IdTo
▁loop
▁dbSql
That
▁dx
▁ONE
Now
Iter
▁createDefault
▁nullValue
▁getMin
OfType
▁ObjectUtils
▁BaseConcept
▁nodeId
oc
▁getCursor
▁coinbase
▁fireErrors
Letter
IntentionsUtil
▁colorScheme
▁isOpen
▁isClosed
▁allocation
▁lex
▁knn
▁DIRECTORY
▁AsyncAtomic
ms
TimeoutException
▁tenant
▁lastLine
SEP
Disk
Violation
▁canonical
BLACK
▁meters
Secret
Diff
outsideCommand
▁classPK
▁Url
▁buck
▁Core
▁colors
▁CANNOT
▁configureByFile
▁klass
▁newHashMap
ServletContext
▁getItemCount
▁getInterface
▁dayNightMode
▁daynight
▁DAYNIGHT
▁slist
NAMESPACE
▁integration
▁InternalError
▁emit
▁Assignment
▁pkgName
▁FOUND
val
▁testClass
Dataflow
▁JDBCObject
SimpleCache
▁enableJmx
▁864
Lifecycle
▁Generate
▁ase
▁Trends
HardAndSoftScore
▁getDependencies
▁safe
▁nvg
▁detail
ITEM
▁QUERY
▁dto
▁hi
▁CRLF
▁ru
Eval
▁visitMethodInsn
▁tearDown
▁getOptions
TypeImpl
▁WorkspaceMode
▁compat
▁serviceName
This
▁MPSDataKeys
▁isNotBlank
FIXED
StreamFactory
▁ruleSubId
▁CommitParams
▁getCamelContext
Variant
paredStatement
▁sep
▁paraIndex
OK
▁getBroadcaster
Plan
▁Preflight
▁parseDouble
▁putIfAbsent
Definitions
cheduled
Currency
▁getAction
▁46
▁pw
ChangeListener
▁mySeed
▁yacyURL
ONT
Splitter
losingNode
▁paramName
SUFFIX
qn
▁portletId
▁Tracer
▁ACC
▁upload
▁LexicalFrame
▁insertCast
▁buffers
Gap
▁isNot
EXIST
▁Dictionary
getNodesBlock
▁fire
▁keyPair
▁Atmosphere
▁parameterTypes
NAMENODE
Full
▁Pojo
▁layoutStruct
▁persistent
▁Hash
▁correct
▁ServiceName
EXP
▁errorCount
▁resolved
MAPPING
▁framework
▁unexpected
Buffers
EventListener
CS
PLATFORM
ps
▁CliStrings
▁FULL
▁createModule
▁abcIndex
▁mean
▁PROPERTY
server
Pixels
▁findForward
▁Package
PROTOCOL
▁WAIT
IOException
▁dirName
▁Metrics
SU
REST
INTER
▁MODULE
▁needed
▁authenticate
▁vb
ClassNode
Pre
▁annotatedWith
▁httpMethod
HandlerContext
▁PER
▁curried
directory
CHANNEL
Ident
Histogram
▁mods
▁elapsed
▁ROUND
▁putValue
Containing
▁Immutable
▁getStartLineNo
▁channels
▁remoteSeed
▁processEngine
▁classResolver
▁userService
▁getRelativePath
More
▁FILTER
oss
▁indexName
▁mm
▁conv
▁St
▁members
▁pipelineConfig
▁NEW
Duplicates
▁rm
offset
▁poolable
▁lc
definition
▁FluentIterable
▁getPortlet
Contact
Off
▁createQuery
▁lp
▁setDefaultText
Aggregate
BigDecimal
Levels
Positionals
▁vertex
▁DataBuffer
▁packages
▁JavaScript
▁mAdapter
Dao
rgba
▁reverse
▁jdbcTemplate
▁cachedObject
▁avg
▁work
JavaSerial
DataObject
▁newData
▁getCommit
▁JsonSerializer
▁finishTree
▁Preferences
▁Subscriber
▁ia
Program
▁Jackson
▁withMessage
enabled
Compatibility
▁Aggregation
▁shouldCheck
▁referencee
Idx
Persistent
▁typed
▁PredicateType
code
▁UndertowLogger
▁OptionSpec
Comp
▁created
Leader
ModuleS
ymbolicSuite
ModuleClass
▁ne
▁replaceWith
▁lcurly
Alpha
▁resourceId
▁CONSTANT
▁baseH
▁Blocking
▁getLib
▁WeakReference
▁attributeValue
commitBlock
▁javaScript
Sec
AVAILABLE
▁Signature
▁ANALYZER
PROPERTIES
INTERCEPTOR
ScrollPane
SpecificLimit
Blank
Bootstrap
Breakpoint
▁appName
▁TREE
Hex
▁jsonAdd
▁23
ee
▁getSubscription
Loading
▁docs
▁getEnd
▁bitsquare
▁REPORT
METHODS
Basic
▁Reflection
▁kafkaConsumer
BE
▁getTypeName
▁isNew
▁addFirst
▁seq
▁cost
ResizeListener
▁getSourceNode
▁severe
▁SINGLE
▁getCustom
EXT
▁lexer
▁EXAMPLE
STOP
▁locked
ADMIN
▁ZERO
DELIM
▁firstKey
▁Check
▁isNotNull
UUID
▁ImmutableBiMap
▁decision
▁856
MetaInterface
▁getBottomText
▁ALIGN
Ns
▁detector
▁getMinimum
ible
▁routing
▁DBNNode
focusPolicy
▁redisClient
▁classBytecode
eld
▁401
▁isFile
▁ClassFile
▁GeneralUtils
▁HConstants
▁fqn
▁getAncestors
▁TProtocol
args
▁outputDir
▁BORDER
NE
▁getRun
▁Inet
PortletKeys
▁TagParams
MapBuilder
▁adjust
▁Markup
Console
▁fetchSize
▁SHOW
getComponent
▁indentLevel
▁trip
▁JMeterProperty
▁503
util
▁getPre
▁classNameId
ParameterNames
isModifiedBlock
Blacklist
PARAMETER
▁onMessage
ThreadFactory
▁MY
▁charsetName
▁sessions
BLUE
▁choose
▁dn
▁isJava
▁isAttribute
IT
▁rgb
▁FileComponent
▁watcher
▁cucumber
▁Priority
▁UISupport
Web
Recovery
▁dateTime
Payment
▁started
▁0.01
ClassVisitor
▁600
▁Html
rgb
▁Portal
▁taskCandidateOr
▁duplicate
LOW
▁points
Measure
▁4096
Configs
Words
▁94
InProgress
▁indexStore
▁contextPath
▁NUMBER
▁Deployment
AVM
Adjustment
▁ASN
▁tc
▁archetype
WithForm
▁Timer
▁Toast
▁onSuccess
▁textTag
▁andWithName
▁click
▁providers
▁modified
▁ticket
▁getView
Mut
▁setAlternative
▁showDialog
Characteristic
▁COMMA
▁execption
▁mBeanServer
▁CLOSING
Tile
▁getBuffer
▁printil
▁columnType
▁toVisit
▁Attach
▁CRATE
▁29
▁jsone
▁CubeManager
▁childSetter
▁arrayCreator
▁Bean
▁drawLine
▁startY
▁oauth
Alert
▁getHostAddress
▁isShow
▁getLongName
from
▁EXEC
▁createUn
▁FileDownload
Hours
▁HttpSession
▁getUsername
ol
▁chunks
WithError
▁SELECT
PT
CALL
▁NetworkView
plg
lh
Verification
Frames
▁testBad
bers
▁getReal
▁getExtension
rc
▁ops
ObjectArray
▁example
▁stereotype
▁nativeQuery
▁Redwood
▁keep
FromMismatch
▁comments
FLAG
▁RawSqlStatement
▁curator
▁rightConcept
ProcessVariable
TextField
▁Cell
▁ADMIN
▁rb
▁getDistance
Checkbox
CNT
▁querystring
▁DBDAttribute
▁Suspend
De
ST
▁getV
Expectation
▁modification
▁logRowlevel
▁mf
box
isAlwaysVisible
▁TRANSACTION
▁In
ve
▁SETTX
getMain
ConceptBlock
▁CharMatcher
Bits
oop
▁SimpleMatrix
▁TASK
▁platform
ANALYSIS
▁ddmStructure
Shown
▁paramSpec
ParameterSpec
▁Algorithm
▁prompt
valid
▁addColumn
▁WARN
▁plugins
Translucent
Rel
Old
▁ImageIcon
AdapterDelegate
Duplicate
Secure
▁toNormalform
Assertions
▁locator
STATIC
bv
▁secret
Branch
▁between
▁expandNumber
idx
Visibility
Dirs
Render
Pid
▁NODE
METRICS
▁hosts
▁Word
▁excludeScope
▁naive
▁modifiersAST
▁isUse
▁baseUrl
Tenant
▁isF
▁findPlan
ZERO
▁CallIdSequence
Be
▁pc
REMOVE
Usages
▁Intent
Frequency
▁friendlyName
▁SLIST
▁tagInfo
StartScheduler
▁letters
PASSWORD
▁play
fq
▁Ref
wnlwmt
Pokemon
Nanos
CacheEvict
Simple
Beans
▁area
▁invalidate
LL
▁hudson
▁producer
▁checkC
▁JavaValue
Navigation
▁writeAttribute
▁getDirectory
▁hasText
▁Bit
▁isChecked
CONSTANT
▁dep
▁CollectionUtils
▁DATA
▁activate
▁Order
▁PRESERVE
▁getFullName
▁remoteServer
▁ClassBC
▁startKey
▁dot
Requested
▁getRaw
▁argsIncluding
Private
▁keyCrypter
▁taskList
overrides
DefaultBlock
▁bulletAppState
▁SchemaTableName
ActivityBehavior
▁BYTE
▁vertices
▁newName
▁bookmark
▁KeyEvent
▁Indent
dq
▁kylinConfig
▁Redisson
▁getMain
▁disp
▁secure
▁Rect
▁readBytes
▁ClassContext
SkipPolicy
Sh
FI
da
uxio
BlockStore
▁website
▁rowdef
▁Currency
▁setUse
▁getStatusCode
▁setUp
▁dbCacheNode
▁testGroup
StringGroup
BooleanGroup
▁requiredInt
▁stringGroup
▁booleanGroup
Allocated
rect
IDS
mainConcept
▁250
Checked
drfijn
Place
▁ActorSDK
▁sharedActor
▁toJson
▁hasExt
▁getInput
▁minutes
Sizes
DATANODE
▁isAlive
alias
▁HAS
▁getLines
Fragments
Charset
▁Discovery
Processed
▁shortComment
qzs
ORDER
▁CMD
▁login
▁ACCEPT
CheckInterval
▁addImage
▁isArray
Q
Synchronization
ang
Fallback
▁UserIDPacket
Pkg
Native
▁FAIL
▁getFlow
CHARSET
▁160
▁annot
Jetty
▁runSpeedTest
▁StartExecParams
▁isLetter
▁ByteSizeUnit
Encode
▁shards
▁dbo
HEIGHT
▁authorization
▁assertIs
▁quiet
Msg
Cells
StopListener
▁JList
▁Cursor
▁Empty
MultipartBinding
▁setOp
▁AnnotationNode
ho
▁ctClass
▁testEmpty
Catch
▁ac
enum
▁hints
▁day
Decl
CopySrcListMacro
▁EBoolean
SLAYER
▁vec
Containers
Wait
▁coll
Struct
▁pom
▁getBinArtifact
Migrate
▁caching
▁bits
RequestException
▁wc
▁maxDoc
Dis
▁more
▁Uri
▁distinct
▁called
▁dead
▁stackSize
sudxd
▁dataflow
Save
HANDLER
▁Int
▁getLocale
▁dependent
KeyMap
▁Form
▁Role
Account
▁FormAttachment
▁jme
▁dbStat
Implementations
JOIN
▁END
MOCK
Fix
▁getErrors
▁MaryProperties
ey
TypeException
RO
▁startIndex
▁Interface
▁iFetchPlan
▁maxWidth
▁numThreads
▁Product
SUCCESS
▁ask
▁mText
ValuePair
▁Category
UnsignedLong
▁newLine
▁horizontal
▁EXACT
▁routingGraph
FACTORY
Descr
IR
ORIGINAL
▁DebugInfo
▁debugInfo
▁ProcessEngine
▁confirm
▁setTextSize
▁WebSettings
▁TextSize
▁Host
ig
▁getLayout
▁FieldFrame
sp
memory
▁visited
▁bindings
▁PI
▁2.0
▁TheLocalFix
global
▁scratch
▁getOwner
▁projectId
▁parsing
ableValue
MEMBER
▁dataSourceNode
▁Flags
▁getSimple
▁TCP
▁toInt
OG
▁FieldAnnotation
▁wb
Dom
▁shardingContext
▁World
Providers
▁dump
▁INVOKEVIRTUAL
▁tester
▁setFormat
▁KeyValue
▁getJ
▁LLAP
InHierarchy
Convention
▁upper
▁dependencies
▁settingsBuilder
▁MATCH
Aggregator
▁getDataType
▁ep
▁wallet
▁getAux
▁ruleDto
CellContext
▁fmd
▁ItemEvent
▁ClosuresUtil
Contexts
▁recordingId
Correct
▁ee
▁35
▁Tools
▁readable
APP
ReplyManager
QuickStop
▁Pdf
▁getConf
▁Semaphore
▁LanguageMode
▁AsyncHttpClient
▁phase
▁NE
▁classIndex
HeaderValue
▁Coercing
PARTITION
▁ASCII
Declarator
▁getUTCNow
▁frames
▁modelName
▁character
▁fetchByC
▁mergeFrom
▁mapInfoControls
speed
▁mappings
▁archive
Horizontal
▁TimeZone
▁PkgControl
Hashes
▁COSDictionary
▁serverPort
▁Managed
▁Console
Recursive
▁ifc
▁getBrowserName
Example
portal
▁getCompanyId
Release
▁callX
▁fieldX
▁vcsField
▁getConfigBool
ATOR
REF
▁VALIDATION
ANGLE
Post
Trace
ser
▁categories
▁Extended
Handling
▁two
▁WRITE
▁receive
▁requests
▁ReferenceType
▁workList
Durable
▁typeId
ApiOperation
▁tip
ination
ffffff
▁Trans
▁worldObj
Many
Center
▁getStartColumn
▁getFieldValue
Letters
▁writeByte
▁traceInfo
▁getMethods
▁upgrade
▁FastDateFormat
IMAGE
sBy
▁setContent
▁injector
Sum
▁getStackItem
ArrayDeclaration
▁artifactType
▁ann
trust
▁ResourceFactory
▁newClassPath
Replication
▁Non
▁Display
▁rcurly
ally
CE
▁nameNode
ot
StartListener
▁FileType
▁getTemp
▁fos
▁COLLAPSE
tree
sentence
impl
▁IndexSearcher
▁testRule
ast
▁LettuceObjects
ettu
ceObjectsFromMap
Clear
▁BytecodeLoader
ForClass
▁structuralLock
ByCurrent
▁TypeSerializer
▁Matchers
▁ACCESS
CONTROL
▁parameterType
▁mapKey
▁datasetBox
Chat
▁Suppression
▁functionName
▁0.001
▁company
▁CoercingParse
▁THEME
ALLOWED
▁errorTarget
Arr
▁isUn
▁mutable
Compound
ClosureContext
▁ping
▁prettyPrint
▁svm
▁getAsString
▁clusterName
NEXT
▁1500
▁getQuoted
▁logs
EMPTY
▁pdfbox
▁vars
▁objectMapper
▁encoder
MessageCount
CompoundRule
ference
▁getTheme
▁portalCache
▁inter
▁ifMacro
Sig
Proc
▁DateTimeFormat
Numbers
▁Tags
▁getAttributes
Packages
▁CodecUtil
BACK
Configured
▁LogWriter
URE
▁LanguageUtil
▁TypeInformation
▁colNo
▁SortedMap
▁changed
Rels
▁greaterThan
▁about
▁appId
▁getLevel
▁getMy
Permissions
DISTANCE
▁reservedList
▁isAutoCommit
▁dbName
▁bugInstance
atable
BodiesReceived
▁dna
ENABLE
▁QueryBuilder
▁None
▁setTimeout
Remove
▁Broadcaster
▁NbBundle
▁nextLong
Suppress
▁hand
UpdateInterval
▁addDefault
▁LoggingLevel
▁readLock
▁currentFile
▁CustomChart
▁zzFState
DataContext
Clone
ual
Codes
SNodeListType
▁camelContext
▁isCancelled
Factories
weakSupertypeOf
▁getOperation
▁CubeInstance
▁nodeSubstitute
ActionsBuilder
▁IChildNode
Dot
thisNode
FALSE
▁messagePattern
Sameline
▁errorList
ak
▁authorized
▁resize
▁classNode
Bucket
Gc
▁nb
▁additionalInit
▁vm
▁sticker
▁align
▁createError
▁isRoot
AccessException
▁AbstractType
JoinColumn
▁durable
▁stat
▁getResponseCode
▁MaryDataType
▁PLAIN
▁fromAdapter
column
Guard
ies
Suggestion
▁discoveryConfig
▁same
IDLE
▁hidden
▁ChangeEvent
▁getOptionValue
SOL
▁xx
▁getHigh
link
url
Special
▁requires
▁jdk
▁fact
LogStackTrace
▁variableName
▁granularity
▁DirectoryReader
LogElement
▁TreeLogger
▁componentType
▁walker
▁TOP
▁indexes
▁sortValue
▁seeds
▁Defaults
▁MPSPsiElement
▁Semantic
Route
ResponseHandler
▁newMeasure
Tools
▁GoPlugin
▁getArguments
▁parseTree
▁floatValue
ChangeLog
▁PubSub
▁mess
▁maps
aretPosition
▁LOGGERS
▁ErasureCode
OnChange
▁ddmTemplate
Viewer
ip
ending
▁Props
CacheManager
Reduce
▁isNode
▁createEvent
ThreadCount
▁groupBy
stack
▁applicable
▁getCxxPlatform
▁servletName
▁abort
True
Done
▁isAvailable
Move
TAB
▁getStudent
▁queryString
▁weights
▁pt
▁classPath
▁newRequest
▁Times
▁separ
▁setSize
▁getOrCreate
GENERATED
ROW
▁requestBody
▁icons
▁getScheme
LanguageId
▁COLON
Criteria
TypeFrom
▁CFG
▁attachState
▁authHeader
▁di
▁isAsync
▁headerValue
▁isD
▁multiple
▁Bolt
▁setTransfer
StreamException
▁terminal
TRIM
▁auditStarted
MessageListener
▁datatype
Reconnect
Instances
AndArray
▁ACK
▁setCurrent
▁Show
▁sel
▁testRemove
▁CSS
ADDRESS
▁audio
Planner
Launch
processor
Outputs
▁100000
SEND
dotted
▁getAlgorithm
▁pe
▁PoshiRunner
▁PD
▁StringReader
▁getInspector
▁Reflector
EqualTo
▁getSingle
▁TestUtil
▁partitionId
ics
▁isWarnEnabled
Multiplier
Attr
▁DART
ws
ProjectResponse
▁JobExecution
▁Lookup
▁dataset
▁DirectMessage
▁angle
▁PaginateItem
▁ICC
▁ODatabaseRecord
▁StringManager
▁MapProducer
Problem
▁fromIterable
▁setParent
▁sqrt
PLUGIN
Func
Descendant
LocalServiceUtil
▁kilobytes
▁Elasticsearch
QosEnabled
▁jobgraph
Put
▁LAR
▁QueryResultSet
▁ElasticSearch
Partitions
▁getJavadoc
Deviation
Modification
▁aggregate
roadcast
▁chunkSize
▁MultiMap
▁Ws
▁collections
▁SCRIPTS
▁FileScript
▁mapSrcMacro
mapper
Same
us
▁PushParams
▁getExpected
▁KB
▁GetterUtil
▁valueType
show
▁Region
Tabs
▁getDuration
Play
▁TreeNode
Drivers
▁methodCall
▁groupArray
▁perform
▁closeConnection
Unknown
▁jodd
▁OVR
round
Edit
▁Header
PriorityButton
▁readInt
▁CLOSED
Ssl
▁versionName
step
▁GeoServerUser
CC
Contain
▁99
▁prevToken
▁startLine
▁CommandSpec
Implementation
▁features
▁HEAD
▁scheme
▁AMULET
Attached
▁getInputStream
Prefixes
▁getDialect
▁toJSONString
▁topicName
▁TupleExpression
MessageQos
UR
▁logMessage
▁OIdentifiable
BitSet
▁roots
▁heartbeat
▁cacheStrategy
Replacement
▁setC
eaaa
HAVE
Loaded
Symbol
▁product
Mirror
▁marker
Shared
▁revisions
ete
Transactional
▁singletonMap
▁Executable
▁castExpression
▁ph
▁rc
▁pageInfo
Ticket
▁enforce
Nonnull
Positions
▁theSearch
▁advance
▁getSModel
av
sPer
▁messageId
▁btn
▁assetManager
▁mockito
▁SAVE
Addr
▁chn
▁idle
▁gradientRecords
▁javascript
▁perm
Product
▁jedis
▁groupName
▁isDigit
▁getInstanceName
▁profileHandle
Network
▁NkContext
▁shouldNot
▁OBJBLOCK
▁addLast
▁getScore
num
LEN
Fraction
▁highest
▁TRACE
▁getURL
▁containing
▁getColumnLabel
Switch
▁OS
getInner
TabNameBlock
▁del
Shortcut
Rate
▁secondary
▁currentFrame
▁Predicates
Thrower
Slash
▁toNanos
▁publicId
▁IgniteBi
▁Solution
▁Options
▁numRows
▁center
▁63
▁Mirror
▁viewHolder
▁preferences
Bind
▁getStartColNo
▁Book
xdc
▁Stub
Exit
▁destStack
.3
EXISTS
▁dataTimeStamp
Decorator
▁Attributes
ute
▁userConfig
▁LibraryResult
▁RESOLUTION
▁lon
LoadErrors
replaceWith
Operand
Restart
Roles
meta
▁FilterContext
Javadoc
retrofit
2.
http
▁anomaly
ContextFactory
▁finalize
▁CacheRecord
▁IE
▁setLong
Secondary
FaultHandler
▁moduleId
QUERIES
▁interfaceClass
▁IconManager
CTION
ArrayList
Are
▁GetEventsParams
▁Account
▁need
ACTIVE
▁vnaFrame
FLUSH
GR
▁cfName
▁andOfType
▁endIndex
▁outbound
▁kv
▁assertMock
▁Spring
BITS
▁bufferappend
▁returnResponse
▁LUCENE
▁hide
▁nodeSource
▁commandBuffer
▁dstBuffer
▁dstOffset
▁jav
Primitive
▁nextNode
▁recidReuse
▁testGood
▁Generator
▁wikipedia
wards
Elig
▁DebugInfoCache
▁myNodePointer
▁getCluster
▁BUFFER
SearchQuery
Upgrade
HBASE
▁absolutePath
▁ROW
▁denyCreateView
WithSelect
ure
default
Verify
Recover
twopzc
▁0.3
Dict
▁checkFor
▁getTransfer
array
▁cas
▁exc
▁leader
▁hc
path
▁MAIN
▁IProject
Instantiable
▁BRunUtil
▁Pipe
▁setElement
▁testIs
▁Tester
▁getOpen
▁serverIp
▁syntaxError
▁varNode
▁writeln
Ready
▁jsp
▁getBooleanValue
files
▁isInfoEnabled
▁DataType
▁Join
▁flowFile
LinkedQueue
▁Chain
▁diagnostics
ObjectiveCName
▁jms
▁getPrivate
ExceptionForType
▁indexMetaData
Lat
▁DataTypes
Mixin
▁modes
▁hmm
▁Mat
▁tomcat
▁RGB
▁fluid
▁DBException
▁redundantBranch
ili
▁Replace
▁SChild
▁getShared
Direct
position
ALLOW
▁Container
▁SELECTED
▁CLOSURE
YetImplemented
▁commandExecutor
▁parameterMap
▁Control
▁Email
▁lazyCreate
Engines
TEMPLATE
DEVICE
▁scoreSort
▁fieldSort
▁ECMASCRIPT
▁sent
▁Shard
dkew
▁ABC
▁records
▁Directory
▁cfs
▁watch
▁Regular
▁SSLContext
roundingScope
ASCII
▁pmd
▁scorer
sum
▁vaadin
JavaScript
▁ProcessorType
ACKNOWLEDGE
▁isBlank
UNIQUE
▁Active
SideWidget
▁speed
Appearance
Light
RD
ReadOnly
▁digits
▁beanFactory
Leaf
▁Interval
▁GrizzlyChannel
▁createEntity
▁TcpDiscovery
▁sdocWith
▁REFERENCE
ToLiveSeconds
▁diagnostic
Identity
BuilderImpl
▁ErrorResponse
False
▁Device
▁PRE
▁resultHandler
▁Sh
▁openapi
ClassInfo
ification
▁stub
pro
▁OServer
▁publish
Lo
▁actionGet
▁astNode
▁finished
▁Profiler
reference
▁Flight
▁COUNT
DOWN
▁focusFraction
▁zk
▁setIs
Dest
ServiceBuilder
▁numericColumn
▁cookies
▁BaseQuickFix
▁dataPaths
Pipelines
▁IntColumn
▁ClassConcept
Origin
▁SYSTEM
▁doTestWith
SpecificSettings
ZONE
▁defaultJava
▁SoapUI
▁iteration
▁responseText
▁PRIVATE
▁BCUBED
REPRESENTATION
▁RenderInfo
▁serde
▁leave
Segments
▁userSession
Timeline
iter
▁testDec
ideByFileName
AndModule
iconPath
COMMENTS
NORMAL
▁SparseDataset
▁gcmParameters
▁RESOURCE
InputNode
▁OType
▁HStoreKey
RID
LOGIN
CopyMessage
REGISTRY
▁ErrorSeverity
Serialization
op
▁cd
▁testPut
▁skippedEdge
▁capture
HttpRequest
CARD
PROVIDER
▁47
▁pathInfo
▁JButton
Activation
EntryPersistence
FCI
▁getAsync
▁RuleSet
Tx
FEE
▁setLevel
OUR
▁varRef
CASE
▁FinderCacheUtil
▁setResult
DefinitionId
▁compact
▁getInit
Receive
▁responseNode
pect
▁zip
▁Wrap
▁internalGet
TAGS
time
▁900
▁nodeMap
ShellEnvironment
▁successful
▁OutOf
▁localCache
▁preview
▁Tab
▁CHROME
▁ANDROID
▁getById
Username
Best
▁explicit
▁EXCEPTION
book
▁OptionType
Multimap
▁regionInfo
▁Named
Decision
▁Given
▁Thunk
▁interceptors
▁IfMacroContext
▁FileStatus
▁hostLog
▁waitTime
▁vn
▁blur
▁STYLE
FeatureName
▁testDefault
▁8192
▁Tokenizer
Sentences
Jars
▁180
CALLBACK
▁getJdbcTemplate
ANNOTATION
▁getPrimary
▁resultType
Grouping
▁Proxy
▁METRICS
▁selectedCell
Attempts
CRE
are
▁draft
Grid
Existing
▁importedClasses
▁setInstanceName
▁TRI
▁ItemID
▁packed
▁ttsVoiceName
▁48
▁getBroker
Tester
▁sqlSessionProxy
▁peers
▁findByG
izing
▁createImageCell
Versions
▁readNamed
▁getSig
▁catalogCache
▁adjNode
ACK
beforeWriteBlock
let
▁EmbeddedChannel
▁HEARTBEAT
ORS
▁ColumnInfo
▁hsf
▁Summary
▁Char
▁getSelectedItem
▁IntervalLiteral
▁ClientProtos
BUILD
▁Customer
▁toPath
▁initiatorPeer
AwareService
▁serverName
▁forClass
Ranges
screen
▁CLUSTER
▁HBASE
▁isInside
Converters
▁chooser
Bindings
YEAR
▁setInclude
▁typeClass
Authenticated
▁rkhs
ay
sOfClassesWith
▁HttpGet
source
ServiceName
JavadocToken
▁SESSION
opt
▁getParentFile
▁DROP
▁notification
Canonical
Procedure
▁orient
db
▁getW
▁constr
▁DefineFont
literal
▁paint
▁HttpRequest
▁DualKeyHashMap
▁aggregator
▁SUB
CacheEntry
▁PLUGIN
▁expectedOutput
Scheduled
▁isUsing
▁CloseFrame
▁brace
▁DDMTemplate
▁LF
▁sinkConfig
stitution
Abbreviation
▁Dummy
▁getEntry
extended
INE
▁getVisible
▁getBack
▁getClassNode
▁getColumns
▁ProgressManager
▁Modal
int
▁parents
▁Charsets
Filesystem
▁Rpc
▁144
ACCOUNT
Executable
▁LABEL
▁indexed
BySignature
▁compressed
▁kelondroTree
▁FORMAT
▁Docker
ROLE
▁FiniteDuration
▁Solver
ll
IMPORT
PK
▁stderr
▁bodies
PRO
▁AnnotationEnum
Libraries
TopComponent
▁classifier
Configurer
▁alter
▁readOnly
▁Bundle
▁Raft
▁grandparent
▁entities
▁isRe
TTL
▁middle
▁HmdMatrix
▁dm
Signal
Promise
stream
▁Copy
Media
Stopping
ButtonEvent
Bridge
SingleLine
DICTIONARY
class
▁tuple
Abstract
▁isAnnotation
Border
▁Reflect
MENU
▁callable
▁BrowserVersion
▁interrupt
▁getConstraint
Pose
AsCorrelationID
▁BINARY
▁severityLevel
▁indexer
USED
▁pathSeparator
▁getStorage
Plus
Arrays
▁lemma
▁concrete
FileType
TOP
▁LANGUAGE
▁parameterNames
▁Direction
Readings
host
▁ProxyHandler
RelativePath
Balance
FileException
types
its
NOW
GED
▁IssueDto
▁JPanel
▁streamId
Vec
lash
Days
▁errorOutput
▁isActive
▁portletRequest
FOCUS
▁Lazy
▁EditDistance
▁stores
▁JenkinsResults
ParserUtil
▁CONFIG
▁getStringId
▁ks
▁known
▁German
▁createFile
▁MinaChannel
▁CAN
ments
▁finder
▁runner
StaticField
▁searchResponse
▁LocationImpl
▁wl
▁Ex
▁BLANK
▁Topology
Extractor
Illegal
▁Peer
▁newCache
▁sendRedirect
▁localAddress
Gen
▁criteria
HALF
▁backendTl
▁annotationKey
Marshaller
.7
▁sv
▁ind
NotFound
ting
▁getDimension
▁Osmand
▁defaultVal
▁possible
Relation
VIEW
Ws
▁JobParameters
▁rename
PUBLIC
DirectMessage
Seen
▁httpResponse
▁getBeginLine
▁delimLimit
▁getUserService
▁metaClass
▁indexSearcher
FieldType
Managed
▁keyManager
▁vertical
Partial
EL
▁MYSQL
▁density
SAME
▁ntrees
▁ruleDao
Named
▁adjustedWidth
▁Toolkit
▁PostingsEnum
▁blacklist
▁executeCommand
displayStyle
EXECUTION
RETRIES
▁latest
Answer
MASTER
▁libdivide
▁serialized
KEYS
▁processFiltered
MARGIN
utation
▁pm
JS
▁rel
BuilderWithChain
FromLeaf
▁Drop
▁du
▁imgDim
Print
ionPolicyFactory
▁PadOption
Escape
Accepted
▁getenv
ClassSet
▁KIND
▁whatExpected
EVENTS
▁testMapStore
▁waitForEvent
Subscribe
▁sf
Wrapping
▁doThrow
▁hasMoreElements
MaximumSize
ToDiverge
itted
fa
null
Fill
▁patch
▁isNative
FillStatus
▁DigestURL
WorkingMemory
▁ruleBase
▁SN
▁getProduct
▁ServiceType
Boundary
cce
▁ANY
▁cacheSize
▁fi
▁REST
ep
Characteristics
▁PostgreTable
▁logWarning
▁imported
FqName
▁resultList
inematic
▁translation
▁proc
LogLevel
fL
Reflection
▁AnonymousClass
Bar
Curly
HashCodeMethod
▁ChannelEvent
▁Interpreter
▁FacesContext
MORE
Keywords
base
ReturnValue
Minutes
▁sy
▁setBackground
iations
TableModel
ToInt
▁ENTRY
Interrupt
▁lr
▁optimize
▁isMulti
WAIT
▁getAnd
▁kbuilder
▁setM
CONTAINER
DEP
▁newFuture
▁SQLPreference
▁PortletKeys
▁by
▁capsule
Intrinsic
GRANT
per
▁replication
CLUSTER
▁TreePath
▁REDIS
▁dirs
▁cpu
▁GenericsType
▁Hadoop
▁hasContent
ight
▁scm
AndRestore
▁rightExpression
Zk
▁agent
▁stored
▁keyedState
▁responseCode
EntryActionKey
▁presto
AUTH
▁getManagement
▁transition
▁includes
▁SH
▁directories
▁persons
▁buildCsvLine
▁timeMillisSpend
▁Style
HostName
▁addEdge
▁Line
▁Y
ResourceLoader
▁lastKey
▁getFormat
▁getCal
▁slf
▁km
▁Php
▁sInputCodes
▁getVariable
▁checked
MethodSignature
▁directives
▁jetty
▁perms
SizeInBytes
▁stepMeta
IndexWriter
▁weightsHdf
▁fileFinished
▁mapped
▁room
Undeclared
▁openoffice
▁getSecond
byte
PREVIOUS
▁checkName
▁backup
item
▁getPersistence
FieldData
▁place
▁getSkinnable
▁Bar
▁div
▁getLocalScale
▁sValue
▁NodeInfo
DESCRIPTOR
▁lop
▁rop
▁lhs
Refactoring
▁Bag
▁totalSize
Implicit
▁DBSObjectCache
EQUAL
▁getPrefix
▁API
Hosts
▁getPermutation
▁GENERIC
▁IndexHelper
STATE
▁GRAKN
Plain
▁WHITE
BlockWhenFull
PublicKey
▁QueryResults
PARSE
▁HttpMethod
INTERNAL
▁fromMap
Tracer
▁frameHandler
SentJMSMessageID
▁comma
▁loadLibrary
▁sublistsIndices
▁entityClass
▁Conditional
▁registerProblem
HighlightType
ScvLine
▁Bug
▁getByteArrays
Bus
GE
PropertyAsSQL
▁hdr
▁childCount
INK
FactoryFinder
▁StrutsSpring
▁Expected
▁edit
▁320
▁errorColor
▁Morphshape
▁doSomething
▁Site
TE
▁pentaho
▁ServerRequest
▁CatalogUpdater
▁kp
res
EXPRESSION
▁LIR
▁findElement
keystroke
DateTime
port
▁iam
▁atts
▁Find
▁fontSize
▁cacheName
▁containingLink
▁newCall
▁initiator
▁rawKey
▁targetNode
▁NVGPaint
▁CLASSPATH
NOTIFICATION
▁Msg
BO
▁masm
Terminatedby
▁getAsSize
▁PK
▁Sort
▁getReplicaId
▁findViewById
REG
▁DefaultEndpoint
▁SurfacePattern
▁ii
Terminal
▁hashes
▁logTime
▁getInputRowMeta
▁NEGATIVE
▁setIgnoreCase
▁LibDivideS
SEQUENCE
▁MPLSH
▁dy
▁getAccess
ORY
▁qevent
SetOperation
Ver
ReturnType
▁parenAST
▁getObjectId
PARAMETERS
BEFORE
▁testLoad
CEEDED
▁Formatter
▁dictionary
▁bytecode
ETRADIO
▁loadIcon
▁COMPA
Subject
input
CollectionId
▁accepting
▁sh
Bounds
▁rawTerminal
▁SGR
▁utf
▁getRowCount
▁mgr
UnitOfWork
Attachment
▁ActionKeys
▁printError
▁propValue
▁FileNot
▁bp
▁INVOICE
HeaderDirectory
Around
▁methodInfo
▁getIndexWriter
▁maxAge
▁memAddress
▁ambig
uous
▁lb
ERR
▁accessor
generateBlock
Invocations
interface
▁selenium
▁valueString
▁buildcraft
▁ZONE
▁basedir
▁training
▁Identity
▁printHelp
withList
Article
Self
▁TIMEOUT
▁IMPORT
ANT
WORDS
▁isPre
▁portletName
▁caseSensitive
▁getDialog
▁AvailableLoad
LineLength
▁setAddress
▁Compilation
Mixed
▁BValue
▁ll
▁turn
SH
▁street
▁Output
SUMMARY
▁tw
▁successes
▁Versioned
ro
▁findWorldByName
▁kcontext
▁mandatory
▁Vertex
▁getJava
▁dispatch
▁writeProperty
▁classNames
Buf
▁COMMIT
▁tcp
▁historic
ByKey
DUMP
▁fa
▁Missing
▁asText
▁SQLServer
▁itemId
▁getAmount
▁OR
▁nameAST
▁Constraint
Align
▁searchValue
▁setF
ric
ditorContext
EntityManager
▁Storage
▁Spider
▁writeAsCsv
▁hasValue
Unique
▁Info
▁trouble
Locked
▁channelName
ingNode
▁inEventLoop
▁testPoshi
Poshi
▁MethodInfo
▁MethodBody
▁isAscii
Presence
▁nc
▁sur
▁searchContext
TH
ingStrategy
▁gwt
Needed
▁createSession
▁operands
▁formatCommand
▁Keyboard
Cookie
▁getEventName
▁categoryColumn
▁invokeLater
▁getErrorMessage
PRIVATE
Ar
Dynamic
ClickListener
▁myConcept
▁CodeReader
UTC
DefinitionMap
▁Resolved
▁messageFormat
▁price
ChannelBuilder
▁combined
▁BrowserType
FieldValue
▁backgroundColor
QUOTE
▁orientation
UB
▁authConfig
▁tp
PropertyValues
▁getTree
WizardPage
COLUMNS
▁yacy
▁requestURI
▁getUnresolved
▁reflection
▁schemaRule
AndCompile
▁jdbc
ByteArray
CATEGORY
▁getExchange
BIT
▁IResource
ratio
▁getGraph
IndexSearcher
SUB
ActionID
RANGE
persist
ClasspathEntry
▁Issue
▁Solr
▁Auto
▁drawString
▁Streaming
Enc
Reg
ExceptionMessage
▁getDummyBean
Sort
▁IMPL
▁deviceId
ored
▁ad
▁Cloneable
▁enumConstantRef
Append
Distribution
Retries
▁OStorage
AndNot
ingEvent
Checking
▁OpcodeStack
▁Player
▁executorService
▁Dialog
▁uk
▁ByteString
▁Shorts
Calculator
▁qu
▁Complex
RegExp
TabName
▁70
▁curVals
▁getMeasured
▁currentLine
ager
▁getDrawable
▁HtmlTag
▁referenceMacro
GetReferent
Composite
▁back
▁toRemove
Idle
extendedClass
▁parameterObject
▁valueFields
▁EMBEDDED
▁engineRule
ResolveUtil
▁isSingle
Routing
▁getMsg
▁ans
▁ASYNC
▁AgentInstance
▁SEMI
EDITOR
▁binarySearch
▁AuthConfig
▁fieldInfo
EX
NotPresent
▁sinceVersion
INPUT
▁checkCPP
ServiceProvider
fs
MagicNumber
▁IErrorReporter
reporter
Recognizer
▁Progress
Connected
▁HANDLE
▁toJava
MappingException
▁createImage
▁asInt
GpxHelper
▁CodedInput
UpgradeHandler
▁getInternal
SavedSearch
FILES
BRACKET
▁testCustom
▁gamma
CaseSensitive
▁UNI
▁getAs
Exclude
▁testHarness
▁processEvent
▁gt
▁RuleNormalizer
Scaling
ProjectItem
▁Synchron
▁snap
▁createUser
ading
▁jSeparator
▁JSeparator
▁chosen
▁hasDefined
PositionalValue
▁readValue
▁getNodeAncestor
MaterialConfig
▁rsw
▁columnPrefix
▁GridPos
Anchor
▁MimeUtil
CommandFactory
HandlerMap
▁CONSTRUCTOR
▁draw
Conditional
RC
Find
▁Resources
▁Counter
▁getLatitude
▁swap
ter
▁textline
▁synth
▁outputFolder
▁FloatBuffer
▁linkDeclaration
▁Business
▁plasmaCrawlLURL
▁lineCount
ERASURECODE
▁Joiner
Implementor
▁lvValues
▁VK
▁rollback
izedBuilder
▁parseByte
▁queryForInt
Sorted
OVERRIDE
▁Injector
▁oos
sCount
▁eventHandler
▁github
▁SModelTreeNode
▁uuids
▁localData
CompanyId
ARK
▁embedded
▁hibernate
ADDED
CFGPrinter
▁DBIcon
▁calculable
▁queryBuilders
▁createScreen
▁LENGTH
▁jpexs
▁decompiler
▁flash
▁filterName
LI
License
Invokers
▁getExecution
▁75
▁ANTLRError
▁httpVersion
Channels
▁getLocalName
JavaType
▁inflate
▁getRemotePath
og
ler
▁Provider
▁iterations
▁getTemplate
▁transitions
▁Api
ors
▁0.8
TypeSettings
▁DO
▁chart
▁myNodes
UndoableCommand
▁RUN
▁keysCount
Free
ToJavaSerializer
▁serializeAsJava
rz
▁promises
▁cacheNode
▁getConfidence
Candidate
Rectangle
▁setVariable
▁fbs
▁third
▁getMeta
Audio
Orders
▁FieldNode
▁scopes
▁virtualHost
▁liveDocs
▁license
ControlChars
▁getTestName
ConstantCell
Compare
jt
ImportGroup
izedResult
▁probe
Reload
Structures
▁createFrom
pt
▁Paging
StartLine
PositionInLine
▁setData
▁timeOut
▁contentdom
▁valueArray
Subscri
▁getDirect
▁cli
ImportOrderRules
ert
▁Camel
▁Loader
Attempt
LINK
▁createHistoric
▁stateChanged
IndexDefinition
▁isRegistered
MapSrcListMacro
IZED
▁CoreAnnotations
▁viewName
▁SAME
state
Delegation
▁RGBA
▁oracle
▁Has
Topics
▁sym
▁123
▁BYTES
▁sparse
▁machine
▁strings
▁selectedNode
HAS
▁clientConnector
▁reply
dt
▁mediaType
▁addTest
▁sourcePath
▁PGraphics
▁getO
▁readObject
▁zero
▁createCheckbox
▁wildcard
▁miEdit
▁dataFilter
▁MetadataManager
▁removeInstance
▁createField
▁FLUSH
less
▁jkiss
▁DBSForeignKey
▁rd
▁ENUM
▁getAccept
▁addFilter
▁setNode
▁createNodeId
SHOW
Trigger
▁isRowLevel
▁transactionId
▁withName
▁Cucumber
region
Chart
▁rpc
▁fingerprint
▁ISelection
ChangedListener
▁free
▁Exceptions
OptionValue
ENTITY
Configurator
▁PropsKeys
▁DDMStructure
Then
CheckForNull
▁setPartition
Generate
▁nextNextInfo
▁Kie
▁configFile
ClientException
pre
▁tablename
▁Results
▁ATTRIBUTE
GET
▁Go
▁updatedAt
▁JSType
▁timeZone
▁closureParmRef
▁getBug
▁hook
▁typeDesc
TypeId
Fetch
▁minus
Features
ities
▁pred
MessagesWhile
▁targetName
▁Mouse
▁INTERCEPT
Finish
MEMORY
▁ValidationError
▁isShutdown
▁scores
▁unresolved
AnalysisContext
▁unicode
▁JsonNode
Sets
▁ovr
TWO
qw
PoolSize
websocket
▁remotePath
over
yphenation
▁BOUNDARY
Offsets
▁ZLText
▁getStreamID
hsva
TRANS
▁replacements
▁getFileSystem
▁SWP
▁PostgreSQL
▁setUser
STACK
▁setOption
▁PREFERRED
▁Member
Paintable
▁photoUrls
▁Prepare
SendOriginal
Stopped
Prompt
▁precision
▁scopeType
Magnitude
▁Child
organization
BeanFactory
▁getLink
▁urlHash
▁mustCheckName
▁aAST
Throwable
FieldReference
▁INDArrayIndex
Workers
▁ZipEntry
▁nextPlan
FromCache
▁convention
▁GERMAN
Strategies
▁sanitize
▁sdk
▁getDb
▁Radio
▁le
▁im
▁motherTongue
InBytes
▁concurrency
▁Bad
▁Serial
Cnt
Delivery
▁deep
▁neo
▁cursorSequence
Pred
▁Hibernate
ax
timeout
DecodedDebug
Pixel
▁digest
▁rejected
Disallow
▁currentTime
▁objectTypes
▁myThread
▁PAGE
▁barrier
▁RemoteUserInfo
▁canvas
▁relationship
▁createText
AndTransform
▁FAILED
static
batch
WRAPPER
▁Rectangle
▁PropsValues
▁CommitStatus
▁LeftCurlyOption
▁NL
SCHEMA
CheckerAdapter
▁autoStartup
Main
RI
FFFF
Assertion
▁liveGroup
▁mMax
▁distributed
Fs
▁ZWave
Central
Scene
CommandClass
JoinTable
GreaterOrEqual
▁underlying
loaded
UID
ant
▁WebDriver
▁columnNumber
om
▁Stage
TestUtils
KeyException
▁HORIZONTAL
Requests
▁50000
▁getURI
▁Postgres
FIELDS
available
RequestBody
▁persist
RETRY
TargetException
▁LINE
escape
▁copyFrom
Jump
▁currentCell
Locales
▁Dis
AccessModifier
▁Preference
▁verifier
▁Indexable
▁Persistable
ationCheck
▁steps
▁copyOfRange
▁CacheWrapper
▁getProvider
▁WebgraphSchema
▁er
▁WNDCLASSEX
▁STORE
▁LOAD
ToUse
▁SETTING
▁MeowU
▁getMetaData
FromCoreSize
▁SPACE
return
OT
▁bodyIndex
OrThrow
▁outputConcept
▁Severity
ME
double
ron
▁SearchOptions
▁newElement
▁expressions
Watermark
▁matchedNode
▁cover
▁TypeVariable
▁plasmaWord
IndexEntry
Tuple
▁BUILD
SessionContext
▁safeFileName
▁ap
▁topParams
▁unmarshal
▁BugPattern
PartitionNodes
FAILED
▁isOn
INDENTATION
▁ListenerInfo
▁ChannelState
SPLIT
▁setProperties
▁executable
▁isStarted
▁Bottom
fix
▁generic
▁ImageUtilities
▁debugger
▁AbstractSimple
ReplaceRule
TRI
GGER
Aggregated
▁shadow
Synchronous
Filtered
▁caption
▁JVM
iate
▁sourceMethod
▁iValue
RUNTIME
▁segments
▁age
▁RED
Sharing
▁cx
DATABASE
▁releaseId
▁POSITIVE
▁aop
aopInterfaces
▁systemId
▁processCell
Escaped
TICKET
VS
▁createReadOnly
▁ProducerRecord
SHUTDOWN
▁CL
▁ec
IdGenerator
WRAP
▁entityManager
DataFormat
▁NullValue
▁Partition
▁ClassFrame
▁typeMap
▁versionString
▁union
▁nt
▁byteArray
Snippet
▁mat
▁take
Materials
TER
▁defaultCharset
Handshake
Protected
▁expanded
▁phi
Allocator
▁RocksDB
▁optimized
ErrorCode
Real
CONVERT
▁65535
Templates
▁dl
COMPONENT
▁toData
▁firstChild
▁frag
▁selectMap
▁pts
▁getResponseBody
ThrowsTags
▁bc
▁emptyCell
Kit
▁threadName
▁uptime
▁getLibrary
▁Management
▁testCase
▁migr
▁classObj
▁blue
Debugger
An
▁tmpval
▁splits
bsol
▁startObject
▁CommonTree
ped
Units
▁_3_
Registers
ADING
▁getTimeout
Ptr
▁FONT
▁startExecParams
Sign
▁standalone
▁MERGE
RESULTS
▁completion
ise
▁coverage
▁anchorNode
▁hit
SCM
▁InputSource
▁locateFinest
▁sourceRepo
▁124
▁showError
▁javadocComment
▁setOn
▁findFirst
▁foreach
PART
CONTAINS
▁quad
▁ownerId
▁tpf
▁instances
▁taskExecutor
▁setValidator
▁toAbsolutePath
PortletId
▁InvokerHelper
▁testSub
mit
▁Compound
▁per
▁GLES
ColumnName
ationTime
StaticMethod
attachment
▁mainNode
▁swagger
▁60_000
▁readableBytes
▁For
title
▁getSocket
stop
TEAM
▁superType
Jmx
▁currentValue
▁theLogger
▁KettleDatabase
▁addField
▁MapSequence
export
▁Embedded
▁DataFrame
Machine
▁precedence
WriteQueue
IM
ListModel
HashSet
Ranking
▁pa
▁getStore
▁tableId
▁Nodes
Inclusive
▁specification
Futures
▁ConstUtils
▁dbe
▁newArray
▁ENABLED
Penalty
▁3.0
▁denom
Enumeration
jsixhd
▁putXML
▁Caching
SPEC
▁SearchResult
▁activations
▁JobNodePath
▁controlSession
ableObject
▁traits
▁1.5
FileCache
▁PrimitiveType
MINIMUM
▁solution
▁jobScheduler
Orientation
▁fieldValue
▁resolution
▁clusterState
ffL
▁AVM
▁fast
sub
▁country
▁performance
▁hasSize
▁anchorName
▁argNr
▁crawling
▁Sampled
▁thisType
▁registerVars
▁inFunction
▁inMethod
▁InstanceType
IfAbsent
▁wordIndex
▁FAST
▁isFirst
MetadataMap
namespace
▁failCount
kiwa
Ordered
Clean
Hierarchy
▁parseContext
▁rootCell
Dim
▁setBorder
▁crypto
ibleTask
▁BatchReport
TRANSFER
▁objBlock
▁CANARSIE
OnError
▁jvm
▁keyEvent
▁recipients
▁expire
KeyStore
▁uses
▁miPop
▁expectNew
RGB
▁tbl
SDK
Recompilation
▁SimpleAction
Login
▁StacktraceUtil
▁tableDesc
▁unwrapped
▁useDis
▁getThrowable
Flag
▁mBlockMaster
▁BlockMaster
METER
Inner
▁Payment
Unsigned
▁ClassPathXml
▁confidence
▁conDef
MethodMap
▁BStruct
▁PokemonId
▁setVisible
▁createConfig
▁fileSystem
▁ATTRIBUTES
▁jobInstance
ParentModel
▁BufferedWriter
▁getGenerating
▁icfClass
ReplicaInfo
▁getNamespaceId
▁Transfer
▁resultReference
▁JUnitConfigFrom
aa
▁superclass
▁boundary
▁Nested
▁acc
▁optionValue
RequestAddress
▁Lang
▁Messaging
▁bookmarks
▁getCondition
▁nodeFQName
▁indexCount
▁Activation
PerSecond
▁leaf
Shape
defined
▁fsep
LY
▁ComponentDto
TextSizePixels
▁_0
▁currentToken
OrderBy
▁Aggregate
▁Deflater
▁way
▁relation
CommandStream
▁JsonToken
▁MetricsConstant
▁NAVIGATOR
▁Opcodes
▁SAX
Co
▁digester
▁All
▁getNon
▁MULTILINE
▁getFragment
▁Current
▁testWith
▁rewind
AFTER
▁getAsset
ine
▁Download
▁ADD
▁getConfigLong
▁CacheEntry
▁maxHeight
AndCheck
▁StageConfig
▁ratios
Paint
Encoded
▁subdomain
ures
▁promptText
▁delimiters
Tokenizer
Ascii
Printer
▁Localized
▁semi
Spring
▁ObjectHelper
▁DBObject
▁deregister
FullName
▁DefaultServer
▁createdAt
▁prg
▁HUtil
▁cos
ComparatorClass
Decimal
▁testng
ibly
▁relOp
▁ent
▁matchers
TimestampEnabled
▁writeAsText
StateMachine
▁baseNameArray
Mechanism
▁RandomPort
▁agents
IndexAction
TransportFactory
▁trainer
portletDisplay
▁explode
dTomcatDeploy
Country
▁zone
▁PROFILER
▁ClassAnnotation
▁maxLength
▁addButton
ssl
▁queries
▁getBucket
Es
▁getShardingItem
▁formParamNames
▁ClassDoc
IndexOutput
▁soft
Water
Caught
▁rgba
▁card
▁createEmptyBpmn
▁processName
▁fieldNumber
▁Company
▁Booleans
ace
▁With
▁makeLock
Lon
▁cmdLine
▁Naming
Unexpected
▁TrendsJSONImpl
▁ContainerUtil
▁mappingName
▁city
Interpreter
HttpProvider
▁face
▁setExecutor
▁Cap
▁subscriber
▁addEntry
▁divide
▁HtmlElement
▁incomingEdge
Math
▁isWindows
ConfigDTO
▁fabric
od
▁getSrcPath
SConcept
▁locks
▁JavaType
▁cm
▁lengthBuffer
▁frameNumber
▁sessionContext
▁BAssertUtil
Roots
TextPresent
▁enclosingNode
THAN
▁ENT
JobEntry
Excluded
▁ram
▁accumulateBug
▁rootRegion
▁LIMIT
encies
Detect
▁TERMINATE
▁debugMode
▁expireAfter
Allocation
Redirects
▁TextView
▁projections
▁getLoad
▁toSource
▁ConstantPool
REMOVED
▁changeContext
HandlerResult
▁openhab
Reset
▁allowNullBody
Assets
▁getArray
▁CRV
▁updater
▁parseResource
▁setLocal
▁sourceforge
Asset
CORE
▁asyncConsumer
▁des
ck
Clazz
ElasticSearch
ConfigId
▁pow
▁pbJSON
▁phone
ENGINE
▁createOutput
creole
GapMultiplier
▁MSSQL
▁939
IdleTimeout
Already
▁SUBSYSTEM
▁lifecycle
▁searchQuery
VoidMethod
▁DBSData
hi
SCRIPT
VmIpFinder
DescriptorList
▁SearchTree
RECONNECT
▁Parent
Loc
read
▁theClass
▁getDateTime
▁getServerName
▁ALARM
BRAK
▁SocketStatus
▁vclClassNode
▁Fast
LA
▁OPERATING
ARGB
▁getRoles
bed
lick
▁changeSet
Deprecated
▁LINK
CURSOR
▁messageSelector
▁addCommand
▁numNonZero
▁schemaLocation
▁isCompatible
▁Jdbc
▁CON
QueryBuilder
▁testText
NonPrivateCtor
▁10_000
withSet
▁detach
▁GlowServer
▁SA
▁realColumnNo
▁lineLength
enProperty
▁PostgreDataType
▁effect
▁Emitter
▁maxBy
▁positionToMaxBy
▁EOF
▁primaryColor
WORD
▁RESPONSE
▁sheetNumber
Expiry
▁mapName
▁languages
NumberOfReaders
▁XYChart
rs
STRUCT
Uris
TaskRunner
Designation
▁baseMappingRule
▁BaseMappingRule
by
Terminate
▁storages
▁tiFile
OPT
▁aaa
▁mHTextView
Seq
▁52
▁NullDeref
▁setLock
ExecutionResult
▁getShell
PropertyId
▁newBlock
▁RCURLY
▁dexFile
▁own
UT
▁ALOAD
▁Ticket
Complex
▁setAsync
▁subPixel
Trailing
Rect
▁bitSet
▁regI
▁GraphQLArgument
ViewName
Redundancy
Digits
▁getPaddingRight
▁Alignment
▁UTILS
hsv
▁getAlias
background
▁starting
▁calling
Concrete
Copied
▁propertyHolder
▁iRecordId
▁setP
br
▁getTypes
▁ClassifierType
Lib
▁browse
▁getBuild
▁nodeList
Accumulate
▁ax
▁isWhitespace
COLON
▁testZip
▁bci
▁importPath
▁compose
TypeOf
Lambda
COMPRESSION
▁Policy
▁genRemoteSeed
▁Noop
▁testFile
DomainName
ptr
▁down
▁asyncHandler
SearchString
▁libName
▁resourceBundle
▁tagParams
Se
Sweave
▁addSink
▁onResponse
▁DefaultPlugin
▁descriptionMap
▁us
▁SavedSearch
▁getUID
▁IntRange
▁TestPropsValues
▁Transform
Getter
MXBean
▁getRoute
▁SDVariable
▁df
▁axis
▁Pointer
▁getErrorCode
▁setVersion
▁TwoDimensional
Slide
▁milliseconds
▁Unmarshaller
▁ActionScript
PREFERENCE
ded
▁Nullable
TaskToComplete
▁RuleField
ions
▁timeValue
▁PublisherUtils
▁COMPONENT
em
▁sourceObject
MOBILE
CREATER
PubSub
scale
▁Side
cb
▁foundValues
▁market
OPTS
▁SQLQuery
▁live
parser
Video
▁usages
getPortalCache
▁ArrayUtil
Interactions
sFrom
▁Helper
▁wReply
▁SKIP
FRAMES
▁fullPath
▁0.2
▁UnicastSubject
▁DDM
SourceProvider
▁getBook
▁maxDepth
▁LOCALE
EntryPoint
▁crt
ToFile
Ser
▁TemplateContext
▁ITemplate
RAWCODER
▁PathManager
▁Callback
▁addException
TS
▁Batch
Links
▁StateMachine
▁CoverageInfo
▁buildHeter
ogeneous
ResolutionView
Rest
CREATE
AspectDescriptor
▁Lawnchair
▁codehaus
QueryDebugger
ger
▁problems
ListTo
▁scanSpec
WhiteBlackList
▁WhiteBlackList
▁skyframe
▁wireType
▁Latkes
FILENAME
LoggerFactory
Diagnostics
▁defaultMultiple
Optimization
▁defaultString
▁CENTER
▁propertyClass
Breaks
▁special
sha
▁ArrayUtils
▁QU
parse
FONT
TRANSFORM
▁JsonWriter
▁getUniqueId
▁DSL
Normal
▁expectedResult
▁GroupProperty
PUBLISHES
▁lowerBound
▁upperBound
▁NumberUtils
▁Launcher
▁tenantDomain
▁units
empty
▁BUNDLE
▁candidates
▁textArea
▁ChannelInbound
▁getOld
▁readByte
ATT
▁ServiceResponse
Notebook
▁preload
MSG
▁pp
Margin
profile
aker
▁Mutate
OD
▁InputField
InParent
▁Counting
▁getUnique
▁JabRef
▁sensitive
▁executeScript
▁RipDatabase
▁getDay
▁classname
▁BOOL
▁putString
▁postContent
▁jumpStack
▁TACHYON
▁SystemConfig
▁ICursor
▁CursorFactory
▁createCursor
html
▁isSet
▁getThread
SortedSet
Exp
▁finest
TypesUtil
▁1000.0
▁setException
▁extractNumber
ListDataList
▁PDRectangle
▁selectedItem
▁startElement
ans
Projects
▁mapJmsMessage
▁lastIndex
▁httpd
▁adapt
▁clients
▁3600
▁MetaAnnotation
▁layoutSet
▁DI
▁loadImage
▁isInfinite
▁strokeWeight
▁useTls
▁mapActivity
▁synset
▁getFactory
SyntaxException
▁Occur
▁ColumnFamily
▁Javadoc
▁wordHash
mp
Inspection
▁transacted
▁Username
▁operations
▁tz
▁setScope
▁Heaps
InternalError
der
executor
▁hasMore
EffortItem
token
MessageRegExp
RMClient
▁DurableTopic
IDX
▁ib
delete
▁startup
Adapters
▁FriendlyURL
InactiveInterval
▁Analyzer
▁LocaleUtils
gable
▁CLASSNAME
▁strategyConfig
▁clarans
ABSTRACT
VE
▁clause
Protocols
PropertyAsDouble
▁0.75
▁Comp
▁projection
▁PointerBuffer
ServiceFactory
▁Undertow
▁runMethod
vec
▁logout
mappingType
sypertypeOf
IMapping
▁methodIndex
LitKey
▁setRe
▁readLong
▁threadPool
▁tm
▁getInstruction
BinaryOperator
▁CREATED
▁123.5
▁getPropertyName
▁scraper
▁historyService
Specifier
PERIOD
▁getHandle
▁Partitioned
▁fqClassName
▁createNative
▁Membership
flow
▁getR
Skipped
Heartbeat
Topology
▁getFailures
▁Echo
ToReadable
NT
▁getPreference
InputPlanNode
EmptyTypes
Concurrency
arded
▁buildTarget
▁hashed
AGED
▁iContext
Author
▁taskManager
▁solverFactory
▁deprecated
▁rewrite
▁KEYS
▁messenger
ative
▁addFile
▁transpose
▁markBlock
▁xCoord
▁yCoord
▁zCoord
MessageFormat
▁nodeV
▁getTopic
KED
MANT
Joint
WithLog
▁timeoutMs
▁driverClass
▁distanceTo
▁plus
▁ModuleContext
▁STATS
▁0.99
▁getListenerList
▁actor
▁Blob
▁home
▁Cascade
▁asc
ilent
SYNC
▁Middle
▁toJSON
ION
▁COMMAND
▁containsExactly
▁Checked
Successfully
▁malloc
▁exposeListener
▁cardinality
Chooser
▁Allocat
▁createLocal
Highlight
Jvm
special
COOKIE
▁MEGABYTE
▁getClassPath
Increment
▁canBe
▁LSH
Fetching
▁idOrFullName
▁getSQL
CA
Running
▁mx
▁Throwables
▁Collator
▁refreshInterval
▁An
Energy
▁IsNullValue
▁proto
▁glyph
▁ignite
▁lastTime
▁marshal
load
▁asMap
None
▁spongepowered
▁getLookup
▁returned
▁setPath
DOCS
▁lv
▁auditFinished
mark
eter
▁CRFCliqueTree
▁userTool
▁templateNode
▁StringHelper
▁quality
UND
NotExists
▁toIndex
DATETIME
▁pageWithSelects
GENERATOR
▁argv
Lazy
▁tryLock
▁UIManager
▁regIndex
▁IntegerValue
ExportSettings
▁currentIndex
▁Texture
▁blenderContext
▁endTag
UTF
▁tryEmpty
▁maxAmount
▁matchNodes
▁getUnitName
▁scanners
Suppressor
▁ttl
▁getPreferred
te
▁DatabaseMapping
▁testGetExiting
▁fromNode
DECORATION
BlockChange
▁getKeyStore
▁currentChar
ResourceNameMap
▁notEqExpr
▁miFile
▁CONTROLLER
▁MAN
▁testutil
▁NOCACHE
▁getClassifier
▁addAs
EM
IVE
▁objectweb
▁asm
Lang
Legacy
▁EXPR
verage
▁typeDescriptor
▁getShortName
Regular
▁SEE
▁equationInfo
▁Concurrency
▁phones
▁returnStream
▁dataProvider
▁Jas
▁newFixed
▁digit
FirstChild
Has
▁psi
▁escapeText
▁pokemon
▁getCollection
▁setError
▁accountId
▁sortBy
▁encodeBase
INIT
▁testImage
▁retries
▁SNLSH
HEARTBEAT
▁getUniqueKey
▁fromJDIValue
▁EB
▁cubeName
▁graal
Aligned
WARNING
▁toFinal
▁AttributeKey
sonarqube
descriptor
▁ChannelBuffer
▁ldb
▁Include
▁getResults
▁containers
▁ai
▁MapUtils
zone
ChunkingCRLF
▁toSelect
ner
SLASH
▁getBackground
▁expTable
▁assertEmailSend
▁requestFocus
▁33
▁mCurrent
▁tPC
error
▁getTextContent
▁Immediate
queue
LoadBalancer
▁unmodifiableMap
▁neededRAM
▁memberselector
▁MemberSelectors
▁LE
TimeoutInMs
▁retention
Secs
▁visitLiteral
▁getApp
▁lockService
▁ReentrantLock
▁isJob
Boxes
▁MIGRATION
▁BString
▁getBuilder
Caret
▁columnMember
▁RuleTesting
▁Connector
▁setLeft
▁setCharacter
▁themeDefinition
▁Symbols
▁setInput
CpuTimerEnabled
ServletResponse
▁Wrappers
▁Buffered
POST
STR
con
▁jsonDecoder
parameter
ROOT
▁lparen
▁columnCount
▁maxItems
▁getUpdate
▁startDate
Modify
▁0.4
▁accumulator
back
BACKUP
▁BLang
▁getPC
▁PoolBagEntry
▁planner
▁regExp
Sp
▁positions
ack
▁getIntVariable
ParseTree
Cloud
▁clsName
▁moveSelector
▁occ
▁processing
▁getAbstract
SequenceType
▁UPGRADE
▁reloadAll
MaxCount
MustBe
▁Prefix
▁BaseTest
▁createInstance
▁clr
PARENTHESIS
▁Verification
▁notifier
▁Authorization
▁testType
Capital
▁hasRemaining
▁JDBCSession
ion
traits
Replicas
▁mViewHolder
▁setCache
▁nsp
▁links
CauseMessage
▁SolrInput
Absolute
OnClose
▁packageInfo
TemplateId
ConfigApplier
▁JDBC
EXECUTE
▁getResString
UserAgent
▁selectBy
▁conceptName
▁JobStatus
▁elementName
▁DISABLED
▁BL
▁STORAGE
▁FS
▁targetType
▁restart
▁cancelled
▁About
Additional
▁FST
▁targetModel
▁JSError
TimelineEntry
▁Revision
▁41
TopLevel
iterations
Skip
deque
▁getPriority
▁inspector
Destroy
▁redelivery
▁equalObjects
▁Phase
request
▁shouldSkip
▁LANG
ToStream
▁25000
▁objectOrder
▁Values
▁localPort
▁actionType
Pro
▁WorkingMemory
▁localFile
▁CP
BaseURL
▁destinationName
▁myRole
WaitTime
▁Bootstrap
ard
BackgroundColor
Accessed
▁unwrap
▁longest
pack
▁qProfile
FRAME
▁setOutput
▁getRequestURI
▁Tabular
ResultsInstance
▁DateUtil
▁invoice
WebSocket
be
VOLUME
CHOOSING
BALANCED
▁tagopts
resource
▁dirList
▁EventTag
pe
Folders
▁trash
CheckAction
▁ApiException
EqualsIgnoreCase
pc
ElementName
▁difference
▁removeBook
Exceeded
▁agendaItem
DAV
▁databaseMeta
▁useMessageID
▁colName
▁readers
▁JPA
Try
▁typeDescription
▁linked
▁bitCount
InstanceId
▁privateLayout
▁builders
MergePolicy
FF
▁matching
KeyFactory
KeepAlive
▁createTest
▁Grammatical
Vectors
▁fq
▁eventType
▁related
▁StampPair
▁CheckUtils
▁bis
ping
▁RequestType
▁Inventory
Offline
Provided
▁sn
▁Coverage
▁exs
ernal
ulfillmentGroup
DIGITS
Dist
TypeQualifier
▁crawlingStart
TupleExpression
▁computeNext
▁replayAll
▁met
ELEMENT
▁UnitTest
LO
▁HASH
▁SHA
▁descriptorMap
fulKnowledge
normal
▁SM
WorkspaceMode
▁addString
▁Distribution
▁actualValue
▁PRO
▁Mvc
HandlerTest
▁getWeight
Qualifier
▁Agent
▁runJQuery
▁minBy
▁Forwarding
▁searchResult
▁getTemporary
▁curResults
▁54
▁commitParams
UpdateCheck
logger
sWithUID
▁openSession
Purpose
▁setConfig
▁watermark
▁sys
▁pk
▁arch
▁nr
▁previousImport
Ordering
▁Trait
▁epoch
THREE
caL
▁BeanDefinition
▁UserSession
▁terms
CallbackService
▁listIterator
▁MojoExecution
▁Schema
▁DBeaver
▁dv
▁BuilderWith
▁recon
ServerId
▁MotionEvent
▁retroactive
▁recordEvent
▁extraInfo
▁maxId
Migrating
▁Sign
Way
▁sdf
CIPHER
Explicitly
▁Direct
Fixture
▁nextParam
▁PhpClass
▁Atomic
Coords
Suspend
▁CudaContext
▁prepareAction
▁inst
▁firstRow
▁ioResult
ft
nf
▁what
▁getCapability
▁sameGenre
PING
ress
▁PERSIST
▁53
▁remoteAddr
▁migration
▁referenceName
TrainingConfig
▁getRegister
our
RegexpChild
▁act
▁setSelection
▁thenThrow
ARGS
▁Param
▁PackageConfig
ViewHolder
Probability
Folding
▁toe
▁errorOn
embed
▁cxxPlatform
ShouldMatch
Messaging
▁Full
▁Requirement
Overlapping
Inflight
▁Fiber
▁ofType
▁PERIOD
CacheKey
COMMIT
▁references
ault
▁fieldClass
▁SolverFactory
▁createEmpty
▁WeakHashMap
Uniform
▁Top
▁Writable
▁decl
▁getEffective
▁Upload
▁uiContext
▁dec
▁HttpPost
▁sceneCam
▁queueName
▁getWorkflow
▁opHandle
▁ZLBoolean
▁OperatorImpl
NER
▁newFile
▁rnd
▁getBuildTarget
JNDI
▁serviceType
WithException
StatusMessage
Utilities
▁broadleaf
▁UIComponent
▁expandDigits
Consumed
▁Checker
▁Keys
out
▁channelId
▁setColumn
Registered
▁LOW
▁Setup
▁tokenizer
Cipher
▁tv
▁friendlyURLMap
▁getRelative
▁testInvalid
MaxConcurrent
Manifest
▁isVariable
AutoIncrement
Renderers
▁typ
Series
lambda
▁getLongValue
▁incoming
▁tov
version
▁byteBuffer
▁UnMapped
▁bConnector
▁attributeType
InSwitchCase
▁BciBlock
▁stateAfter
▁ie
▁shift
BetweenScopes
OFF
ToFind
SingleLineIf
Toolbar
ContextManager
▁getSend
▁KeyStroke
row
▁Part
▁getModuleName
▁valueClass
▁getK
Annotator
Terms
▁SocketState
ort
▁Mqtt
FileFilter
CommentFix
▁ldap
Locale
▁840
▁present
▁GenericTable
▁isPrivate
▁HA
▁shaded
OrBuilder
IndexMap
▁symbol
▁Parallel
▁creationTime
▁coords
▁OPERATION
TRACK
▁Sentence
eteLatch
▁wf
StaticMember
▁protocolVersion
▁SimpleObject
▁getTrade
▁iae
▁connectionInfo
▁getSourcePath
▁ErrorHandler
▁jsonString
▁LibDivideU
InvoicePayment
▁getSessionId
▁ciphers
▁reduceFunction
▁LATENCY
IFIED
Seed
▁Fs
Adjust
▁setT
▁ControlSession
▁discovered
▁stackTrace
▁itemBias
▁regB
ENTIC
▁compressedProto
▁Route
▁Heightfield
CollisionShape
▁WINDOWPOS
▁windowPos
▁JBOSS
Combo
▁compression
▁COSString
rimitiveType
▁PASSWORD
▁Rec
▁mnd
UL
Automatic
FOLLOW
▁pubSubNoLocal
▁getIndices
Band
▁migrate
▁returnNull
Injector
▁KERBEROS
▁CurrencyPair
FunctionResult
Waiter
▁KieModule
▁BaseStub
▁Comparison
THREADS
ram
▁NkColorf
▁Format
▁folders
TIAL
AGGREGATION
Peek
InCommand
▁itr
▁Magic
CommandOutput
▁getPom
▁snapshotState
FileInput
Measures
ign
▁DFLT
DataMap
▁cut
▁MaterialConfig
▁Performance
▁AUTHORIZATION
Scheme
▁maxValue
Tracking
▁isPrimary
▁methodSig
▁indexRange
▁am
Slots
Src
▁setContentType
Tail
VALID
▁pvqMethods
▁PVQ
▁CHAR
AccountId
mnemonic
▁columnIdent
▁getEndTime
▁bridged
FromString
▁SessionResult
▁mov
ClassNameFormat
▁serverCodings
▁currentEditor
olution
▁setPosition
Assign
▁logFile
▁TRANSPORT
IEnumerator
▁feePerKb
▁TurnType
▁FilterSet
▁tvar
▁ef
▁Qualifiers
Wrong
Masks
▁equalsExpr
Foreach
WithE
rasure
ANDROID
▁startProcess
StateChanged
▁XMLStreamReader
ActivityInstance
▁SelectionKey
▁getCallOptions
▁LARGE
▁faker
▁matchesRegular
▁TemplateUtil
▁Singleton
aw
▁CUSTOM
LessOrEqual
▁SERIALIZE
PRESERVE
SEPARATORS
▁ContentDomain
Caption
▁currIdx
Indexed
▁Tomcat
▁working
▁TextRange
ML
Updates
▁initCause
▁revision
view
▁altLanguages
▁biasGradients
Modes
DROP
▁parseDateTime
Replace
▁NoOp
Js
▁dlFile
validation
▁baseType
▁dg
▁ArgSpec
▁createStatement
▁marshallAs
▁streamWriter
TypeMap
▁NkHandle
handle
PARENCY
EXTGSTATE
▁ofMillis
▁Dataset
▁Menu
▁sound
▁runnable
▁mainPanel
▁rowKeyColumnIO
▁encodedRecord
▁External
Chunks
▁Heartbeat
▁StatCounter
fb
▁Slow
▁RETRY
▁loss
▁PsiFile
▁TextUtils
WindowedCustomer
▁BasicStroke
Informations
▁getConstantPool
OL
▁SetSequence
▁fromSet
FileStatus
▁sx
Known
▁airFrance
▁isDir
SCHED
▁catalogs
samples
▁projectFile
▁getTables
▁setBody
▁keyName
▁bit
▁rowValue
FirstSearch
▁ListExpression
Dereferenced
▁coordinator
▁GoConfig
SizeBytes
▁lastStop
▁cake
▁encodeNested
▁BorderFactory
BranchFree
▁beforeModel
▁aLineNumber
▁materialMap
▁getIntProperty
window
start
▁setSslUri
Styles
▁HOUR
Serial
▁getSuper
OAuthAccessToken
▁toCompactFiles
Readers
▁Bitmap
Milliseconds
LimiterFactory
METADATA
▁userDB
Quad
INSTALL
▁rowBounds
ColumnCache
ObjectValue
TracePoint
▁termHash
▁exporters
Variants
PreferencesIds
▁bucketIndex
▁GameState
▁jge
▁sha
▁ManagedListener
▁DBS
HELM
preferList
▁servletRequest
▁UNEXPECTED
Markup
▁goal
▁momentum
▁given
▁finalResult
▁CharacterHelper
▁OVRMatrix
▁gpx
▁fileStarted
▁previouslyKnown
▁attempts
▁reactor
▁MoveNodesUI
▁LocalDataArea
▁hostPort
▁lessThan
▁ruleType
▁Ignore
▁newFolder
▁getAndIncrement
▁palette
LookupRequest
▁colon
▁addTag
▁cap
handler
▁writeShort
MPS
▁MacrosUtil
▁BYPASS
DISCOVERY
▁UserExt
▁sstable
WindowSize
Th
▁getCompilation
▁gender
▁tmpHopp
▁getFacets
▁rulePkg
▁getEmail
▁aPropFiles
▁ratelimit
▁maxThreads
▁frameRate
DigitNumber
xml
ViewMessages
▁SparseArray
▁FindbugsPlugin
▁UnitOfWork
ow
QUESTION
▁getSubject
▁Galen
▁Psd
ock
▁getReturn
▁stages
▁runReadAction
▁dflt
▁explorer
fail
▁setExtended
▁getPos
ContentStream
▁capitalize
▁pad
MissingLocation
▁DigestURI
NoWarning
▁Modifications
Until
▁VOID
▁Back
▁myCache
▁Tracing
BALANCER
▁assertLog
▁ResourceType
proxy
▁setBytes
▁envelope
▁RSSFeed
▁anonym
izedQueryHashes
BC
REFRESH
▁LongWritable
ventories
Bag
Inc
▁ctor
▁getParam
▁9999
▁IRON
▁txTimestamp
Fingerprint
▁BufferOrEvent
StringUtils
supertypeOf
▁initWebArchive
▁hasPermission
▁ARTICLE
ym
▁DBPDataSource
▁INTEGER
▁KnownError
ACCESS
▁whenComplete
▁ASSIGN
jb
COMPRESS
▁demo
▁getFormatter
▁ddl
SUM
CommandPlayer
IfSetOrGet
NotEmpty
▁Wrapper
▁getHistory
▁MacrosFactory
▁mpsHomeMacros
▁BooleanClause
▁Bucket
▁QUEUE
▁AbstractQuery
ITERATIONS
▁getDe
Framework
Undo
loader
Appropriate
▁openNode
▁DBCException
▁insertAfter
▁listFiles
▁fireException
▁ChannelBuffers
▁setQuery
▁Alternative
▁currentString
▁getQueryFields
MessageID
▁isolation
▁indentation
▁ConfVars
▁testSimple
Blocked
▁SO
▁CodeBlockForAlt
▁blk
▁textGen
VER
▁verification
Readable
▁tld
▁enclosing
▁pixels
▁both
▁Fluid
▁safeGetString
▁fileSize
Kb
▁objectCache
pecified
▁Sums
▁sumValue
APK
BaseEffort
▁elementNode
▁getSLink
PartExt
different
TypeOfChildren
PartEx
▁setLabel
▁Article
▁setPageSize
CHAR
▁checkAlias
▁validateError
activation
▁deps
Referent
Include
alParamSpec
▁DefaultTree
▁AnagramClue
▁matchedOptions
InMillis
▁dispose
ExecutionNode
▁setLanguage
▁responses
▁aFile
▁TestStep
▁saw
Throw
Like
▁mHeader
▁endpointId
▁tls
▁calls
▁scopeStack
▁Traits
▁HISTORY
▁ses
▁FRAME
▁migratedBpmn
▁DELAY
▁getFromVertex
▁defer
▁Routing
Make
▁ArrayDeque
▁catalogName
▁getDirection
▁readSettings
▁outgoing
▁localNode
Semaphore
▁occurrences
▁vals
▁Con
▁STRICT
Distinct
Requires
▁ContextCarrier
▁UserInfo
▁multipart
▁916
DECLARED
▁getBroadcast
StateDescriptor
numbers
▁operatorId
▁HistoryEvent
▁Logical
▁jBody
PageProcessor
Face
ForTest
▁calcMSM
▁sizes
▁Sofa
▁registryConfig
CHARS
▁BE
▁tryAcquire
StepDefinition
Transactions
▁Jme
▁82
▁Domains
▁Android
▁autoSingularize
Effect
FileWith
▁generateRandom
Company
Logout
▁counters
▁classForName
▁reuse
▁strict
DEFAULTS
▁toMap
Decoded
▁subtypes
▁Rtf
MappingRule
Bulk
▁createConsumer
Small
▁TestFailure
▁CheckBox
▁commandContext
ParametersItem
dropout
▁fo
Finished
▁aeron
Help
▁Foo
▁generateAddress
▁DefineBits
TransformHint
▁mutate
▁150
QueueSize
▁isHttpProxy
▁StringExercises
▁randomString
▁editProject
iously
overed
▁Errors
▁idGenerator
add
▁maybeQuote
▁beanInfo
▁incomplete
▁ClientUI
▁anomic
▁invokeAll
PI
▁getReporter
sConfig
▁doAfter
▁setCollapse
FileHeader
MarkerMessage
Translator
Remaining
AsBoolean
▁CONCURRENT
▁filterService
DL
▁cranPackage
▁ParserException
RATIO
▁getBuildV
▁ner
wh
▁setCategory
Outline
BinaryOperation
▁TabButton
Contract
▁nsname
▁trait
▁getKylin
scri
▁TIFF
▁newConfig
▁getWindow
Destinations
▁gradle
PropertiesFile
▁catalina
▁Engine
Replica
▁RelationalOp
▁bytecodeSet
Restriction
▁textLayout
▁StaticLayout
LeftOffset
RightOffset
▁getPaddingLeft
ClosureParams
ile
▁displayName
▁setAllowed
▁startPosition
▁coerce
ModelFactory
▁canceled
▁servers
ByType
▁sqlStatement
▁maxWait
▁mandatoryParam
▁fetchBytecode
▁visibility
▁maxConcurrent
▁Optimized
▁whitelist
▁storeDir
▁jsonschema
▁HttpHeaderNames
HEADERS
▁outputFile
AsyncClient
▁PropertyKeys
Devices
Navigator
▁DeploymentUnit
▁endElement
▁addStyleName
▁setFull
▁GroovyBugError
▁onContent
▁TOKENIZED
CodeHandler
IDs
InMs
▁propertyValue
▁setGpx
FileToDisplay
▁superMethod
▁Susi
▁glDebugMessage
▁setTag
▁recent
▁changes
ets
▁JTextArea
▁adapted
▁dan
gerousCallTarget
Lexicon
▁RetentionPolicy
▁SOUL
NEY
▁XmlUtils
WithBarrier
▁modelUID
▁putResult
Regions
ManyToOne
▁family
KB
▁modelClass
ill
▁addTagValue
▁ZIP
▁inferred
▁threads
CH
▁Transformator
▁uploadFile
▁MultipartFile
▁queryStr
FrameTag
▁IPHONE
▁valueSerializer
▁Aggregator
▁preflight
▁reflect
▁ModelKeys
Recording
▁scriptName
▁blockUri
▁getCall
▁WORD
▁thiz
▁Post
▁ftpUrl
▁primitive
ite
▁ZuulMessage
RequiringNonNull
Recent
▁enc
▁pathsTo
OfDeps
EditText
▁On
▁mItems
▁dur
▁findAll
Via
▁toMilliseconds
▁avro
▁Worker
Changelog
CellModel
▁ExceptionUtils
▁0.05
▁taskName
▁getTypeDesc
Kernel
VN
▁chat
▁Initialization
ified
TrueOptional
▁CodeFolding
Modified
▁instant
▁Visible
▁setWeb
▁credential
▁isMonitor
▁ROLLED
▁getHomePath
▁threadLocal
DISK
ALGORITHM
▁jumpEntry
▁Rollback
▁wrong
▁effective
▁annotationList
▁assignment
▁ChangeStatus
▁checkStatus
▁addToWhitelist
ErrorResponse
▁currenciesMap
▁ActiveMQ
▁dataContainer
▁optString
Sharding
▁EditorUtil
▁sortDirection
▁newType
▁Define
▁rowIndex
ervePath
Disposition
Caches
▁OHttpUtils
▁Use
▁getInter
▁SizeValue
QueryTest
TabbedPane
▁elementList
▁makeProperty
▁setProcess
ObjectIdentifier
▁getValidation
▁isMethod
Nr
Utility
assandra
▁containerName
Watch
▁viewable
igned
child
Cleaner
▁mViewPager
▁BasicBlock
Ix
IMPL
intercept
▁beta
▁CamelContext
RTP
▁intervals
▁RegExp
Spinner
NDD
▁AprLifecycle
Apr
Enablement
▁offsetX
▁getLatest
It
MERGE
NotifyLatch
▁combine
▁localRepository
▁waitForItem
▁systemLogger
Solution
Void
▁getHeaderNames
FO
Net
▁setAll
▁getMainFrame
▁Representation
▁lastName
ql
▁sourceId
▁getMaster
▁staging
▁setLength
UsedInClosure
ContainerType
Declared
Rename
Backup
▁getTo
REPLICA
SCAN
CONFLICT
▁Undo
▁lazyLoad
EditorCell
▁componentName
IfNotSet
▁fileTypes
▁getValidator
▁Connect
▁getMemoryIn
▁GridCache
▁tol
Pl
▁baseLanguage
▁dueDate
▁executeUpdate
▁BID
place
Validity
▁endX
Turn
PED
▁picker
▁getPid
▁SHOULD
MEDIUM
▁ExceptionInfo
TokenTypes
▁outStream
down
▁sqlSession
▁unsigned
▁IOperation
getOperand
▁iUserName
▁pipelines
▁video
semicolon
template
▁sslError
▁AT
▁PortalUtil
▁getTh
▁EString
DO
▁nodeView
hostLog
▁sd
AtLeast
▁PatternToken
▁pruned
Cart
▁prot
▁writerIndex
FromFile
▁getUserObject
ra
SCROLL
▁39
ma
▁expiry
▁lastTerm
▁consumed
▁RECORD
▁massUpdate
SER
▁sourceLocations
breakpoint
FileContents
▁0.6
▁XxlJobLogger
ling
▁TMP
▁cliOptions
▁CliOption
▁startToken
▁execId
▁ServiceTestUtil
▁numWords
▁DataInfo
▁TransformType
▁ModifiedFile
▁Ribbon
SubrIndex
▁Desktop
put
ObjectField
▁FrameState
▁getJar
▁oriente
chnologies
▁dlFileEntry
▁parallelism
▁ndx
ATERIALIZED
▁typeArray
UpdateTask
EXPIRY
MSEC
▁Fake
▁glGet
▁jspWriter
▁getRoutes
▁Reporting
HTTPS
▁NAMESPACE
▁selectList
▁asType
ake
▁JOYCAPS
Parameterized
▁setCH
▁classpathEntry
▁Kafka
▁epochs
▁cmis
▁jmx
Documents
▁hasMessageThat
dl
▁SolrDocument
▁isPipe
ri
▁getConnect
▁BitString
Views
▁maxRows
▁checkMethod
PathQuery
▁headersSent
QueryString
▁compiled
▁800
PEND
AsLong
▁Exclusive
▁CacheKey
▁sup
▁EvalUtils
▁CHILD
▁HIVECONVERTJOIN
▁activemq
preferencePage
Modeler
Walker
BOOL
Inactive
ConfigHandler
Evaluator
▁valueTransfer
SeqNum
Arrow
Benchmark
▁branchContains
▁crlfString
Alignment
Latest
▁userGroup
Zip
PE
Board
▁myBuildServer
▁getHdfs
▁psiClass
▁groupIds
▁nodeU
ACCEPT
Groovy
▁IMarker
▁markers
▁addSequence
▁contextNode
▁GHUtility
▁conceptFqName
▁annotationClass
Focus
▁ParamGroup
▁GLM
Weights
▁changeLogFile
▁CONLL
SCORE
▁53.
▁subscribers
RECORD
LockValue
NativeLib
▁nearCache
▁MyState
▁myWarnings
▁countEmpty
▁dataFile
▁ARM
▁0.0001
lyRelatedClasses
Places
▁projects
▁SimpleNeighbor
Escapes
AY
▁volume
▁ticker
▁removeLast
▁calculateValue
Completer
▁Contact
▁getSk
Shader
▁prior
▁Promise
▁JWT
▁RECEIVED
▁series
▁Transport
▁isCluster
▁buttons
▁sibling
ModelName
▁responseHeaders
▁BooleanQuery
▁dates
▁tabWidth
▁colonIndex
FONTS
▁fuse
▁1017881
▁typeNode
Qualifiers
▁languageId
sWithout
▁isRequired
▁Right
▁getAllServices
MP
StrategyLibrary
▁Se
▁DataTransfer
▁pdf
▁tracker
▁overflow
SECOND
▁may
Hide
▁notifyItem
▁INTERFACE
Past
▁newNode
▁KeyRequest
Prev
▁MethodHandle
▁sky
▁getCFG
▁toWrite
DataException
▁createDatabase
▁leftExpression
▁DBC
▁behavior
Hits
Agg
▁freq
▁appContext
▁Section
▁hsva
FailureException
Highlighter
▁endLineNo
▁headerName
▁agg
▁AsyncMultiMap
Within
Quality
EXTENSIONS
MAPPINGS
▁CLI
▁LDAP
AndReturn
▁localRegs
▁putHTML
MembersScope
▁VMediaBase
▁Flag
UsageException
VideoPlayer
▁Visibility
▁CM
▁MINUTE
▁randomUUID
ew
▁MODEL
▁StaxEventItem
RECOGN
ANTLR
Breaker
▁currentContents
▁logMinimal
Invalidation
▁INDENT
▁httpProxy
UseDigestAuth
▁sequential
Repair
▁GRAYLOG
auto
FaninScmMaterial
Revisions
▁restored
▁isPackaged
▁GroupService
▁EditSession
▁editSession
ZOOM
QUOTED
▁setMin
▁approved
▁Launch
▁sendDelete
RequestURL
ia
▁qualified
▁TableType
Projection
cepted
▁alSource
AUXILIARY
▁withBody
▁setField
▁toHumanString
Jackson
PrimitiveTypes
AUTHENTICATION
MethodInvocation
▁Visitor
Descendants
▁needsQuotes
▁typeQualifier
▁NULLABLE
▁Det
▁det
Vertices
▁Extractor
▁getAuto
RETURN
▁descr
▁getConcurrency
CandidateAnd
▁emails
▁Throwing
▁roundAbout
ErrorHandler
▁newEntry
▁setScale
▁responseHeader
▁JDBCEx
▁selectByKeys
▁findFile
Limiter
▁owning
▁getThroughput
▁DefaultError
▁keyLength
Marker
gers
▁SELENESE
Supports
▁ExecutionResult
SubTreeNode
▁jni
web
▁math
▁comb
inator
▁AllView
TASK
Extends
MODIFIED
RED
▁psmt
▁sipAccount
▁Datagram
▁fam
▁ranking
▁getBlockY
la
▁testGenerate
▁REGEX
▁scaled
▁mergeSegments
▁Wildcard
▁writeField
▁pro
▁isCollapse
▁Verify
▁mapService
▁Integration
▁AbfsRest
▁rss
▁slices
▁Drawable
▁getElementType
▁fireChannel
▁retain
▁spans
▁Pagination
SingleNode
▁lf
▁targetPeer
▁getModelClass
Green
▁Ph
ysicsSpace
▁CiUtil
▁yytext
▁getBill
▁CFGBuilder
▁getBlockState
▁runManager
PdfException
KeyManager
▁keyManagers
▁NodeUtil
ender
▁1024.0
▁IMap
▁doNot
RIDDEN
▁serverService
▁NANOSECONDS
OnStartup
HE
ColumnNames
▁graphModel
▁getVoice
ColumnIndex
▁inputBuffer
Forward
ChangeSet
▁Io
OverridenMethods
▁equival
OC
▁118
MaxSize
▁targetFile
▁newXooX
▁iterate
▁Mail
▁Compiler
▁Ordered
▁CoreMap
Mention
▁logException
▁DEPLO
SHA
▁RSSUtil
▁getLastModified
▁getObjects
Suppressed
▁mesh
▁operand
▁fut
▁Realm
▁Required
Failures
▁decrypt
▁deriveKey
▁operationName
TestSupport
TT
▁SUPER
ContentTypes
rt
▁createSimple
TypeConverter
▁mC
Paren
Fare
▁getAccount
▁16000
▁mtry
▁addMapping
COMPA
NY
▁UserGroup
CallExpression
▁rad
Collect
▁isTagFile
▁createContainer
▁NS
GER
▁1280
▁validators
▁setInitial
oException
▁dataList
CEx
iration
Month
SquaredFemtos
DetailNode
LOOP
Aliases
▁PREFERENCE
beta
▁poolName
▁elapsedTime
▁svms
MoveSelector
SECTION
▁deleteBatch
▁EQUALS
▁nextValue
ale
▁iterative
IMPLE
▁classDef
orted
▁setSeverity
▁isAuto
▁fis
▁iconSm
▁getPrice
tracker
▁getLineStart
BasedMapStore
▁Nio
▁formatShort
▁firstLeaf
GpxFile
▁BlockOption
▁ccfg
pos
▁imFile
Editable
▁cons
▁getRedis
▁Split
▁assertMessage
▁POS
▁LOWERED
▁filterConfig
WithoutPackage
▁GraphQLInput
▁DayNightMode
▁languageIn
▁setIfNull
ConfigFile
TI
Fly
▁OP
▁groupSettings
▁isLoadable
ResourceName
▁DatabaseType
▁FieldParser
▁repeat
▁tn
StartsWith
▁getIs
▁indexDir
▁longName
▁BrowserInfo
act
▁cloned
MismatchHandler
▁RepositoryModel
▁getWorker
▁mBlock
ave
▁initCore
▁IntBuffer
▁getModelName
factor
▁TopBar
settings
▁1.
WEAK
▁BuildException
Singleton
▁subMap
▁MockRestRequest
▁restMethod
▁Suppress
▁jobParameters
▁getPlane
▁insertDebt
▁uriAuthority
Authority
ttl
NoQuotes
▁toXML
▁ord
▁setSelectedItem
▁sendfileData
▁fromJson
▁Streams
▁Undefined
▁History
▁lengthStr
▁GroupType
RootElement
▁delim
▁itemsPerPage
▁benchmark
▁937
▁getExpiration
▁EAGER
COMMUNICATE
fe
▁PRIORITY
▁setWidth
ov
JsonTypeInfo
▁JsonTypeInfo
LatencyMs
▁mavenProject
▁song
▁note
▁Google
▁ips
ATORS
▁blank
▁ItemListener
▁hasInstance
▁RELEASE
▁getStringValue
▁AttributeColumn
StateMap
▁buffersize
▁nodesize
▁fillChar
▁toStringBinary
▁NodeList
▁Crawl
Visited
▁addViolation
▁getProfile
xFFFFFFFFL
Loaders
imation
▁ACL
▁NATIVE
should
when
▁DOTALL
accumulate
AndArticles
EntryId
CONSTRAINT
▁addE
▁xpos
▁DRAW
InConstructor
▁ZuulRoute
▁setOrigin
▁workingDir
▁isDisabled
▁removeContainer
TokenReadings
▁verifyNo
construct
▁originalValue
▁myManager
▁getIntermediate
▁themeName
▁pag
▁CharPool
▁getStage
▁FuzzySet
▁createSet
▁declaringType
Numeric
▁mIs
▁dbManager
▁getDynamic
▁libraryModel
▁AM
▁TestServiceImpl
▁getList
▁addLocal
Sized
▁Multiclass
▁setVariables
Acceptor
▁lastAccess
▁AbstractRule
INVENTORY
EventQueue
▁isConstant
▁WebElement
ObjectClass
▁maxPages
tr
ANG
ValueMap
▁2048
▁look
▁propertyMacro
GetPropertyValue
▁newcrawling
DataSet
CheckedException
▁Case
▁oprot
▁spliterator
▁pri
Difference
▁INVOKEINTERFACE
ValuesPerKey
StorageFormat
▁Or
▁childName
▁WebdavStatus
Fold
▁readString
format
▁jmsConnection
▁slaveServer
▁DL
▁WidgetInfo
Virtual
▁OPTION
▁Sharding
▁susi
▁initialState
▁JFileChooser
▁StopWatch
▁entityType
▁ni
▁ConsoleLogger
▁LineSeparator
General
▁isEditable
▁getSample
▁maxDocs
▁snqMethods
▁SNQ
▁checkComment
IntervalMillis
▁scrapeText
ost
curly
▁wareho
▁onFailure
DebugInfo
▁dt
▁libraries
▁Dump
▁Decision
Under
▁menuBar
▁Background
▁getCurrentToken
▁arity
▁DBCExecution
▁Datatype
▁executeBatch
ToGroupList
▁getEditorOpener
▁artifacts
▁outPropNs
▁outputFormat
.5
▁late
Addresses
OP
▁ActionConstants
OutputType
▁HeaderMap
UserSession
▁targetFieldName
TOO
▁logTable
CANNOT
▁getAttachment
▁DIRECT
BugReporter
▁Imp
▁maxScore
▁getApi
▁ruleContext
AccountBase
▁Privileged
▁resized
▁createJob
▁getInner
Clock
CANCEL
▁containerId
▁commandName
COUNTER
▁retryCount
consequence
Sans
IndexArgs
IdMap
▁cacheFile
SUITES
AddedPortlets
def
Arch
▁newGenesisBlock
▁arcs
▁win
Scoped
▁forImport
▁executionInput
▁getVariables
▁menuContent
▁stepinfo
▁TerminalSize
Different
▁Neuron
▁minMaxDiff
▁Angular
▁resultSetNumber
▁Directive
▁MATCHING
net
▁NamingException
nbr
▁Str
DAEMON
▁generation
InParallel
Tracing
ENT
char
AttributeValue
ENGLISH
▁getOrderItem
▁REFRESH
OperationType
▁AsyncAtomicLong
▁registerAction
▁readerIndex
▁isAllow
▁loadResult
▁CommitFile
▁reuseAddress
▁getPayload
▁defaultSettings
▁ResourceValue
ices
▁scrollPane
▁Convolution
▁ClassVertex
▁getValidTags
▁JavadocTagType
▁RecyclerView
Conversion
▁isIgnore
▁getOpposite
▁Hard
BigInteger
▁addressMap
▁testImport
Insn
▁visitMethod
▁EnumMap
▁ld
▁Ar
fr
▁fonts
▁formatString
▁updateStatus
▁accepts
Bracket
▁dockerDaemonUri
▁JMeter
TITLE
Notifications
▁highlightColor
Existence
▁IssueChange
▁OnOffType
▁renderManager
AM
Calc
ForType
Regexps
▁setConnection
▁KEYSPACE
▁MASTER
▁setStage
▁isDiscussion
ColumnDescriptor
▁Fragment
imapLocation
ash
▁ipo
▁getMillis
FilesDestination
FilesExtension
▁GraphQLEnum
▁templates
▁isThis
▁dpi
▁notifyBuffers
▁addTestSuite
▁banned
▁agentInstances
IconClass
▁vocabulary
Splits
Steps
▁fee
rite
TOKENIZE
SSPLIT
RESOURCES
▁newLeft
▁recordId
▁GoTo
▁isTag
values
▁newProxy
▁getErrorCount
▁CtClass
▁mainUnitStr
▁mainUnit
InMeters
▁toName
▁RtfHeaderFooter
▁agentArgs
▁instrumentation
▁pointers
▁copyOnWrite
commerce
PostProcessor
Normalizer
Launcher
MULTI
▁BytesRef
Merged
▁clustering
ccb
▁glUniform
object
▁derived
▁DISABLE
▁toListSequence
Explorer
Population
▁Notify
▁secondValue
▁addLabel
▁StreamEx
▁past
▁RC
Radius
▁AtomicReference
▁xStream
UNZIPPED
▁testComplex
InlineIn
ReplyMessage
▁sendAndReceive
▁game
▁phrases
around
▁MBean
▁nm
▁dup
DefAST
▁waitUntil
▁sizeRatio
▁octreeLimit
▁copied
▁selectedFile
▁DownloadTask
▁IEditor
▁CACHED
▁DbException
▁VARCHAR
▁minor
▁major
▁setEmail
TEMP
▁STICKY
▁ECPublicKey
▁49
▁getChineseSeg
Consumes
SELECT
STREAM
▁getNativeData
▁bundles
one
▁directive
FrameState
▁setResponse
▁newLinkedList
▁intermediate
▁unmodifiableSet
▁Offset
▁viewConfig
▁ICONST
StreamCache
Computer
▁ConfigOption
▁Stapler
Paragraph
▁poller
ServerVersion
▁ResourceManager
▁instrument
▁maxVersion
▁responseBody
▁sqlState
AlwaysShown
▁0.74
▁0.26
stepname
▁getPokemon
▁getCacheKey
Below
ExpectWarning
▁Catch
▁Parameters
▁sax
▁Choose
▁voiceName
▁objectMap
training
▁offsetPath
▁objectSelector
▁getNodeById
▁asSConcept
FAMILY
▁salt
BASED
▁ObjectVariable
ContextEntry
▁fkName
▁actualLocation
▁cpt
▁redis
▁isMap
ryption
▁getFieldNames
▁Dispatcher
PROTOTYPE
Err
usable
GLOBAL
▁isVar
ArrayComma
▁HashFactory
▁WAVDIR
▁WAVEXT
▁calcWidth
Conflict
▁TestCase
▁trimToNull
▁AnnotationType
CONFIGURATION
MethodNames
▁methodNames
▁iParameters
▁getParams
ifiers
Dn
PoolEnabled
Spaces
▁listType
▁computeWithCtx
About
▁tcpNoDelay
▁statusLine
▁setCreator
▁Cls
▁atom
▁billing
IMPORTS
▁under
Customizer
▁getMapper
▁getSuperClass
▁upperCase
▁javaType
▁mimeType
TECTION
▁initRegistry
pattern
▁getDepth
▁paused
▁isUnconditional
▁Saturn
JobConsole
SolverStatistic
▁bytesToHex
▁inf
Iterations
▁grammar
Define
entication
▁NEWLINE
▁deleteQuietly
▁errorMessages
▁typeString
▁callNode
▁dfs
Mer
▁schemaTable
▁UINT
▁Ad
ient
SCHEDULER
ALLOCATION
▁setUrl
▁underTest
DescriptorFile
▁VirtualEdge
▁unMatch
▁arrayInit
▁previousSibling
▁parentMenu
▁getMenu
DocumentTx
▁insideTag
▁VM
▁shouldNotHave
▁commentContent
▁cacheEntry
Exec
▁myClassFQName
TableCombination
▁Indexer
▁ribbon
▁myIs
▁myName
▁ReplicationRole
KE
▁getScale
▁mainFrame
▁100.0
StrippedOutput
▁FlavorImpl
▁MatrixFlavor
▁declaration
edUp
Boundaries
doc
Conditions
Prob
▁parentSpan
▁getStereotype
▁descriptors
▁Should
ItemStack
tract
WithInitializer
▁getMaxSize
Prohibited
BugDetails
AnchorTag
▁HTTPSampler
▁Principal
StartIndex
▁sashSize
▁PREFER
IfExists
MacroNames
▁createInter
Scopes
▁getBackup
Markers
▁checkbox
▁oldProtocol
▁Closeable
Multipart
▁Do
▁LeaderElection
▁wrapCommit
▁killMe
ToUnaugmented
▁newRight
▁isWritable
▁mapperService
▁MapperService
▁Brave
HttpHeaders
OPTIONS
▁needsActivation
Urls
▁GRID
▁1100
SEGMENT
▁ClusterSpec
▁Move
REDIRECT
▁BillingMode
ADVANCE
▁pokebank
▁SpongeMod
▁appendChild
▁Spec
▁srb
SearchRequest
AffectedIndices
▁deflector
▁getDest
ROUTE
▁dbType
dn
Offer
▁Rename
▁effMinWidth
▁smallestKey
▁statements
▁SessionErrors
EndTime
While
▁adjusted
ProcessEngine
TypeDescription
Fault
▁ChangeSet
▁ADDRESS
▁formatDate
▁vehicle
▁Dom
inatorsAnalysis
▁NutConfig
▁torrent
▁mainClass
▁EventLog
▁handleRequest
▁tagger
▁da
SModelDescriptor
▁Loss
▁Forward
▁lastUpdate
▁WHEN
▁Attr
▁medium
▁firstStop
▁getFixed
▁43.739662
▁7.424355
▁43.733802
▁7.413433
▁DBWorkbench
▁updateMetaClass
TrustManager
▁maxNodes
▁squery
Te
culateMethod
Ring
▁ring
▁Subtask
▁lastStatement
▁JUnit
OldestUnused
SessionOnMax
▁withDefault
SparseDataset
▁appendTextField
WebElement
IntoView
▁getServlet
▁SHIFT
Nothing
going
▁cComments
▁toPrintString
PortalCache
rival
seed
▁sfc
INTERCET
▁isNo
▁catName
ByMessage
▁messageName
▁strs
▁focal
▁green
▁focus
▁titleMap
▁getEn
▁foldFunction
Probe
▁EdgeType
▁Stats
Broker
▁getInfo
▁sampling
▁checkIdent
Ts
▁ClosedChannel
Aggr
▁GoByCurrent
im
Dev
printer
▁ARGB
▁Spdy
Lists
▁ForLoadedType
▁preserveSep
▁setErrorHandler
▁getMockEndpoint
▁lastSeen
▁Propagation
▁journal
▁getStepname
FERRED
▁appendObj
EXECUTOR
LOGOUT
▁bus
SingularName
▁ISerializer
▁toOSString
ConfSettings
▁Completion
▁ERR
chain
▁getOutputStream
▁androidx
▁feed
▁applicationName
▁AMD
▁asLongReg
▁Certificate
XPath
NODES
▁getColumnFamily
ridgedMessages
Ab
▁ra
▁minimumIdleSize
▁readFrom
hEw
▁getI
Administrator
▁converted
▁swt
▁ListPreference
▁getNodeName
▁availableSize
ORIGIN
▁testTrashGrand
▁setAction
PackageConfig
InputModel
service
▁superclassName
▁DropTarget
▁Screenshot
▁supportingFiles
▁SupportingFile
shakenProperties
▁InMemory
▁legacy
▁resultString
But
▁imco
bb
OrRegionName
dd
CLOSED
▁different
▁toBe
▁Enc
▁encryption
▁Argument
▁PERMISSIONS
GUEST
▁jndiBindings
LogMessage
▁getSt
▁trunk
▁kelondroRow
▁4.0
▁thisExpression
▁rot
ClassDef
bar
▁propertyPrefix
▁Restrictions
▁ResultSetRow
▁getOverriding
generated
▁Priorities
SKIP
Sequen
MESSAGES
▁schemaId
▁Call
▁isHidden
▁BaseProperty
Temporary
▁getDivider
▁toDate
▁toStringMeta
▁replyMessage
▁dbAccessor
ail
▁testMethod
▁firstName
▁parExpr
▁ListIterator
▁MutableLong
ConnectorName
LAST
ITERATION
▁getFileVersion
▁ISTORE
WAR
▁LINEBREAK
▁testAdd
▁itBit
▁getTab
▁algorithm
▁erasedType
▁parameterName
▁FilePath
▁getIconFor
▁german
RetryCount
▁PropsUtil
▁Always
▁getTerm
LOCALE
InstanceName
▁Attachment
▁isELIgnored
NodeCondition
▁SQLUtils
izable
▁PreferencesData
▁CEAFE
▁CppCompile
TargetMethod
▁asBoolean
▁enqueue
▁LanguageAspect
getPresentation
▁writable
altitude
SequenceNumber
▁Activiti
▁transferFault
▁locals
LinkRole
▁setTest
▁nbrruns
iated
▁GoBoolean
Compat
Textures
▁photo
Dump
Restore
▁complet
ConsumerToken
▁mMin
▁DockerException
Degree
▁orElseGet
LIKE
▁refv
▁shouldBe
Mandatory
Tier
▁sortOrder
▁CubeDesc
▁mNum
▁defined
ResponseBody
▁sampleCount
OO
▁serializeFields
▁ratio
▁ZSTDCompression
▁BOOK
Git
▁getShortcut
▁rid
Pdf
▁Invoker
Behaviour
▁HazelcastJson
▁jobGraph
▁ToString
▁JsonSchema
▁getPro
dialog
condition
▁scoreDirector
▁charType
▁jump
▁StructuredGraph
▁ParseStatus
APPLICATION
Replicate
▁Compaction
▁ys
▁65536
▁mapSize
▁XContentParser
▁who
▁colIdx
▁privateKey
order
▁ab
▁Manager
POTION
Cons
ehcache
▁serverUri
Generics
▁bg
Despawned
▁getSayHello
InstanceQuery
▁Behavior
▁invokeVirtual
Price
▁robots
▁facts
▁aFileName
▁Highlight
▁localVariable
▁AboutEvent
▁createdOn
Deposit
▁nightMode
▁InlineMethod
▁linesRead
password
▁ExecutionEntity
▁MethodVisitor
▁HTTPServer
▁Draft
▁deliver
▁GLFW
▁gym
▁colorEnd
▁pollNameServer
▁listview
▁pImage
▁GraalOptions
FormatUri
RolesPage
MetaStore
▁OConsole
▁pathParam
▁getPresentation
Normalized
▁drivers
▁setDate
▁needFilename
▁getEvents
Expansion
yQualifiedName
WithDefaults
▁he
▁insertMacro
▁infinispan
sets
▁getMetaClass
split
Resolve
▁endDelimiter
RangeQuery
▁Delegate
▁exceptionType
▁dumpPage
Head
▁Typed
▁Billing
▁rval
▁getSuppress
▁ASK
▁tnode
En
▁defaultConf
▁nvkCmd
UpdateBuffer
▁Fibonacci
only
collect
▁ECKeyGeneration
▁ECDomain
▁getCurve
OverrideJ
▁testShould
QUEUE
STRATEGY
▁geode
▁getSeconds
▁sslReq
▁MatchSuppressor
StartTx
▁endNode
▁wagonCaller
▁callWagon
FeaturesFile
Intention
▁queryHashes
▁getCachedClass
▁COSStream
ingMode
ScriptEngine
Identifiable
▁dashboard
▁amp
▁isOptional
ATTACHMENT
Daemon
▁writeNamed
▁Convert
DFS
▁50.0
▁endTuple
SystemSession
▁NewController
▁fasterxml
▁jackson
▁NotAuthorized
ceded
▁contextFile
▁askToCreateNew
▁myThis
▁referenceText
Partitioned
ore
▁thisMoment
FormatTables
▁Inte
Parsing
▁claim
▁compileResult
ModelCacheBase
▁getUserName
PAIR
Developer
▁getStackTrace
ents
ENER
▁worldGenerator
▁keepAuthorized
▁newPath
▁INODE
colCount
▁hasChineseSeg
▁pres
▁getChunk
dated
▁EVENT
Boot
▁devtools
Extract
▁QualityProfile
Transformations
hs
▁ssh
▁copyFromLocal
INF
ForObject
▁space
▁workerCount
▁getByte
▁ILOAD
▁HiveConf
▁getBr
▁Audit
▁supertypes
▁alternative
Gui
▁ThreadInfo
▁RuleBase
TextGen
▁getUserObjects
▁TextGenManager
DURATION
▁assertHas
▁IWhereFilter
Grammar
TRACE
Collecting
▁matchType
▁SIMPLE
▁checkClassName
DELIMIT
CarbonMessage
▁resumeOn
Fluid
ILL
▁sides
Mb
Coordinates
▁JSP
▁testValidate
▁parserContext
▁repositoryId
▁getIntegerValue
▁getFieldName
▁getDevice
▁getThis
▁latestVersion
Dashboard
Consistency
current
▁crawl
▁MemoryControl
▁readPos
▁getStateChange
▁FileCacheQueue
ContextData
▁isIgnored
TransferResult
esting
▁referenceNode
▁queryCount
▁showingColumns
▁SCRIPT
JAR
▁WordReference
▁Spatial
▁ByteEntry
Accumulator
▁FlowRule
▁wal
▁calculated
edNode
▁updateUser
amples
Issues
▁ChannelPipeline
▁plasmaParser
MimeTypes
▁moveScope
▁propertySources
▁SERVLET
Ticks
▁scriptMode
Retrie
▁localReg
▁mapFiles
▁GenericMeta
OPER
Upper
▁assertSubString
▁createPrincipal
CString
NullBody
▁BeforeSave
▁getSur
▁isInContext
▁blocking
▁paymentMethod
▁declare
▁processors
ysics
▁scopeName
▁MapEntry
▁ChannelMetadata
EmptyJavadoc
▁tokenStream
Percentage
▁included
▁sao
▁getBool
▁SCHEMA
▁bagRoles
▁power
▁bufferBuilder
▁isNumeric
MODULE
▁getRootDir
▁car
▁InputType
▁KeyId
▁Modifiable
SolrParams
▁OperatorFactory
▁getReadings
▁historyEvent
▁typeHandler
▁AW
▁requestedDate
BetweenClob
▁editors
▁childType
▁indicator
SITE
Subsystem
▁blockRoot
▁parentCell
▁getTimeZone
ToSql
Lowercase
LinkListHandler
conceptLinkList
▁cassandra
▁excluded
LANGUAGE
SETTING
▁getEncoded
▁testAStore
▁MICRO
▁Increment
ATTEMPTS
Sent
▁JMSException
▁apiPackage
SCALE
▁NGram
▁ISeq
▁MySql
▁43.727687
▁7.418737
▁justNumber
Counters
▁XStream
▁getTaskInfo
Peer
opping
▁Bits
▁firstChar
EndDate
▁stringTo
▁requestClass
STATEMENT
Disc
▁DefineShape
▁GraphVertex
▁BindingConfig
▁getFilePath
cedure
toStringFunction
▁RECT
▁Reduction
▁setSoTimeout
▁av
▁SimpleOrdered
▁printDefect
Assistant
ObjectReflector
ICMPLE
▁threshold
▁156865867234
LINES
▁readAck
▁udp
▁prepareSearch
▁QueryBuilders
▁matchQuery
▁PHRASE
▁slop
Requirements
▁getLocalPort
▁actline
▁getContentPane
FREQUENCY
▁escapeJava
▁hopper
▁tablePrefix
IsSchema
▁RuleKey
▁osName
▁shapes
dest
▁CommandInfo
▁getTransferAt
▁getSort
Solr
Buffered
ryptingChannel
LU
CENT
▁WorldManager
GROUPS
▁98
▁DRAGON
▁Ok
▁havingValue
▁Cardinality
HttpProxy
Socks
level
▁CAVLC
ALD
ModelAccess
▁RandomTestUtil
▁leftType
KEYSET
▁sendBuffer
▁nodeEditor
▁INVOKED
▁reconnect
▁retainAll
▁rlepos
▁pf
▁getFontName
Intentions
▁Cassandra
StorageRule
▁ModelAccessor
modelAcessor
TokenType
▁drawCatch
THROW
▁getSp
▁Master
LineCount
▁FluxOperator
▁newScheduled
▁mapClass
FileFinder
▁dbPath
ool
AndRedundant
ComparisonFinder
FromValueNumber
InstanceValue
▁instanceName
▁openFile
▁Flat
Poll
▁addBlock
▁decoderMatch
▁Reject
bt
▁addTab
▁ComponentUtils
words
▁automatic
SchemaName
▁getUuid
FieldDefault
▁defaultTimeout
DISPLAY
▁getDefaultValue
▁RestUtils
▁RESP
▁Sync
LOB
CHUNK
SHIFT
▁symbolPat
▁drawText
OnReplica
▁VersionType
▁EXTERNAL
▁numberFormat
IntDigits
▁useAdaGrad
▁getGradient
▁SimpleType
▁jarFileName
▁hsv
▁cipher
▁identify
▁endDate
▁transparent
▁getSorted
▁accepted
▁hasPosTag
▁executorName
getExcludes
▁getIV
▁getNonce
▁getTLen
▁getIcvLen
▁notIn
ubSubDomain
ReplacementNode
▁around
▁getValues
▁storageType
▁AccessModifier
▁AbstractAsync
▁ECLIPSE
PARSER
▁quotedArg
MethodNamesRegex
PANEL
▁PlanNode
▁getUserAsAMap
Registries
Transient
▁languageTool
▁edgeState
ExecuteMethod
LB
PERCENT
▁PaymentInfoType
Echo
▁devices
▁paradef
CheckerBuilder
▁idxInput
▁numBytes
▁getMaxAge
▁insertBefore
▁getTagId
CSS
DisplaySync
▁Per
ScriptQueries
▁subsystems
▁ballerinalang
▁acceptor
▁responseFuture
▁countByG
▁msgStr
▁profiler
Registrar
do
ProjectsMenu
▁BigScore
▁domains
▁errorIndicator
English
▁xywh
▁Adapter
ContextOwner
generatedClass
▁QMMSessionInfo
▁TOKEN
CHILD
▁44
ContextImpl
FAVORITES
▁deferred
▁DefaultArtifact
▁reverbFxSlot
EFFECT
▁cloud
▁SEARCH
▁getAsJsonObject
▁CANCEL
▁tt
▁gather
.8
▁rowSelection
▁targetEntity
▁effMaxWidth
SpanScript
▁forModel
▁TimeDuration
▁dirPath
tros
VariableState
▁Never
▁logTester
Executors
▁Es
▁errorPayload
auth
▁evaluation
▁newLevelStr
▁setNameFormat
▁SMALL
▁DetectorNode
▁para
▁reqType
Domains
▁setIdleTimeout
DirPath
▁setFilename
MA
tractor
ServerName
▁gh
▁failures
Cur
▁StaticCatalog
ByDefault
▁treeTable
▁getPerm
▁articleId
▁positional
▁Face
▁Social
▁Virtual
▁xpp
▁metaObject
▁onAssembly
My
▁PdfObject
▁getPdfObject
▁isVarArgs
▁CE
▁nodeTo
erver
off
▁Supported
Ide
▁jjtGetNum
▁getPropertyType
▁ttp
NC
Forge
▁Keycloak
▁getContentFile
▁deleteNode
▁ClassReader
▁does
stituteInfo
▁serv
▁fileStatus
▁includeAllJMSX
▁recovery
▁Pass
▁MANAGEMENT
▁ResponseTime
▁getLongitude
▁baseMethod
▁DefineButton
▁plasmaCrawl
▁Register
Scanned
▁numbers
▁PluginWrapper
▁runTask
▁SVR
▁sourceFolder
▁TimerTask
▁HttpHeader
▁businessDay
▁ignoreUn
GUI
INITIALIZED
▁sourceModel
UrlDB
arg
▁Score
▁ActionInfo
▁moduleInfo
OneChar
▁ClusteredWeb
▁MAGIC
▁createPattern
▁targetMethod
▁yhat
▁encrypted
▁Sn
▁srcDir
▁SimpleLanguage
Health
activity
▁WrapOption
BuildingResult
▁lastclick
▁checkIf
▁NumberFormat
▁minWidth
checkOnStart
▁objectList
Stereotype
LIGHT
MATCH
ingPolicy
▁hasEmptyLine
▁attempt
▁getMembers
▁setProject
pping
▁sqlDate
UNIT
izedType
Hints
▁wikiTransformer
AuditDepth
Uuids
▁192
▁lockid
▁ElementValue
▁Slot
▁myTree
▁setRoot
▁factoryMap
▁struts
▁ORecordId
▁TURN
ency
Capsule
▁selectOne
▁testBasic
WithNo
▁objectId
▁700
▁vnaDataflow
CacheLoader
cessor
▁prevTwoChars
▁AS
▁getHelp
SectionMap
▁organizationDto
vStateSnapshot
▁getDirs
▁excludeDotfiles
▁jTextArea
MT
▁withTag
▁getMode
▁getCapacity
▁getCurrCapacity
▁minSize
SERVLET
▁isSub
▁getBottom
▁Credential
▁getSchemaName
▁transparency
▁1001
▁pathParts
VALIDATION
▁getColFamily
▁fullCatalog
▁bindingGroup
▁inflater
sh
▁columnLabel
▁speak
▁pmde
▁HtmlUtil
▁targetStep
▁testNet
▁isImplemented
LoggingLevel
▁applications
▁ObjectArrayList
abilities
▁getSuccess
▁Duplications
TimeValue
WORKER
▁INVOKESTATIC
▁getNeeded
PlaceHolder
ResortResolver
▁ACTIVATION
MENT
▁isLoading
▁DBSDataType
▁setOrdered
▁SHR
▁isNegated
oy
▁reversed
▁onRecordAfter
▁SemanticNode
▁CopyOnWrite
▁getTimer
▁RequestContext
▁DefaultJavaApp
FromClass
▁boundObjects
▁getSlash
▁pubKey
▁toUri
▁CONNECT
Icons
▁DAType
ene
Timeouts
▁Th
KeySerializer
RobotsTxtConfig
▁metaColumns
▁SessionMessages
ids
▁PRECEDENCE
RELATIONAL
▁tagId
▁startX
▁shouldAppend
BOX
▁projectExplorer
▁clientConfig
▁LatLon
▁latitude
▁convertedSize
verview
▁OString
SerializerHelper
▁tablespaceId
▁getRawType
▁IType
▁RF
▁inside
ish
▁ptypes
Inv
▁iUserPassword
▁wordEntry
▁physical
ArgSet
▁eclipse
▁FINEST
▁WEST
▁resultBuilder
▁taskContext
▁getSourceName
▁INSERT
▁translucent
Sticker
▁findusages
▁ODatabaseObject
TestAddress
▁BLangVMErrors
▁testGetExit
ingScheduled
DelegatesTo
▁createModel
Exact
▁917
▁characterId
ClientProtocol
Bundles
▁ListOperations
NOTHING
▁Synchronous
▁terminated
URLConnection
menu
▁msgArgs
▁UPDATED
ConfigSet
▁TopMenu
▁avail
▁getEventsParams
tw
itter
▁ELEMENT
UE
imi
ART
FMT
▁abbreviate
▁AllIcons
JsonObject
▁shardingVO
▁propInfo
▁TxOutput
▁newTx
Knowledge
▁pu
▁outputBatchSize
SuccessCount
EDGE
▁solrUrl
▁xy
▁paramIndex
▁wms
▁iMap
le
▁mn
▁nextByte
▁createFunction
▁promote
reeting
IV
OPEN
Seg
▁causeMsg
▁LongHash
VIEWS
▁PlayerResult
▁baseURL
PERMISSION
▁Return
▁getLow
Expiration
▁yaml
ensitive
Ctx
▁RemoteException
▁BKDWriter
▁isSuccess
▁RequestEvent
FILTERS
▁targetProperty
▁tint
▁getPlayer
app
CapacityScore
PartList
▁balancePenalty
▁emitStatement
DataHandler
▁interactive
▁invokeInt
▁toIntUnsigned
▁JTree
▁stopRunning
▁smi
▁StepData
▁sdi
▁facets
ColumnType
▁getClazz
▁generateString
▁exe
▁cars
▁CarFactory
CollectionOfCars
▁FIXED
▁localKeySet
▁finalTypeParam
▁newIndexWriter
▁projectRoot
▁FileWriter
any
▁sameDiff
ds
TypeString
CHANGE
ced
▁maxcount
CHILDREN
▁ft
▁AngularTestUtil
▁findOffset
▁FormException
▁combiner
▁dbeaver
▁actualType
▁CI
Exc
FLOAT
DOCUMENT
▁FSData
ASSIGNMENT
▁setValues
▁toCollection
▁Nonnull
IG
▁VizController
▁onRecordBefore
▁uncollected
▁splitter
utions
▁rcLocal
RowMeta
▁COM
PRESSION
▁solver
PropertyAsURL
ust
▁BLOGS
▁sequenceFlow
▁caught
BatchSize
▁JA
tagNameMap
DPI
GT
▁HEIGHT
Digest
▁DynamicCounter
▁filterType
▁sendMessage
IfNotNull
▁emptyRealm
▁CF
▁setSpeed
▁Motherlode
▁invok
▁JAXB
JAXB
▁baseTypeId
▁FileFilter
▁createProxy
Unary
Matrices
▁petite
InfoBean
▁chooseMethod
AbstractMethods
▁getBornHost
▁loadBalance
▁weighted
▁lastDot
▁TRANSPILE
▁getCheck
ForNull
▁getSubtypes
▁saveTo
▁CheckSum
▁checkSum
▁RuntimeUtils
▁subtract
▁Mapped
CONCURRENT
▁endCol
GroupBy
OneWait
▁IspResponse
▁getIspResponse
▁zh
▁TestTerminal
▁cascade
Cat
▁getCombined
▁reducer
▁setLog
Reservation
▁mapView
▁getColumnCount
▁VRSystem
▁dirty
amage
▁getSun
Collections
▁reindex
▁ActionUtils
▁PrefsPropsUtil
▁semantic
▁Queries
▁ResponseMessage
▁getReasonPhrase
▁toOption
▁activeEditor
▁BakedQuad
ITCH
▁assertNot
InAnyOrder
▁curve
▁Shell
Bi
Isolation
Movie
ShouldExecute
▁deobfuscation
ToggleButton
▁yesterday
▁shortTime
▁CoreMatchers
▁Shader
ring
wt
▁getJavaType
▁awtEvt
FractionDigits
FirmwareVersion
▁Login
▁InfoBoxManager
▁infoBoxManager
▁createIndex
▁callTimeout
▁baseUnit
PROVINCE
▁ImageLoader
OFFLINE
▁flyweight
▁retryAndWrap
FQName
▁CollationKey
▁httpRequest
VariableBinding
▁once
▁thenRespond
▁ByteChunk
debug
▁OVRTracker
LF
Precision
Hop
▁energy
▁invFrame
dis
ColumnSpec
Unbounded
▁codeTable
▁Before
ateLine
BetweenGroups
▁allowJmsType
▁Bpmn
IsNull
▁getViewport
balance
▁Print
▁useCompoundFile
▁calibrate
SizeByDeletes
▁kid
▁tableMapper
replacement
▁currTag
rate
▁INVOKE
▁geom
▁objectType
az
▁SearchOperation
▁typeSigReader
▁getCommon
Parametrized
▁testStepName
Slow
▁isReference
▁OracleDatabase
▁toFullString
▁getAdmin
istrator
ishSpellerRule
▁Partial
LazyLoading
▁filesTo
OperateOn
Wire
IfNotEmpty
ours
▁GZIP
sToSkip
Cors
▁blockIds
▁Codec
Dialect
▁readType
▁errorResult
OVERFLOW
▁proxyHandler
Ac
▁putLong
VisibleStatic
▁Structure
Texts
▁langProps
▁paramNames
▁getParameterMap
▁repaintAll
▁findChar
IntegrationTest
Intent
▁getConsole
Decode
▁groupOrder
▁glyphIndex
bytes
▁expandFrom
▁onRegexp
▁OUTPUT
ell
ery
▁waiters
ify
▁15000
ide
Dirty
▁jsonEncoder
▁Encoder
▁Ints
CIRCUIT
Mess
Newline
rough
▁setUri
▁setLast
▁revert
▁recognizer
▁Recognition
▁forceRepair
▁dataCenters
WEB
focus
Mojo
▁spring
ActionPerformed
VI
▁getGroups
InScope
Qualified
▁checkMethodsFor
Overriding
▁getSymbol
▁ToolRunner
▁testingUtility
▁canary
▁Chrome
ableMesosWorker
▁recurrent
▁getEventCount
▁oldFileVersion
Bit
DbAnd
▁87
▁websocket
▁splitPane
▁IMixin
Tick
▁validating
Scheduling
▁attrib
▁skeleton
Scraper
APIHandler
▁APIHandler
PackageRegExp
STORAGE
▁Git
ection
▁Evaluation
▁MURMUR
▁DFSTestUtil
▁TIME
▁cacheStacksPath
▁getResultList
▁parentFolderId
▁xsd
NewLine
▁visitBody
ClassFQName
▁radio
Serializers
▁SwaggerUtils
▁outputRow
InvokeExpr
▁ClassResolver
▁termination
FutureListener
▁dbc
MapManager
▁EditorComponent
▁actualContents
▁getRegion
▁setMargin
▁eol
▁doPrivileged
▁setContext
photo
▁bad
FORCE
▁turnType
▁getTurn
▁doSquare
MergeScheduler
▁MergeScheduler
▁Delta
▁Volt
EVEN
▁QueryEntry
▁applyConstraint
Overload
▁recoverAfter
ecutionContext
▁addLong
▁sourceTask
▁Forager
▁NEVER
▁Psi
InD
SdkLib
Consequence
▁isBoolean
sWithSuffix
▁imgSrc
▁mAllowed
▁Compare
TaskName
partition
▁bbox
▁ccyPair
ForAccount
▁TypeReference
di
▁Hashed
▁vertx
▁getWrapped
▁nextNext
▁FOR
▁CommandWith
▁getStartTime
▁findEndOfString
▁testIf
Animations
▁NUMERIC
▁mLine
ritical
▁hasAttribute
▁182
ARTICLE
SWITCH
▁resolveType
▁typeParanames
▁isDe
velopment
FilterStrategy
▁crc
▁inInterfaceOr
AnnotationBlock
▁199
▁Singleline
▁resteasy
▁fin
CENTER
▁hannesdorfmann
delegates
ship
AttributesKey
ATTRIBUTES
▁GroovyObject
▁RTLD
▁must
▁jobExecutor
ReadOffsetFile
▁qual
IE
▁jobExecution
▁findField
▁just
▁currSize
▁UI
▁iface
FileOutput
▁Guard
▁guards
TIMEZONE
▁another
edEntries
▁getObjectValue
▁setHttp
▁aObject
Cor
MarkerInterfaces
▁srcs
Editors
▁iccp
▁tableMeta
▁Excerpt
▁ClassUtils
▁Guice
▁AbfsHttp
▁FORWARD
▁aCalendar
Consume
WithPrefix
Go
UBLISH
▁checkers
▁RootChecker
InCurrent
▁selectNode
▁originalText
▁Export
BlockInStream
InStreamSource
ial
▁PoolUtilities
▁quietlySleep
▁packagesFolder
▁primitiveType
VariablePattern
ConfigDesc
Inject
Red
Blue
▁findClass
▁getMetrics
▁binder
▁isAllowed
▁ServletRequest
▁ViewGroup
BBLESTONE
▁modelNode
SourceFile
▁Rep
▁actorSystem
PKs
▁tablefile
▁ofConcept
▁OAUTH
Compressed
KeyValue
SELECTOR
▁ENTITY
Deletion
▁Family
▁GENERATE
▁setBinding
BAR
executorSetToUse
DaemonThreads
▁mousePos
ASSISTANT
ConfigParams
kg
Streaming
ReadTimeout
NEED
▁browserDetails
RootState
▁textArray
exist
▁maybe
create
Encrypted
▁minorVersion
Toolkit
▁POSITIONS
COMMAND
▁hstore
YMENT
▁pullRequest
storeType
▁BuildCraft
▁TRIANGLE
▁errorSource
▁SubQuery
▁fakeAppThread
AlternativeBlock
▁MockHttp
▁ramDir
▁Toolchain
Toolchain
▁getShard
▁tmpdir
▁MASK
▁FFIType
▁isEnum
▁getBooleanType
BooleanValue
▁pull
▁hfile
Pitch
SO
▁getNative
▁std
▁containerConfig
▁saveSamplerData
▁parentElement
▁Malformed
▁userGroupMember
▁sdkProfile
▁maxMemory
▁newline
▁serviceId
OUS
Uninitialized
stubs
▁scene
Renamed
▁oldName
YouTube
▁isSelectable
Mark
▁encounter
▁SystemSchema
▁systemSchema
▁CalciteTests
SystemSchema
▁druidSchema
liefPattern
ToStart
▁getMac
▁MIME
connect
▁isAfter
▁newContext
▁commandline
vel
▁FilterOperator
▁DbSession
▁setBoolean
▁ptr
loop
Continuation
active
▁tasksByGroups
▁Dashboard
▁SusiMind
▁GRADRECORD
PropertyCombo
▁separatorAfter
▁conditions
▁openStream
▁COL
Classname
oot
Partitioner
UnitsAsStr
AtOffset
▁sqlBuilder
▁train
Publish
▁getMod
MetricName
▁recordsize
Takeover
▁obtain
AtIndex
▁WordCount
▁ttf
▁folderId
▁allAttr
▁GC
ContextLoader
▁getPortal
▁readonly
ElementException
▁getAssetManager
▁minMem
ItemId
Suggestions
RESTORE
▁themes
▁snode
pose
▁MapSrc
▁findContaining
▁Notifier
▁setAffinity
AffinityFunction
▁countByC
▁namespaceURI
▁SyntaxException
▁testRequest
▁ofNullable
▁screenWidth
▁Nutch
▁debugEngine
▁ready
▁selectByIds
▁newroot
▁getLocations
▁databaseType
▁getActivation
▁getClassNameId
▁getAnnotations
▁JFX
▁pcode
▁createChecker
▁bin
▁NodeScope
▁getFactAt
▁iIgnoreCache
▁getFlags
▁TaskQuery
▁Limit
ippableSubset
▁countMatches
EscapesFor
SelectionModel
▁intros
▁getHtml
▁MPSExtentions
▁fromIterator
xFFFFFF
▁DBPConnection
EventType
▁executors
sMap
TCP
▁assortments
URLs
▁iContent
SetTotal
▁cname
▁fieldParser
▁Loading
▁javaMethod
edDataFrom
▁recipMap
▁columnMatch
▁lastException
▁currentElement
top
▁ansi
▁setSystem
Touch
black
▁createOr
lone
▁StoreVersion
OLD
bac
▁aField
▁Support
ModifiedDate
▁JDK
▁plasmaURL
▁attrSpace
fragment
▁tunnel
RowSet
▁overwrite
▁POINT
▁trustStore
▁floatToIntBits
Owners
▁getBy
auncher
▁getStatusLine
▁WINDOWS
▁LINUX
▁pushBy
▁thumbnail
▁lastKnown
▁backports
Trip
Ok
Mem
▁OpenSsl
▁algo
▁CoreMetrics
Confidence
▁withShortName
▁QName
▁DOMAIN
▁IQ
iscoreEndpoint
Bitmap
DELIMITER
NONDUST
▁Annotated
▁CONSUMER
▁getOptionName
▁suspendLocation
▁maxPoints
SortInHeap
▁OperatorID
▁operatorID
▁currentPos
▁slash
store
▁isInsert
▁searchFilter
▁ColorUtil
▁yacySeedDB
▁ant
SinkInfoSet
▁ClassLocation
▁bubble
▁offsetY
▁isG
Book
PromptsFrom
▁defaultImpl
▁blog
▁pane
Compile
▁fired
KV
▁Admin
▁plans
ys
▁getMetricGroup
▁dimensions
▁Jsons
RegisteredAction
Validators
▁getFatalSubset
▁expandID
Flyweight
▁getIf
▁usetree
▁netflix
▁hystrix
▁HystrixCommand
▁remoteHost
▁moduleName
▁AnalysisPhase
VisitedWeight
▁wq
▁NkText
▁rootDir
▁isDef
▁Encode
▁getValueType
▁setRollover
Images
▁EntityUtils
▁Rules
▁settingsFile
Potential
▁getColumnName
PositionOffset
▁keyProperty
▁formatyyyyMMdd
▁FolderInfo
▁formatterProps
▁argSpec
OnContainer
catch
▁VoltTypeUtil
▁BuiltIn
▁amqMsg
age
▁savepoint
IDE
▁Backup
▁apereo
▁lt
DefinitionClass
occ
ied
▁zeroOut
▁headerSize
▁IDLE
▁ASERVICE
▁minValue
▁delivery
▁getHttp
▁factor
▁HighlightedText
▁isShowing
▁getPackageName
▁funcName
AnnotationReader
GLRMRe
HttpMessage
▁newResource
▁SuggesterConfig
▁newPostRequest
ictions
▁textTos
▁filterMap
ARGUMENT
aging
▁deleteByQuery
▁printMessage
▁libFile
▁cy
▁iterationNumber
▁maxIterations
Dialogs
▁rawOptionValue
Binder
TimeSeries
bidden
▁ReleaseId
▁metas
▁databases
BlockCapsule
PropertiesStore
BlockHeaderHash
▁getByteString
Tip
▁mimeMessage
GCPause
▁getAb
▁getOrDefault
▁EL
▁runTest
▁setDrawBorder
▁CasProtocol
▁menuSelected
▁StatBuckets
▁prettyUptime
▁secs
▁totalLastMsg
▁SusiCognition
▁zkUtils
▁getByName
▁evaluator
▁getWebElement
▁firstMatching
▁getExplorer
▁explanation
▁lg
▁roleSet
▁goConfig
▁allows
Alg
▁localOnly
filter
▁Journal
▁rem
fetchLinks
▁bytesWritten
BackOff
TargetClass
▁certs
▁76
▁setKinematic
▁multimap
▁setH
▁aFiles
lass
▁arrayOf
NumberOnly
▁treeItem
▁myPath
▁getModuleId
Directive
▁ThreadSafe
▁objValue
▁jndi
▁incorrect
ug
▁DataSet
▁xmethod
Day
encrypted
▁getJmsEndpoint
▁getReceive
ColumnValues
SUPPLIER
LevelCombo
▁Paragraph
▁Inheritable
▁getZk
message
▁transStatus
▁getTransName
▁CHATBOX
▁logLoadError
▁REGISTRY
Power
He
▁ReloadUtils
▁downloadId
BRO
▁nameLabel
Helpers
▁kylin
▁Slice
IES
▁PARAGRAPH
▁childLeftTuple
sEntryRel
▁FileReader
▁ga
▁pathList
board
▁startsLine
▁uptimediff
si
Concat
▁ERDEntity
▁Co
▁Paintable
▁setOrganization
NodeName
TIMESTAMP
Significant
▁allFiles
arch
▁SqlGenerator
▁SqlStatement
▁getInitial
err
▁componentKey
Elem
▁findLastNode
▁organizationA
▁getOrganization
gre
▁detailAST
▁getPrev
▁ALWAYS
▁builtOn
lave
TextArea
▁delayInMilliSec
CommonSupertypes
DeviceRepository
▁newSeg
ObjectDialog
▁BufferUtil
▁moduleUID
▁doVisitToken
▁UTI
▁ExecutorFilter
▁printHexBinary
SECURITY
Drawer
ForUser
RuntimeDeps
▁Delegating
Prepare
Stored
▁destinationPath
PluginInfo
▁sharding
▁verifyPositive
▁MUC
▁sender
▁getEmailAddress
▁MONGO
▁getScheduler
▁drag
▁seg
Tap
Quotes
RecoveryPolicy
dda
xbc
▁isPositive
▁adminRealm
▁aux
▁xmlDoc
▁BothModesTest
▁statistics
▁getFamily
▁ArgumentCaptor
▁ATag
lement
▁INV
▁TextTreeNode
▁incremental
LabelAttribute
▁expectBody
OrEmpty
▁getSe
UndeclaredRTE
▁FindBugs
▁INTER
▁ApiSearch
ToBuilderBuilder
Exported
▁BufferUtils
Round
ampling
Suppressions
▁Glow
InnerForm
▁innerForm
remove
▁ZL
▁dockerConnector
▁auditLog
▁CHANGEACL
Credential
eric
▁dataId
▁Flush
ProductName
Concern
jLogger
▁_4_
▁getMemory
▁WebBrowser
Spliterator
▁tokenCredential
NoEmptyLine
BetweenFields
▁sharedBrokerMap
points
▁LLOAD
▁caches
▁cachePath
▁varName
OnMatch
▁getCaption
DelegateTo
Severity
▁stopped
▁isAlways
Insight
▁numArcs
▁dotIdx
CacheDir
▁setSecure
SocketProtocol
DataNodes
WithDefinitions
▁SET
▁SessionFactory
▁messageTag
OrderOf
InsideStage
anSpellerRule
▁nextEpsilon
Directives
▁unsafe
▁prefixId
▁suffixId
▁CAPA
▁beginProcessing
Packed
▁Cloud
▁getRandom
▁getDefaults
▁saveTransient
CI
▁seriesName
▁dd
▁incr
▁setRequestURI
▁FileDownloadLog
▁scheduled
▁getMon
▁iBuffer
▁getBinary
▁currThread
▁queryId
▁editable
▁JsonParser
▁CachedField
old
GradView
▁bias
▁convertValue
▁AFTER
case
Dimensional
▁BLANC
▁wasNull
▁messageType
Sequential
▁edgeFont
▁getDev
▁isBlock
▁Pluggable
▁radix
▁ShardId
▁getApiBaseURL
▁nrInputRows
FullIdent
▁Jvm
long
EntryIndex
▁Mappeable
▁ORIENT
▁setRead
vers
populate
Invoices
▁Seq
▁addInt
Since
▁messaging
fields
▁getStep
▁expectedText
▁isWidgetFull
▁Multimap
▁createFastTime
OperatorIfValid
JDK
▁ModelBuilding
hostAccess
float
▁speedment
▁9.
BOOLEAN
FluentIterable
▁OFF
CommentContent
▁sourceTextArea
▁pfloat
▁WorkItem
OPERATOR
▁setDateCreated
▁FREE
com
▁layers
▁schemaField
▁LASTSEEN
▁getCountByQuery
ounted
▁HStore
▁unc
BugsItem
unique
flag
ImportsInGroup
Alphabetically
DocTag
▁negative
Man
Configure
KieContainer
▁UserPreferences
Inheritance
▁sos
SHAPEWITHSTYLE
▁wikiCode
▁replaceHTML
Plid
▁getPrimaryKey
Compact
tc
af
▁ClassCast
▁getVal
▁Instantiation
▁blockToCheck
▁TestUtility
▁ensureTestData
TrackerMap
▁SpanInScope
▁withSpanInScope
Heap
▁vcs
manager
Backpressure
ActionItem
Returns
▁DEST
emptive
▁getMouse
▁createBoolean
▁findFrame
▁createJobQuery
▁voiceProvider
Picker
ByUsername
▁mProgress
▁HtmlPage
orn
TokenCounts
▁drawOval
▁IngestDocument
▁ingestDocument
DocumentPicks
▁randomIn
gestDocument
▁lurl
lined
▁createRandom
▁logo
▁getFinal
ListenerCallback
▁getUp
ja
DS
PROFILE
Prim
▁getCloud
FilterConfig
RAY
▁dataSources
▁ClusterNode
▁getTestSuite
▁nodePath
▁notebook
ox
▁chained
▁SharedLibrary
Outcome
▁ReflectionUtils
AndWait
COL
▁Sp
▁ChronoUnit
Geo
LEMMA
▁Legacy
▁setRight
▁TopologyContext
HandSide
constructor
▁IndexMetaData
▁activateLock
ToBe
▁follow
▁setDuration
▁isT
▁getAListOfMaps
CL
▁assignedNull
▁xobject
ach
▁isEqual
▁expectedValue
RegistrationBean
▁Flow
AgentOption
▁profilerConfig
▁pluginJars
▁bootStrap
▁getParticipant
▁BiConsumer
▁managed
▁writeVersion
▁bbb
▁useList
▁currentName
Called
bf
▁TxInput
▁getDelta
▁wizard
shutdownHook
▁vfs
DELTA
Fetcher
InEDT
ERRORS
tributed
▁grants
▁getJobID
▁Change
▁unread
oomed
▁CheckpointType
▁gridPane
ForNode
▁comparing
▁INTEGRATION
Defs
▁ZOOM
▁objectFactory
▁bugCollection
ity
▁Stock
STATS
▁jumpSpeed
▁MENTION
▁getPitch
GroupExecute
▁rf
▁exampleName
▁hour
▁ListUtility
▁getVarName
Thickness
ENDER
▁BLACK
▁TreeTableView
NM
Webhook
▁73
▁andExpect
▁isFailed
▁dataBuffer
FieldBuilder
▁addCount
▁extend
BufferLength
▁hasPublic
▁IOContext
ONCE
▁loadStream
▁WSLoaderResult
WRITER
▁innerLoop
▁autoMapping
▁propertyType
Appender
▁registerGuard
▁cctx
cation
▁createTarget
▁resultsProvider
▁encodingManager
▁myExtension
▁actionId
mapping
▁clusterId
AndMetadata
▁messageJournal
▁MySQLPrivilege
▁Rate
▁AbstractProject
ClientConfigKey
▁Receive
White
▁treeIndex
AliasMapping
DependencyGraph
CO
▁Stat
ke
ServiceReference
▁8.0
▁adjustment
▁VecHelper
▁bugPattern
▁throwsItem
OrTypeCast
▁createUsersWith
NodeId
▁getUsed
TabsColumnNo
▁replayRequest
▁fromCollection
lasticSearch
▁EqualUtil
native
Loops
▁newDocument
ElementType
▁BorderLayout
ollers
GlyphShapes
▁OBJ
ResourceBundle
rypt
Age
Crawl
▁fileParts
▁ARTIFACT
▁nIn
azy
ub
▁1678
▁4623784
▁putField
▁outcome
InstanceModel
▁findNodeCell
▁endFunction
home
▁bitwise
▁sharing
▁IDENTITY
imp
▁Gherkin
SuppressByNo
DN
page
▁fromLanguageId
Drag
▁fk
ForeignKey
▁COMPRESSED
MinValue
ANDALONE
▁getStatement
▁Listenable
▁handleFailure
TokenEndpoint
▁getDesc
▁bCheck
▁tbaseList
InRoleCount
▁tick
▁dragging
▁Hosted
copy
▁BugLeafNode
▁catchPattern
▁resStr
▁testA
ConfigProvider
▁webIndex
HeaderMap
▁namespaces
frame
▁Termination
▁DBSDataSource
ChatPanel
PROCESSING
▁Trailing
▁endPos
▁lastToken
▁BpmnModel
▁bpmn
▁RadiusClient
▁867
▁Graal
▁disconnectOn
NoReply
▁totalPower
Unused
▁getPeriod
FEATURE
SubscriptionBase
▁Note
Note
▁startScan
Ignored
▁FeatureToggles
NativeIndex
▁setVariation
▁BookmarksFolder
▁pageNumber
▁helloWorld
▁modifiable
▁subclass
▁TxnMapRequest
▁REPLACE
▁inputs
▁xclass
▁XA
Caller
▁rtn
Targets
▁sin
▁orderType
▁cu
▁statusError
▁ColumnUnknown
▁analytics
▁rewritten
transport
▁pretty
OfThisSubtask
QueueType
▁writeAndFlush
▁exportMode
▁cgroupPrefix
▁readStringNul
▁116
▁indexStr
▁conditional
▁sqlInput
▁rho
▁webInf
▁addStatement
▁PortAudio
AUTHORIZATION
▁Desired
WithSyntax
ADJUSTMENT
▁spdy
▁protocolHeader
NP
▁KeyTypeEnum
▁UNIQUE
ForDisplay
Inter
▁cmg
ToSwitchMapShown
▁FilterBuilder
▁Coordinate
▁OrganizationDto
SN
functions
▁Expiring
▁getErrorReport
ScrollListener
ache
Probs
▁eagerLoadingOf
▁isDynamic
PropertyAsLocale
▁byteArrayOne
▁actObject
Inside
Mgr
▁isStopped
▁addPlugin
▁Migration
▁tmpDirPath
▁usePer
▁BITOPS
▁Snippet
TemplateCache
▁RuntimeType
▁toLanguageId
▁threadCount
instance
ts
ingResult
Sources
▁removeImage
▁catalogUpdater
▁testNo
▁newVersion
▁CellSide
▁queryGraph
▁Subverted
▁elapsedMillis
ILLEGAL
Iteration
▁FilenameUtils
▁OVER
ValuesHandling
ubSubNoLocal
▁setReadOnly
▁SQLite
▁getCurrentLine
ElementZip
CRYPT
▁connectionCount
FileList
▁IndexItem
Near
▁addResource
▁getQuotedSchema
▁ENTER
▁createTempFile
root
Redis
▁opService
ystem
▁reportMatcher
▁getProjects
▁Fetch
▁innerClass
Criterion
▁fac
▁Question
▁lazyChannel
▁inputStatistics
▁Doc
Protection
BlockSize
▁ODistributed
▁TIntIntMap
▁findStopsNear
▁spt
▁getTokenName
▁testMulti
▁newRowHeight
▁withForce
Volumes
▁SceneExplorer
▁toNode
▁sdtId
▁sdt
▁sdtAlias
▁red
▁IDEProjectFrame
Fake
▁valueArg
▁animator
▁busy
▁addToDebugLog
OperationName
▁recv
REGION
▁mysema
Cas
▁PROTECTED
▁ArrayCreator
▁Radius
Cached
ocated
▁currentText
▁checkLine
▁creole
▁setAttachment
Trust
▁partitioning
Latency
▁bugTree
DBUnitTest
Uploading
▁Assertions
▁mConfig
▁Count
▁isReturn
▁dateString
hb
MED
▁137
▁canSend
▁Forbidden
▁HOURS
▁getClasses
▁Browser
▁AnyMValue
▁subReaders
Team
ption
SchemeFromNode
▁nodeAndClient
▁ModelAndView
▁docID
▁setG
▁securePort
▁SystemProperty
inition
▁queryContext
▁MethodGen
▁getMethodGen
▁positionToMinBy
▁BlockingQueue
▁FinderPath
▁Shift
▁Cons
▁jsonBuilder
▁getIp
▁party
ATTR
▁findByC
▁circuit
▁tempErrorText
SampleCount
▁EnvironmentMode
ASSERT
▁setAnnotations
AndIndex
▁ExpiryPolicy
▁HRegion
▁constantName
▁UnionState
▁compound
ical
Extended
▁ClientMetadata
▁withInterface
▁accessFlags
WithType
▁Binding
▁cumulative
eticEntry
▁assets
▁getNodeByObject
▁StrategyConfig
sl
FORMATTER
Analyze
Clients
▁getSlice
▁allProcesses
▁processNumber
ingIterator
▁Password
▁median
PROC
▁ExampleService
▁ImportDetails
▁CoreLabel
Whitespaces
GenerationResult
SchemaStrategy
▁invokeAny
▁eo
DeclarationList
PRIMARY
▁ruleSet
▁SourceType
UnderTest
▁Mark
Bytecode
▁deliverMessage
▁plainText
▁FastHttp
▁driverName
.2
▁jwt
▁PEER
Own
SetName
▁createBlock
Accumulators
ones
fraction
▁mes
▁postProcess
▁getMeasure
ServerError
▁positionalValue
▁Navigation
ActionProcessor
NavigationAction
▁_2
▁forceLayout
▁allocated
▁ArrayType
sTable
▁substitute
▁POOL
▁getStr
▁respStr
▁httpPortS
▁classification
▁testIndex
initialized
▁aWriter
▁getKeyStroke
▁mongo
MARKERS
▁xvel
▁queueSize
▁MapStore
StoreCount
block
▁encoderEnforce
▁Cipher
▁actualParams
▁Orientation
▁DUPLICATE
PageSize
▁SVNRevision
▁UNDEFINED
ue
▁Sc
▁midKey
SlashedClassName
chnical
▁Money
▁addC
▁Crypto
▁newSet
LIBRARY
▁nearby
▁setMonitor
▁nick
ExecutionAttempt
▁containerLog
Recipient
▁getSomeList
▁BlockStatement
▁friend
▁canBeParent
▁canBeAncestor
▁ScoreType
PosTag
▁osm
Accessible
▁outValue
KEEPALIVE
keyword
▁customSynopsis
▁REGULAR
LogFiles
KeyBindings
REQUESTS
▁termNum
▁mirror
▁Save
▁tblName
▁applyDefault
FormConsumer
inated
▁att
▁sdkFileName
mapped
▁setIllegal
▁Chat
MessageManager
▁openTriView
▁downloadUrl
▁outfactory
▁BACK
▁nameWithPrefix
▁colorA
▁getTerms
▁SearchResults
▁searchResults
▁RandomSample
Repeater
▁addLastFile
▁leading
▁foldWindow
▁TraceContext
▁splitBy
BasedOn
InMPS
▁isBrowser
▁createCustom
▁educator
LogFile
▁TemplateModule
▁ServerSocket
▁serviceMock
▁jsType
▁hostData
▁Close
▁asImmutable
▁Enable
ELSE
▁setProgress
▁getSourceClass
VersionUnknown
ypes
▁helperTextColor
▁mTachyonConf
edModel
▁tryCreate
MAXIMUM
▁typedObject
ItemWriter
▁TestBase
▁startServer
▁PAYMENT
▁failureDesc
FieldNames
ATMOSPHERE
▁TOPOLOGY
▁thenApply
Integers
Inclusion
Invalidate
Rid
Csv
▁SubEntry
▁subEntries
generation
▁mbMessage
ErrorResult
▁bundleName
SkipListSet
▁resultJson
▁getKeyCode
▁OptionBuilder
HandlerBuilder
▁miniBatchSize
▁DBScan
▁SharedBroker
RANDOM
▁hooks
▁estimation
▁isEmptyType
▁testsLibrary
▁addToIndex
▁PowerMockito
Installer
▁declaredClass
ForTesting
▁onFactory
BuilderSupport
▁TcpBuffered
▁Jimple
Plane
PROGRESS
▁Registration
▁parentName
RequestData
Artifacts
▁xf
local
▁setJ
▁inInterface
RegionQueue
▁getAssumptions
Dtos
Staging
Sorter
▁getChange
MaxAge
▁silence
Returned
▁cik
ForSubclasses
▁displacement
Shell
OutputDir
▁xul
▁currentResult
▁getInterfaces
▁WEB
▁testUn
▁takenTimeMs
WHITE
▁HeartbeatTimer
MIME
▁alSourcei
DIRECT
▁MPSProjects
▁Flash
RunConfiguration
▁findIds
▁IfStatement
▁NkStyleItem
style
VERT
▁states
▁getPartitionId
▁userAgent
▁textHeight
▁AbstractBuild
NodeType
Framesize
▁standardCoder
▁encodeMD
▁DESCRIPTION
SIG
TextGUI
▁isInitialized
CancelData
▁docId
▁oldCount
Later
▁Mysql
▁340
▁extResolveInfo
▁PEDESTRIAN
▁rfc
▁SPIDER
▁termLength
▁921
▁parentJob
CLASSES
▁anything
▁virtualId
▁addTask
▁CommonDataKeys
▁IntKeyMap
▁targets
dfa
efe
ubscribe
▁ear
▁Interceptor
▁writeTo
▁srcLine
Renegotiation
CT
Managers
▁isBuiltIn
▁psiFile
▁pwd
SingletonArray
▁isAr
▁PROPERTIES
▁exponents
▁subsumes
▁getColumnNumber
NameTo
adapt
sToDrop
▁CAP
▁rollCycle
Cycle
▁cmp
▁mySourceNode
▁getCached
tabs
sToDelete
▁px
FrameDecoder
▁GlyphException
GLYPH
▁getRender
▁Physics
▁appender
▁myRelativeCell
fff
▁bestState
▁myGeneration
▁setSub
ocation
VAR
▁Coinbase
▁Historic
▁setExcludeScope
SubProcess
ase
write
▁glyphEntries
▁executionDate
DELAYED
Trait
▁Clear
▁referenceValue
▁compareValue
▁storedSource
▁isTest
Demarcator
▁langArray
sToRemove
Elevation
▁pixelWidth
▁mapObjects
▁UndertowOptions
▁REAL
▁txnMap
MapProxy
▁KMeans
▁nlDataOutNodes
ont
lem
dInput
▁getCacheSize
CartException
CaretPosition
▁SignatureParser
▁anim
▁AND
▁SideTransform
▁groupField
▁stopwords
ActionGroup
▁createNetwork
Theta
COMPLETE
FilterBuilder
▁repositories
Builders
▁objectTo
buf
▁pin
▁ddmTemplateKey
▁FeatureSet
▁ModuleReference
Queues
▁addSelection
▁PhiNode
▁54.
▁ResponseModel
▁Depth
weight
pace
▁ScheduledFuture
▁ASGARNIA
▁NVL
▁bytesTo
sd
▁vo
▁assertReader
▁XSizeHints
▁CA
Operational
SubMenu
▁good
Profiler
▁LinkedListX
consistent
Design
TimestampUtc
▁roll
Epoch
▁getAndSet
▁Mime
Layouter
aked
▁constituents
ables
▁needClientAuth
ISH
▁Some
▁regions
cf
▁EmailFactory
▁MessageBox
▁newPointer
Thrown
▁canApplyCtx
▁setAggFunction
▁getEntryPoint
▁getRegionName
▁defaultConfig
▁getTextLength
▁setSort
▁DBNDataSource
▁AbstractRedis
▁casProperties
EdgeStyle
OrField
▁calledMethod
▁openide
▁IFEXIST
▁shouldReturn
▁Jetty
▁setBlock
▁ReviewDto
▁hardwareState
InfoClosure
▁buildPathList
▁timeToLive
▁routeContext
▁Helix
Likelihood
▁STARTUP
MemorySize
▁elt
▁getAdditional
▁getDataTypeName
PermissionUtil
▁UNSUPPORTED
ContextName
AUTHOR
▁Ballerina
MANIFEST
EmptyLine
▁Clock
▁scala
▁typeInfo
▁caseInsensitive
▁listRoots
address
▁messageExtBatch
EST
▁jumpEntries
▁referenceCell
▁QMMetaEvent
▁pastEvents
▁TransformerUI
▁Health
xval
▁lmin
▁rawLightValue
▁ConceptMethod
spec
▁byteArrayTwo
localCache
▁cfId
IndexCache
▁configManager
▁Destination
GuardIndex
▁rawLookup
WeightFactory
▁inputType
▁SNAP
▁anlzr
CheckStatus
▁EventSpy
Detailed
▁slug
▁negate
LineNo
without
▁HQL
▁GraphQLType
▁findID
Linked
▁setCursor
▁getDotted
▁addScriptField
▁servletPath
▁BackEnum
▁JVMMEM
▁Traversing
StructureEnum
▁msgs
▁ZEAH
▁1000000000
▁digestName
▁AtomixConfig
BufferIndex
GraphCoordinates
search
▁Relation
MENTATION
▁SECURITY
▁Orient
▁Mesh
BROKER
▁Off
▁Catalan
HOOK
▁usedAsObject
▁Skill
▁allNames
▁crb
▁updateRegexp
▁principals
▁argumentList
▁onUpdateError
▁balance
MGR
▁100000000
▁formatted
▁searchBooks
▁realposition
▁SolrQuery
Injection
▁OptionKey
CREDENTIALS
FromAST
ByTailComment
▁DBPProperty
▁isNumber
Five
▁numVersions
ReadAccessor
cert
ores
▁spaceWidth
DefinitionKey
MOVE
ANIMATION
▁keyPredicate
authorized
▁ZSTD
▁Ack
Good
Cycles
▁colorLight
▁getGameState
AdjustTable
▁classifierType
xffff
Unconditional
▁coord
▁Validate
Dep
▁Rating
▁classField
EXPORT
▁IM
▁Confidence
▁shortcut
▁finalOffset
▁stopRequested
▁maxMerge
▁Ldap
▁crawlingIfOlder
▁portText
▁FILES
▁timerBuilder
▁arrays
▁newSubView
▁collision
▁DLFileEntry
▁maxErrors
InstanceFactory
Exporter
▁uet
▁mismatch
UST
▁STEEL
Generators
▁queryhashes
NodeReferent
▁ActionContext
▁cosc
▁Init
JOURNAL
▁flt
▁errorWith
COMMITTED
StyleSheetItem
▁routers
ESCAPE
Demo
▁hive
▁qs
JID
▁mCtx
▁vc
MessageType
fdL
▁SubjectAware
▁Dependencies
▁mockInvoker
▁willReturn
▁OAbstract
▁FieldFilter
▁IdeMain
▁typeObject
WITHOUT
▁57
DefaultCodec
rows
▁getJavadocTags
▁SimpleEntry
Rejected
▁IntTuple
▁newList
Os
▁GKQuantiles
▁representation
▁getWObject
FileDetails
▁createInitial
▁sModel
Push
Can
▁openInputStream
▁Screen
▁findClosest
header
▁uniqueField
▁getWrite
▁ZLNetwork
▁endpoints
▁lm
train
MaxRows
▁modelRef
▁readBoolean
▁callPJJJPV
functionAddress
▁Next
HA
▁translated
▁XConfigureEvent
▁selectStatement
ookies
▁ehcache
xFFFFFFFF
OrEqualTo
▁getTextValue
member
▁endOf
▁Preview
▁fetchCount
▁semanticType
▁Underlined
BINDING
linkDeclaration
Confirm
▁vocab
Archiver
XmlResource
▁JooqLogger
Prototype
NodeAdapter
FormField
▁WavReader
▁getExp
▁leftRedirect
display
self
▁FilterDto
▁DefaultIssue
▁seek
ErrorType
ift
▁DOC
▁CorefMention
Triggered
▁Highlighter
Alarm
classpath
NodeParent
▁srcA
▁expandReal
ProcessorInfo
▁WHERE
▁equationManager
▁NodeWrapper
▁addCell
MethodManager
▁CvPoint
▁keyPrefix
▁totalSamples
ConfigBuilder
▁institution
alWeighting
▁throwError
lqiec
▁FadeTracker
▁maxMessages
FromJavadoc
▁fieldSig
ToUpdate
▁pathStr
▁UnmappedKey
▁staticMetaClass
▁getStartLine
▁RowBounds
▁ModelUtils
comp
▁TreeTable
▁testContext
atar
▁ScalaCompleter
▁etx
▁xMethod
square
▁baseRequest
▁getCre
▁highMap
▁ClosingParens
▁AtomicLong
▁matchings
▁MemoryTreebank
▁Hierarchical
GroovyEditor
total
▁resultSetView
▁RunnerImpl
▁detect
WebExchange
▁KK
▁NK
▁NV
GENERIC
▁isExt
▁RANGING
▁FBUtilities
▁BIGINT
▁useRatioInt
▁UdpConnector
▁RegExpTT
▁moveCaret
▁keyPattern
▁zkRun
▁currentVertical
GapProperty
▁isLongCategory
▁urlString
▁deadLine
▁mN
▁BaseChooseNode
▁FLAVOUR
▁BITMAP
▁isLayout
▁Heuristic
▁Robin
▁Stmt
▁colo
▁nodeFont
json
▁referentNode
▁getRefArgument
▁MetaStoreClient
▁getWork
routingTable
▁findServers
▁RoutingTable
▁ActionCode
▁ConfigProperty
▁personModel
▁isPersistent
▁readFile
▁xmlFile
▁getKind
ByUniqueId
Desired
NAVIGATOR
▁procedure
▁IconLoader
▁addCallMethod
▁GMSJoinLeave
ophoneSet
▁recentFiles
Pointcut
▁testSet
▁SQLDatabase
PersistAction
▁DBPEval
uationContext
▁getNullable
▁GraphHopper
▁Reversible
ScoreMap
▁Avro
▁Infinispan
EXPLICIT
SSED
▁bufOut
▁dataSize
▁expandBelow
▁fullList
▁isLeft
DataFlow
▁piece
▁nutz
▁168
▁decrement
▁ToStringBuilder
▁getException
▁AlphaAscii
▁pageName
▁pageDumpPath
▁isDrawn
▁isEntry
▁Warning
▁VersionNumber
▁PayConstant
▁globalErrors
lar
ConfigProperty
▁month
▁MONTH
ver
ifications
▁tokenize
SequentialGroup
▁SEMICOLON
▁kModule
▁WAY
▁Jms
▁Gfsh
▁dateTimeFrom
▁miPopEval
▁LayoutImport
▁returnObject
▁expandLetters
TY
▁getSelf
▁BC
▁li
▁isModulesApp
▁MatchingFilters
▁repoURL
Compiled
▁SMALLER
▁deciderScore
▁setHeight
Analyzed
▁COIF
PLATEBODY
▁LEATHER
▁cruiseConfig
OrEvent
▁filterId
▁RuntimeCamel
▁WebArchive
▁webArchive
▁getProjectId
▁ArticleType
▁sim
▁JSONArray
▁keycode
▁isMatching
▁toColor
▁DruidNode
ADDR
LOOK
▁ipList
Poller
docs
▁valu
chanism
▁Versions
OAuth
▁sourceClass
Modal
Auxiliary
CConverter
▁858
▁isCanceled
▁webAppDir
▁DirectoryUtil
▁LL
▁getFriends
▁stanford
▁nlp
▁shardingsphere
▁antlr
Quoted
▁XMLUtil
▁OSVERSIONINFOEX
▁versionInfo
▁linkedin
TraceElement
▁timeTo
▁TCPServer
▁UPPERCASE
RowIndex
▁PDGNode
▁getFeature
▁termBytesReader
▁termBytesStart
ProjectIds
▁setRun
▁desktop
authentication
InsertMode
FN
▁outdated
BoList
▁ApiClient
▁mname
▁MPSEditorOpener
HeaderFlyweight
▁EVAL
▁superClassName
▁NativeProvider
params
▁reflective
hex
▁Ordering
PROCESSES
ANALYZED
▁Big
▁authToken
AtFixedRate
exportImport
ConfigurationId
▁getCompany
▁voicedir
▁userPage
sOverlay
▁ClusterSettings
▁CrateSettings
▁INDICES
AGE
▁addIfNotNull
▁botToken
▁JDOQL
▁Lexer
▁getUriPattern
▁topCells
TagClass
▁setBaseDir
▁GLModel
DateTypeAdapter
▁StringFilter
Pr
AppendState
awTaint
Trimmed
▁Execute
ParameterTypes
▁Daemon
▁dex
AsSeconds
▁parentGroupId
▁PluginConstants
RULESETS
GRAY
▁sendKeys
▁ingraph
RY
RUN
▁cleanUp
customReplace
▁Apply
left
Deser
Locks
▁Caffeine
CRAWL
▁tex
▁sqlTime
mo
▁setModuleId
▁DICTIONARY
▁ESCAPE
▁leaderHeartbeat
▁texParam
▁FilePipeline
▁SubtleUtil
▁flavors
▁ListMultimap
▁Eiscp
RIES
▁transformed
▁mpsChooser
Copies
▁wFields
▁iso
▁HLog
Datagram
▁formatSize
Pow
▁fieldNode
▁opType
Except
▁issues
QuantityMillis
▁AssetClass
▁setFollow
Abbreviations
StepScope
▁isFirstElement
▁isPPC
ARY
CpuLoad
StoreRegister
▁selFile
▁parallelSpeedUp
▁gridable
▁GraphQLField
▁mSessionId
vals
▁initTraits
AssigmentIps
CLEANUP
▁SystemSession
▁unitOfWork
Lower
▁opSetPers
AwaitsFix
▁bugUrl
▁getToVertex
▁setSession
▁serializedUser
▁Deque
ging
▁isSerializeKeys
▁typeMapping
Blocking
▁getDataBroker
▁gateway
▁braces
▁setHandler
▁blenderKey
▁isLoad
inked
sToLoad
RESH
▁Fact
▁writeCuboid
▁cuboidHLLMap
DataProvider
▁KettleStep
▁contextCarrier
▁MAXIMUM
FREE
▁switchPos
▁getUserInfo
Activate
BASEDIR
ExchangeResult
▁ReadOnly
icycle
Car
▁scannerId
▁hdf
CONSTRUCTOR
FactHandle
▁TypeHandler
▁UnknownType
▁typeDecl
AW
DefinitionDto
▁lineIs
Digit
▁MPSModule
Raid
▁subsystem
BRACE
Unsuccessful
▁setBasic
Accessors
▁DataOutput
ronology
JavaMethod
▁setDb
Tensor
▁ipFinder
StoreTest
▁getInstanceFrom
▁isAnonymous
▁currentType
▁nextChar
▁searchTree
CLIENTIP
▁jsonNode
▁fromBuilder
▁XClass
Reporting
▁SourceSinkInfo
▁myProperties
▁Play
▁testNonExisting
ance
▁mPrefs
▁Bus
▁Separator
ConnectorConfig
▁DATABASE
▁43.730864
▁7.420771
RecordSet
Indexer
▁infoStream
▁170
▁DocsEnum
▁commentMatch
AsArray
▁SNodeUtil
▁initialNode
▁classNameTo
STRICT
▁SerializerBase
argument
▁eiscp
▁rtf
▁pick
▁setClicks
▁clicks
▁toValue
▁wsl
▁parserConfig
▁Pascal
lias
▁getDependency
▁showInfoMessage
Shards
▁nextSplits
▁myRules
▁MessageConsumer
▁packageNames
EntriesA
EntriesB
▁maxValueA
▁userDetails
▁Te
IND
QueueEntry
▁Cert
Sc
▁fl
▁ClassObjectType
▁InitialFact
▁ruleKey
Calculation
ClientConfig
DataTypes
▁ChannelMatcher
VING
AUT
▁classDirectory
▁offline
Schedule
JarButton
▁365
▁toBinary
▁dbSqlSession
Assembler
JPEG
head
▁focusEvaluator
▁AbstractSide
▁lnr
▁LiveIndexWriter
▁unloadWorld
Parents
▁RUNE
PolicyFactory
Behind
▁mpsHomePath
▁maxNum
Layers
OutputName
▁contributor
▁pokestops
Tooltip
▁contentList
▁countLowercase
ViewGroup
▁jarFile
▁Uuid
▁Mailer
▁cdn
▁getHandler
▁closeAsync
▁Fetcher
▁smart
▁InjectionTarget
InjectionTarget
▁GlobalPartition
▁setUsing
▁exceptionBuffer
▁consoleView
▁ver
▁REQUIRED
SuccessResponse
lier
▁Hooks
Average
▁bitcoin
ValueTo
▁getBalance
▁createMap
▁getLastError
▁SEND
POLL
▁fromStream
▁ThreadFactory
▁LocalVariable
▁Windowed
▁SessionKeySerde
itelisted
ClassLoaders
▁half
IfNull
▁JTextField
▁writeStart
NonTypesystem
▁isCurved
▁Dex
▁LazyFuture
▁setState
▁Trade
RENDER
bable
ined
ruleflow
▁Osgi
▁RANGE
▁PayloadInfo
▁MAIL
ured
▁ckj
▁puf
▁qjf
▁versionAsString
Analytics
▁FsPermission
▁helperText
▁logSystem
▁builderForValue
▁getMatchingText
▁LogUtils
▁Folder
▁timeOfLast
▁processLines
▁anchorext
▁sensor
▁Ejb
▁checkProperty
▁getEntityName
▁jmsTemplate
▁setLongValue
▁ContainerConfig
▁myF
▁srcFile
selected
▁getAuthor
Will
ListsOfValues
▁classLocations
▁qualifiedName
▁Conf
▁AsyncImplHelper
▁classFile
▁getJavaClass
seudo
he
▁eel
▁kitchen
▁tabTitle
▁indexFile
▁Dec
lated
BarTheme
▁astType
▁LanguageTool
▁scalarType
▁imagePayload
Comparators
ParameterSlot
▁lzma
▁JSONException
ArrayField
CloseableHttp
QUARANTINE
▁quarantine
▁Graphics
WAL
HandlerProvider
stitute
▁dlFileEntryType
▁iprot
▁insertChild
TypeCheck
▁incompleteTag
▁windowCss
▁primaryButton
FAST
DISABLED
Need
▁MethodMatcher
OrException
convert
▁getProjectName
▁buildNumber
▁datasources
▁listModel
▁portletURL
▁mapLibraryName
▁sortable
LockException
▁fraction
▁getCaret
LikeN
Fall
ViewProvider
▁bestCase
▁jspError
▁SinkFunction
▁sinkFunction
ActionException
▁acroForm
Large
▁NBTTagCompound
Bs
▁computeMetrics
▁InternalHttp
run
▁TestData
TypesComponent
NEARBY
▁getterName
DEVELOPMENT
Cover
▁resultCount
▁reverbFx
▁myType
▁exported
▁dava
▁tfs
▁SimpleString
RecyclerView
▁FormValidation
▁LocalTime
▁gfsh
▁setLanguageIn
▁addLeftWidget
▁createToolbar
▁doIn
▁WaitFor
▁tempFile
▁12345
MethodsFor
▁memtable
mill
mb
▁Space
ToDepth
▁functionsSet
EditorPane
▁timeouts
SModel
▁lu
▁beans
▁Beans
▁POP
SCANNER
▁valueSchema
SchemaId
▁verboseLogging
EvictionRun
▁isDetailed
ServerPort
▁parseTopic
▁miNew
▁PUSH
Recorder
▁getSelectedCell
▁jwkList
ClaimsSet
▁exceptionLength
Starting
xfe
▁NOTHING
▁findEvent
IZER
▁addConnector
▁htag
▁OServerAdmin
▁PdfReader
SPILoader
▁expectedTypes
▁newConcurrent
▁TestBean
▁Gson
Apply
HealthState
▁serverHealth
▁NodeType
▁druid
▁cue
▁qa
▁registerItem
monitoring
▁liskovsoft
▁smartyoutubetv
yout
ubeinfo
▁rejectValue
▁getUsages
▁because
▁addInput
Interaction
▁verifyZero
▁bump
▁SearchView
▁provided
Homes
Parallelism
FilterCoverage
▁lastStmt
▁mockRegionInfo
▁isMeta
CountBy
▁subjects
▁DirIcon
▁hasObtain
▁metaColumn
ResponseTime
IGNORE
Medium
▁Work
▁timeFormat
▁setNum
ExternalKey
▁0.02
▁Polynomial
▁materials
▁minKey
▁tf
WriteId
▁kdtree
▁checkFirst
▁NodeTraversal
▁classLoaders
NioBuffer
Opened
▁metaContact
▁CHARSET
ident
▁GENER
▁Bio
▁changeMonitor
ChangeMonitor
▁business
▁iid
▁getETag
▁dbroot
OnExceptionPath
▁getModId
▁mergeWith
VarInForLoop
▁trimmedLine
▁EPSILON
▁vs
▁ruleNode
▁indexColumn
▁mLast
▁maxPageSize
▁valueMeta
Nulls
▁dropFirst
▁WM
▁96
▁isHot
▁ALTER
▁nowUTC
▁corrected
UTCTime
REPORT
▁Utilities
▁DefaultSettings
▁SettingsProblem
user
▁asHtml
CommaDelimited
▁resultObject
ArgTypes
▁assertObject
▁RunT
▁openFiles
▁triggerType
Roll
▁rollingPolicy
▁selectedIndex
▁processResult
▁MetaDataField
ListenerAdapter
▁currentDir
▁assertContent
Windows
▁iRequest
Viol
▁852
▁sms
▁semaphore
▁expectations
▁setScore
▁hashAlgs
EnabledFor
▁TCN
PV
▁Protobuf
▁isJ
dk
▁ROOTDIR
▁Lat
▁unass
▁fg
itness
bu
ProviderImpl
▁getStreetInCity
▁getAsFloat
▁na
▁registries
▁failureLabel
▁persisted
▁strList
Newlines
HEAP
▁Aeron
PreviousLine
▁StartLog
Cre
ToValue
ValueString
lock
imers
CONNECTOR
▁dialogClassName
▁removedEdgeList
TableFile
▁glob
Mod
▁MOD
▁DefaultSolr
▁deferredError
▁FormatUtils
▁translator
POWER
▁makeText
QueryParser
▁Utf
▁fillRect
▁hasErrors
▁sidebar
▁camunda
▁bpm
▁handshake
▁Battle
ActionType
▁expiredTimes
▁setTheme
▁BACKGROUND
▁Measurement
▁fare
▁isReadable
▁sslClientCert
security
▁OServerMain
▁orchestrator
▁SDependency
Uninterruptibly
▁Collision
▁selectors
Toggle
▁targetStepCombo
▁signal
▁setInfo
ITERATOR
▁rowMeta
▁promptContainer
NEWLINE
▁Override
OrUpdate
AndIts
▁currentGraph
▁dbId
▁similar
▁typeSet
▁Vulner
▁getVulner
▁getUsers
▁calendarto
▁nRead
▁handlerAddress
▁getPrettyName
▁assertProton
ResourceLimits
▁Duplication
LeftCurly
▁GuiButton
gy
ConnectorError
Stable
▁stackAt
▁hasVariables
▁buildCommand
effective
▁getAssetName
▁LastResort
▁CONFLICT
Colour
▁UIDL
▁DefineText
▁nNFD
ingTasks
▁setMode
Callbacks
avorite
▁writes
▁dummy
▁getOwnerAddress
eet
ErrorReporter
▁representator
▁strongString
AllJMSX
LastGroup
edClassName
▁ITEM
▁setTotal
KiloByte
▁jars
licting
Alts
▁subst
▁poms
▁WILD
JmsMessage
Parameterless
▁stateBackend
▁KeeperException
▁ODFA
Discussion
OfWeek
▁inMemory
GrantTypes
Approve
▁AssetTag
MetaAnnotation
StopToTurn
ActiveProb
SearchPath
Once
▁waitVisibleItem
▁propname
ingS
▁navigateToPoint
▁Smile
▁itemManager
▁AstUtils
▁hasAtLeastOne
▁isWrapper
▁TermQuery
SIGNAL
▁sitemapName
ext
▁PhpLanguageUtil
ul
Spend
tx
▁iDb
slot
▁cardNumbers
▁definitelyNull
▁deactivate
▁getSerial
▁provide
▁myText
PropertyJavadoc
▁buildPages
▁endOffset
WriteHandler
▁SqlExpression
▁getUpdateCount
▁getApiImage
▁optionseditor
▁iDatabase
▁getSecondary
▁102
▁cor
rupt
▁subscriptionKey
NameCheck
aving
▁Kettle
▁getUserTimeline
▁sbItem
▁Xslt
downItem
▁removeCharacter
▁DummyProcessor
▁SRV
▁headName
▁putDouble
Tld
▁superConcept
ContextMenu
ir
▁RealTimeState
OffChange
SessionIdOnLogin
▁changeSessionId
▁tabIndex
▁msgss
▁getMessageSet
▁StepAction
▁STEP
▁Two
Footer
▁printWriter
Availability
▁Drools
▁Karma
▁kar
▁legal
PerSec
▁setLimit
▁PropertiesUtils
▁SourceLocation
exception
▁querySpec
▁nextSetBit
▁useProxy
▁maxIdle
▁0.25
SinceEpoch
▁reInitMeasure
▁velocity
▁zookeeper
lete
Hyphen
RequestId
▁mergeRequest
pm
▁totalLoadCount
▁getFirstNode
▁sawWrite
▁userDN
▁notifyDataSet
▁STANDARD
IZE
PageOutput
▁hint
Contextual
▁gid
▁Overlay
▁getExecutioner
▁KML
▁totalNum
▁setNon
Particip
BaseDialog
SinkConfig
SearchPageG
▁getDateRange
▁BatchConstants
▁executeInternal
▁myVirtual
▁typeArrayString
▁Highlighting
▁mouse
▁IgniteFunction
Abs
ParameterSource
▁newDto
DOCKER
▁constraintType
BuildRule
▁topics
FUNCTION
▁getChanges
▁setByteValue
▁getCachePointer
▁getSharedBuffer
▁bound
FromLongName
Bitext
▁monos
▁throwException
▁COSObject
▁rangeStart
BugTree
▁SECOND
▁itemAfterFirst
▁outEdges
▁findValue
▁aw
FrameworkOp
Corrections
ByOrder
NonZero
▁SumReducer
ToOutput
SEED
▁ITridentSpout
▁getDistribution
▁MockAnalyzer
▁pubspec
▁myCurrent
▁homes
▁norm
▁OperatingSystem
▁APR
Supertype
▁fixture
PhaseTypeWriter
len
▁isBetween
▁11000
▁12000
Schemas
▁httpsServer
▁doTestSemaphore
ChangeWorker
xfb
▁sdl
▁pagesize
▁Relative
Std
▁Milestone
▁MILESTONE
Modifications
▁regModifiedAt
▁StaplerRequest
▁ROCKS
▁getTags
▁TemplateRuntime
▁contexts
Intensity
▁CONFIGURE
▁VertexBuffer
DisplayString
▁pkt
▁getSSRC
▁autocommit
▁isUpperCase
▁contextImpl
▁keyType
MILL
EPOCH
▁UNDERLINE
CONVERSION
▁scanResult
▁getEditedNode
▁CacheData
▁RealmObject
▁realmObject
MetaId
CommandAction
▁sslConfig
▁ifPresent
▁JMS
▁buildSolver
▁pac
▁computation
▁expired
▁pluginIds
▁invalidMD
Sums
▁withHeader
JavaTestUtil
▁RELATED
▁KILOMETERS
METERS
HORIZONTAL
▁plaf
▁getEnabled
▁Refresh
Low
InAutoRange
Highest
CtrlChr
▁waitTask
▁alignment
VID
▁PartialConfig
▁parentId
▁yarn
▁xads
▁paramValue
▁setParse
▁CommandExecutor
▁rawClass
▁changeLog
ConnectionEntry
TypeFor
▁ShouldFire
▁SPAWN
CHUNKLOAD
▁myEntry
▁formatTest
▁stateDesc
▁pId
▁Compile
getVisible
▁clanMember
▁cleanName
▁myConceptFqName
▁initCombos
High
▁TRANSPILATION
▁testRunner
▁FINISHED
ButNot
ChangeLogEntry
▁defaultPort
▁isUpdate
Alphas
Than
Positive
▁142
▁cleaner
Hack
▁showConfirm
BigDecimalList
▁FlywayException
mission
▁JarUpload
▁coderOptions
▁TOPWORDS
DOMAIN
▁recordStats
▁getTestType
▁Retry
▁bundleEvent
▁getNotInTrash
BaseModelsCount
▁LoggerLevel
▁HIVEMA
▁ispResponse
▁isPhantom
▁10.0
▁getFuture
▁RegexUtil
Subprotocol
▁unigram
Backoff
Intag
▁isHtml
▁updateUrl
▁SimpleText
LINUX
IDEABI
▁Companion
NoCreate
Wanted
▁damage
▁stepSize
▁EDITOR
ActionContext
▁Focus
Sparse
▁Snapshot
NameString
ClientProxy
Pel
▁bufferType
▁Rel
▁MAXP
▁setTitleAt
▁samplers
ResourceIndex
▁dumpClass
ChineseSeg
JavadocTag
▁FlinkException
▁RESIZE
▁DebugScope
▁anElement
▁docsPer
NodeReference
▁Minecraft
▁hamcrest
▁878
▁portalLocal
Inet
udio
▁selectedObjects
Alive
▁baseRegister
urface
▁JedisCluster
▁matchPattern
▁relativePath
▁COLOR
▁Unavailable
▁testName
▁DummySort
▁completely
ToH
PasswordChange
FractDigits
▁PLATFORM
WRONG
▁nextInsn
▁getOpcode
▁authors
▁contentSize
BootTest
▁WebEnvironment
▁RANDOM
▁pb
▁pageContext
▁lsh
ToPipelineMap
▁pipelineConfigs
▁gav
Namer
▁spreadsheet
init
▁isName
▁GE
▁so
▁createFromClass
▁CSVFilter
▁choice
NavButton
▁DisplayableItem
SOCKET
▁maxIndex
encingPolicy
qu
NodeDescriptor
PhoneNumber
▁Searcher
▁addOperation
▁testFlux
CreateOn
MultipleThreads
▁getHint
▁invDataflow
Following
Wallet
▁Wallet
▁sizeSlider
▁IgniteCache
▁AopConfigration
▁toggle
▁condenser
▁TENANT
▁getZoom
Braces
UserGroupRoles
Am
ContentProvider
ProfileSchema
▁liquibase
RouteDirection
▁gpxStr
▁mergeFactor
▁minMerge
▁maxMergeDocs
▁tracking
▁testBug
▁patern
ns
▁addBean
▁CompilerType
▁StringSet
▁sourceStepModel
▁TypeLiteral
▁txn
▁apiDocUrl
obj
▁topHits
▁Lucene
▁sqlStat
ressive
▁Netty
▁INTERCEPTOR
MI
AndPositions
▁WireInternal
OrAdvance
▁getExceptions
▁registrationID
▁docData
▁cliqueTree
NodesFor
TemplateNode
▁Left
▁constrArgs
Beginning
ByC
▁setInit
ModelException
▁elems
▁SetWindowPos
ZORDER
▁enableAudit
▁typesModel
▁unkWord
▁argIndex
Calendar
▁lastRes
CELL
ACTIONS
▁organizationKey
▁containsEntry
▁Available
▁genericNE
▁signaturefield
▁getRemaining
getModule
▁CheckingUtil
▁TaskProperty
▁taskProperties
▁ValueKind
▁tmpName
▁onListener
Specs
ActivityDetail
▁Datamodel
▁makeTimeValue
▁2018
GREGORIAN
▁emptiedReal
▁characteristic
▁setEnable
▁Patterns
▁jobManager
▁deadline
ContentsHeight
SslContext
▁thisMethod
▁suggestion
▁setModel
Scorer
▁desired
▁decref
▁registerNumber
▁TimePattern
▁toMilliSeconds
▁identifiers
▁createSelect
▁Hierarchy
DDL
▁REDUCE
Doclet
▁checkOptions
▁getFontMetrics
▁potentially
▁Chef
▁getRemoteAddr
▁formatToDateStr
▁userObject
Mailing
▁newC
▁urle
▁cachepath
▁METRIC
TextUtil
▁ScopeEditor
▁defaultOptions
▁uns
ime
▁groupService
▁AutoZoomMap
▁TypeToken
RuntimeCall
SLOW
▁ONLINE
▁RedisKey
OnlineKey
▁DBP
▁toJSONObject
▁getLocalURL
▁Audio
▁2.
WeightGradients
▁dLdw
aller
▁byteCount
▁MethodCounter
Signed
posed
▁lonString
▁48.410061
▁15.63951
▁48.411386
▁15.604899
FieldMeta
▁JSplitPane
▁getEmptyMessage
▁inputKey
Guess
▁supplier
▁Multipart
Payload
▁66
▁74
▁77
▁pdfStructure
NodeInfo
BOOK
OverridingMethod
MetaRegions
▁vgraph
▁AppVersion
▁appVersion
▁funnel
▁BloomFilter
▁getCaller
▁classifiers
Finalize
▁testHas
▁OObjectEntity
CacheFile
▁403
▁getJobEntry
▁nv
▁killBillClient
▁TerrainPatch
▁leaveFor
▁JobMeta
▁getHttpClient
rimitive
unk
▁asDouble
ALOAD
▁tqv
▁resultDistance
EventLoopGroup
▁transformIntent
▁DefaultFlash
onge
perture
Vendor
▁isInheritDocTag
space
rhs
QueryDetector
▁Force
ACTION
▁sqlTypes
▁getExitOut
▁getJoin
▁Icons
▁ProjectSelector
▁addressesConfig
▁knownNull
▁initializeState
cached
ridd
▁NodeNameUtil
▁getContact
▁kbase
▁forager
▁Pick
▁domainName
▁inputText
area
▁workers
▁traverse
▁FIXME
LocalVariable
▁tokenType
▁newCached
▁hasCommand
▁cpp
▁getSticker
▁setProjectId
▁humanReadable
▁jsonContext
▁Ping
▁doGetInvoices
Deployer
▁ABCException
▁boolState
▁invokedMethod
▁registerNum
▁Vertx
▁overrides
light
▁qd
graph
▁QDGraphics
ExtensionList
▁describableType
▁FrontEnd
▁SearchScope
▁FieldDescriptor
▁fieldWithPath
ceding
▁350
▁Knowledge
▁sliding
▁wsdl
▁43.74958
▁7.436566
▁receivers
▁splitTrainTest
▁MULT
▁statusLabel
TempDir
▁getPoint
▁DIARY
▁Initializing
MODULES
▁tri
▁MARKER
Shadow
▁confluent
▁ksql
ariser
▁PROJECTS
▁dat
▁RUNNING
▁permissions
Do
▁qos
ALLE
MissingFields
▁coeff
▁120000
▁getBlockX
▁getBlockZ
▁getBounds
▁LARGEST
▁setDateModified
▁SRCDIR
▁GridData
▁wrapIfNecessary
Zone
▁DataManager
edEntry
▁modelAndView
▁CubeSegment
SENSITIVE
▁edgeIds
DocComments
▁MapService
▁PH
▁loadModel
▁Titan
▁sess
CheckerRoot
▁hasCategory
▁firstValue
CollectionType
▁callId
▁structureId
entions
Valued
▁DefaultHttp
StreamId
▁Tasks
▁pagination
MessageLogged
Basis
▁DBPDriver
▁getPing
idle
▁getChars
ick
Bin
PerHost
▁IocObject
▁iobj
JoinsEnabled
▁110
▁batchId
ArtistAnalyzer
▁infoMap
▁getFee
Executions
▁hasF
SessionManager
ommended
MergedSegment
▁ASSERT
▁omitEmpty
▁suspendProcess
DefinitionByKey
▁Identifier
▁measureForIE
▁LOCK
▁scopeManager
ValueConverter
▁processJavadoc
▁we
OVER
Manually
Collected
MainClass
▁capital
▁Strategy
▁mTts
▁getSender
▁isSame
EDITS
TRANSPOSITIONS
▁canonicalize
builder
▁getReport
▁createRule
OPS
EventPool
OnRefresh
WriteLock
▁GeoParsedPoint
▁CHAIN
▁serverError
DECODE
▁isAncestor
▁toolkit
Mentions
▁unsubscribe
▁addProperties
FilesTo
ADAPTER
▁families
▁ourIDEA
ClientHandler
▁PackageInfo
ParserException
▁suppressed
▁entrynode
▁getSubNodeByNr
▁targetChannel
▁InvalidData
AccessApi
▁rgbwSteps
ServiceTestUtils
▁CodeBlock
Trash
▁exam
▁lombok
ucted
▁PREPARE
▁Subtypes
PATCH
▁DecoderFactory
MQ
▁jdbcUrl
▁URLDecode
leted
RangeChanged
Che
expires
Ignoring
▁getVirtual
▁JmePalette
▁Mixture
led
▁IndexField
▁getAllFields
▁trial
Tri
▁lte
▁Unresolved
▁customModels
▁findByPeriod
▁sis
▁rpcService
Sdk
PrefixResult
▁getProps
▁applicationId
prefix
▁JobProperty
Train
▁CALL
Graphic
LocalData
▁Concrete
InfoParser
Phrase
▁OPTIONS
▁Blog
▁stackDepth
▁reserved
▁getPool
▁ServerInfo
ParamsBy
▁wsRequest
▁superTypes
▁terminate
CollectionTable
hidden
▁JarFile
▁ARROW
▁sortBounds
▁REUSE
▁spherical
subimage
istent
ographic
▁developer
li
▁penalty
▁queryWith
ParametersIn
▁attributeModel
▁sourceProperty
▁tenantContext
▁findOne
col
note
▁numExamples
▁rng
ToLive
IntegerConverter
▁jpeg
▁assertCodesOf
NeverEnding
AtPosition
▁getStartPos
▁factoriesBy
▁checkString
HomePath
▁LeapFrog
▁isServer
UpperLimitValue
ItemCountAware
▁packagePath
▁OPartitioned
▁ends
body
▁ioResourceTo
MeasuresVisitor
▁many
▁MessageContent
ScriptException
▁hasDefault
▁Zone
▁zzInput
▁SERIAL
▁upgradeCheck
SeverityLevel
▁getOrNull
Chunked
▁observable
▁trades
▁getTrades
ENOTCONN
▁mLock
▁vehicleControl
DebugShape
▁blockMaster
▁FileDataByPath
▁Colors
ask
▁privileged
Operands
▁newSeed
▁corre
▁isSkip
▁NioUtils
odifiable
BussinessLog
TermBufferLength
NamespaceTag
Infer
▁Manifest
▁findByBrowser
NamesFor
▁JDBCResultSet
▁readDataSet
▁datasetName
▁indexedValue
▁Candidate
PC
▁getCreateTime
▁getSpeed
Assignee
ingItem
▁56
▁LIGHT
Flat
▁MODELVIEW
▁PsiReference
ild
ToXML
▁trg
▁contextSize
▁directBuffer
▁metadataOffset
▁openBook
NODELAY
sheet
▁ALT
▁unableTo
▁scaledWidth
ster
▁testAS
DirectEdit
ingOneRecursive
▁indexSettings
UIJob
▁expiration
▁BytesUtil
RuleBase
SeqId
▁graphBuilder
▁zipFile
▁pluginName
▁zkSize
▁storm
ClusterState
▁BaseResource
PRESENT
WithTimestamp
▁getStream
▁CYAN
▁buckets
▁114
▁infinite
cont
▁isPrimitiveType
▁PhpNamespace
UrlParser
▁setSearchFacet
▁searchFacet
▁tempDir
▁tType
InfoList
▁urlConnection
▁setRequest
▁issuesIn
XMethod
esArray
▁synpred
▁interpreter
▁nextBoolean
▁procedures
▁jobStatusFuture
▁fsInfo
▁CommonXaPool
▁IMigrationUnit
Fumpqe
XH
▁NOW
▁grow
▁basePath
▁testCharacter
▁topBar
▁samples
▁1002
▁getSerialized
▁SUN
filters
▁FirefoxDriver
HmdDesc
SIGNS
▁fakeRepository
▁rev
LocalMemory
▁Multiline
▁OsmorcFacet
▁addCharacter
▁maxBusySessions
Fps
attributes
ViewPager
WaitFor
▁returnApply
▁isLast
▁urlTo
▁fromXField
▁MessageBuffer
INACTIVITY
▁persister
▁getUriString
▁getNamespaceURI
GATEWAY
ingPush
backReader
▁SourcePosition
lib
salience
TwoWait
▁loadDelombok
Entropy
▁Fan
inScmMaterial
▁jsonDelQ
▁ACCUMULATE
ACCUMULATE
▁fullUserUrl
Adaptor
▁jbossHome
▁UseDefAnalyzer
▁filterForRule
AndTokenRefs
▁boss
HashLength
▁480
▁sortFields
▁accFields
Decorators
▁MapActivity
▁setCharset
▁visitAnd
Met
▁ImageIO
ie
▁checkMissing
▁ZLTextEntry
▁getParagraph
▁getEntries
▁Suspendable
▁loadedRegister
ODE
ultaneous
▁listenerInfo
▁openListener
▁hasOnlyPrivate
▁artist
Jumps
PostingModel
IntegerValue
IZATION
MO
▁slistAST
▁ListenerTester
▁ObjectHub
▁pkTable
▁StrUtil
▁ProjectBuild
▁JobPlan
▁defValue
fc
Android
▁nextSibling
▁SourceLevel
PRI
LEGED
▁messageStirng
low
SchemaAware
▁ObligationSet
Reverse
▁isLowSurrogate
bea
Quoting
▁cfgService
ChannelHandler
▁ToolWindow
▁BOTTOM
▁fullCalleeURI
ableType
▁getBaseDir
▁getLayer
▁assortment
▁FF
▁GB
▁addBottom
▁isExpired
▁handleClose
mmetric
PB
baseLanguage
forall
▁5.0
▁detailEvent
▁ack
FromType
▁subdir
▁TS
select
Routes
▁messageListener
▁getMessageWidth
Widths
▁configFuture
▁getApprox
TableProperties
▁getTestStep
executed
BytesAnd
▁timeBytes
edUrls
▁BugReporter
▁toAddress
▁ParseArg
▁colDesc
▁myChange
▁isCache
▁ypos
▁ScoreDefinition
▁setBottom
▁pagetop
▁tryCatchStmt
AsTree
▁getAllPaths
Contour
▁multiply
StartTime
▁ruleMatch
▁adj
▁worldToCanvas
▁zOffset
▁fireModels
▁Ntlm
EngineException
ACTIVATION
DynamicRule
▁getArg
▁typeParamName
▁DefaultUdc
VersionForUDC
InvocationCount
▁Snake
▁MARK
UNDER
word
Still
▁messager
▁atLeastOnce
SHARED
▁weightsExpected
▁constValue
ReleaseId
▁uv
ln
▁getMetaAccess
▁Routes
▁propertyCombo
WeakReference
▁crawler
▁getFinished
▁crawlQueues
ificant
▁BODY
▁maxDiffMS
ACCEPTABLE
DIFF
▁enums
▁interceptType
querystring
sOf
▁foundCell
predicate
Encodings
IfAllCharacters
▁En
▁totalCount
GrantingTicket
className
MapValue
▁ciMgmt
▁tup
▁parentShell
HandlerClass
▁cognitions
▁getCognitions
▁inventory
▁createBroker
▁kafka
▁getInventory
▁Hystrix
Show
▁MBeanServer
▁autotune
▁tps
▁ActionChain
▁getStoreByName
▁anchored
▁totalRecords
REFRESHING
▁globalSettings
PerSingle
▁globalAuth
Configurers
▁dependencyGraph
▁MethodNot
SUR
gree
ALLOC
▁viewPanel
▁AUDIO
FRACT
▁DumpJob
▁JOURNAL
▁nvdCveInfo
erator
pon
igidBody
▁requestURL
▁getRequestURL
▁PreferencePage
▁parseQuery
▁EntityBuilder
▁getOrd
inal
▁cameraDistance
▁getPres
erve
SHIELD
lection
▁createXField
Queryable
▁zrangeByLex
EmptyStream
▁putOrdered
ous
ExceptionHandler
▁testCreate
▁JNDI
Deletes
OnAll
▁dlFolder
▁ChannelFuture
Checksum
xde
▁den
ormal
▁preHandle
▁Csv
▁HashAlgorithm
▁getReader
tp
ClusterKey
▁lastLeftSug
▁SMethodBuilder
odifiers
Privileges
▁webRoot
▁addCognition
▁cognition
▁codeValue
▁rootDirectory
system
▁BaseService
▁General
▁fileURI
▁reAddRight
▁ORecordLazySet
▁matchTag
▁Bibtex
Sloppy
▁Reactor
▁LOLLIPOP
▁getAsTime
keys
▁grpc
▁GrpcUtil
▁np
white
▁topLevel
▁addService
Keyed
▁mainLabel
▁mBar
DataDir
▁43
▁countNewlines
▁headerFragment
▁lhsFragment
▁checkHeader
▁CODEC
▁HIDDEN
▁JDialog
MODAL
ListenUri
▁wants
RPCS
ummary
▁getFileContents
FileSuffix
▁expecting
▁failureDetector
▁LongAdder
▁visitMethodDef
▁CharArraySet
▁downstream
▁CharBuffer
▁kCF
work
▁isStrictFP
OperatingSystems
▁When
▁NamedEntityTag
▁getSymbolicName
▁Persistent
▁windowSize
▁configURL
▁MULTIPLE
▁doFinal
▁SINGLETON
▁isCreate
▁shortValue
SECS
EditorInHistory
NL
▁srcB
▁setVal
pp
▁recordSize
COMMA
PREPARED
▁0.00000001
▁conceptFQName
▁pathname
TreeMap
▁ctrl
Speed
▁stallMinSpeed
▁colorsRad
▁TestEngine
▁doNext
▁basename
▁FileBasedIndex
▁TRAIT
▁Jsp
▁userList
▁recycle
▁cred
▁3600000
▁birthday
▁CSVReader
▁sassyDesc
▁NamedList
NotSupported
ChildSampler
OfFiltered
Samples
PipelineProps
MANY
STAGES
DRIVER
▁castTo
▁HOST
▁getJarFile
▁joined
▁COOKIE
▁referOr
Classifiers
▁SootField
▁Arguments
▁throwIt
▁trees
verityLevel
▁getStartDate
Ui
▁COLUMNS
BUFFERS
▁Transformer
DUR
ProjectRoot
▁iOutput
▁opensaml
▁xmlsec
▁DefaultSecurity
▁contextName
Density
▁GameObject
ness
▁inputSource
stone
▁maxPostSize
▁numClasses
que
▁stale
unable
▁pg
▁defaultFont
▁putBytes
▁getVariableName
PARTS
▁DIGEST
▁ChangeLog
▁pojo
▁findProduct
▁PROGRESS
▁mapstore
▁MapStoreTest
Acls
▁ZOOKEEPER
▁createClient
ChildNodes
▁AsyncResult
▁retryOnConflict
ationRequestOp
▁Kernel
▁ItemWriter
▁cidx
IndexDivisor
▁Synchronization
▁CompiledValue
▁IoUtil
▁displayNum
▁sharedBroker
ulation
▁stepName
▁JspUtil
Iterators
▁placeholder
PropertyAsBinary
SplitPane
▁TRAVERSE
▁getContents
▁isSingleton
Ops
ClassPK
▁GridColumn
▁groupDN
▁cacheDir
▁fileLock
▁CommandSnippet
▁snippets
▁randomBoolean
▁editorPane
HyperlinkUpdate
▁setTxQuert
▁DefaultModel
Focused
▁focused
▁messageStr
Notify
▁addTitle
▁gridRow
▁IMPLEMENTATION
▁childWatches
DP
▁passed
iance
▁Wagon
FieldBiningsAnd
ention
SPA
▁MR
▁ServerName
SETTINGS
Cols
ReturnTag
▁byteBuf
ARD
Pkgs
▁hasPartialTag
▁buildRequest
▁shuffled
FORBIDDEN
▁CONVERSION
▁outputNode
▁dynRef
ResolveInfo
▁Tile
Keep
▁ITarget
▁Length
LogReader
▁AsyncLock
▁newtEvt
ToSkip
ACTIVITY
▁Awaitility
▁waitAt
▁Broadleaf
▁getWAL
▁addModuleFile
▁objectValue
ByInput
▁linkAction
ThreadPoolSize
Cube
▁intp
▁CAT
Applied
ActionsHelper
Reported
Game
▁regionsToKill
LINKABLE
▁bicycle
▁isSecond
▁readU
▁MongoClient
▁docDisplay
cing
▁SUPPLIER
▁BLDependencies
▁counterSymbol
▁maxResults
▁WordTokenizer
▁hClient
▁myMpsHome
sClient
▁ServiceSummary
▁SummaryEnum
RestoreStatus
▁pluginId
▁sleepTime
▁getMapping
▁Switch
▁nextDouble
▁ParserConfig
▁MemoryPoint
▁FOLDING
▁TOO
repository
▁hard
Soft
Email
ENUM
▁appendToRuleKey
▁setTimestamp
▁uriV
EndNdx
TermsToMatch
▁nonce
▁TBinaryProtocol
▁xmlRequest
▁boundShader
▁getBufferType
▁isNotifiedFor
▁preprocessor
▁prototype
JAXBElement
▁getHex
▁DBCursor
ITEMS
▁actualJava
▁getSwitchboard
▁MEMORY
icle
InList
▁let
▁merges
Waiting
Relevant
JobName
▁maxInactivity
▁testEndpoint
▁patternWithout
▁paramCallback
▁toExternal
▁urlhash
Concepts
▁OpenSource
▁APACHE
▁sus
▁findAnnotation
▁testCollector
▁49.
Satisfy
▁RegistryMonitor
SSLContext
HostConfig
▁leftSide
Requestor
▁userTask
▁Asynchronous
ChannelGroup
▁uni
▁withRequiredArg
▁opening
▁getAsClass
▁typeVarRefs
▁enclosingClass
▁cosStream
▁debtModel
▁getQueryString
▁partitioningKey
▁varargs
▁mount
output
▁fulltext
▁PsiTreeUtil
▁findChildren
urs
▁enter
▁TregexPattern
▁beatInfo
▁ClassDesc
▁finishKey
▁PercentType
ROLLBACK
▁checkCyclic
urrence
▁enhanced
▁gem
▁getRadius
▁bezier
Triple
▁targetGroupId
▁JRadioButton
JobListener
▁getInputs
▁Skip
▁rotation
▁CORPUS
▁NodeFileStatus
uation
▁sourceDirList
ava
▁scaleFactor
▁propertyElement
▁toExpression
ingFactory
▁Savepoint
▁RevCommit
▁initVoice
DataInDifferent
▁tracks
▁fps
▁Skeleton
▁timezone
Clz
Responses
Handled
▁tmpDir
ToOne
Enhancer
▁sceneTarget
▁subtractLocal
▁vect
Replay
Serve
▁homeDir
▁DISK
itecture
▁outType
▁activationTime
▁payloadLength
SP
▁getColumnKey
COMPILATION
RecordId
▁IgnitePredicate
▁elementAt
▁assertFails
▁testSuite
▁getNodeAddress
Three
▁topological
▁jobJSONObject
SemanticUtil
▁formatToTimeStr
▁AsyncList
RANK
SetMap
▁SPLIT
▁SessionContext
leanup
▁endLine
▁SP
DEPENDENCIES
WithArgument
BILITIES
▁TableMapper
ByteConverter
▁getFileFilter
FromFileTypes
▁smallPattern
▁getSummary
▁QueryParser
▁checkParam
▁assetCategory
▁sourceIndex
▁sampleDim
eterminate
▁deepestCell
▁eigen
CachePath
▁sqle
connection
▁booleanCast
REFLECTION
▁expResult
▁removal
▁isIE
▁phaseName
▁binOp
▁widgetSelected
▁SelectionEvent
▁EXPRESSION
▁hasSnapshot
▁heading
▁queryProcessor
▁ViewModel
▁BiFunction
▁ifogAs
JobNameWith
EndpointId
Installation
SEQ
Pagination
▁Car
rier
▁AnnotationKey
▁pageIndex
▁logMetaData
SampleResult
▁getMessageId
▁addFixed
NameException
▁RemoteService
▁LoginService
▁addGroup
Incorrect
▁currentBlockId
▁setVoidCallable
▁invokerPackage
▁editDialog
▁newLocale
▁Loop
▁DOWN
AtStartup
TOLERANCE
ilation
▁getMongo
▁previousLine
▁relatedURI
NavigationTab
Tmp
edField
▁doNotify
▁locationOf
KaBoom
▁FormBuilder
▁toSet
▁getGame
▁fileList
▁deepest
SelectedCell
▁caret
▁Deserial
MEM
Relative
▁ColumnIndexInfo
▁fireEvent
▁unmarshaller
▁Unmarshallers
▁getStringList
▁AssetKey
▁THEN
▁WsScanner
▁BOLD
TABS
▁homePath
▁TextContainer
▁movement
▁collider
WorldTransform
▁Quat
▁getVertex
▁Liquibase
▁JC
▁navigation
Immediate
▁Queued
▁DartAnalysis
ServerService
▁IntType
BufferKB
▁writeMessage
▁ECDSAVariations
▁readPubKey
FromBuffer
▁contextOwner
TestData
InternalInset
▁chatPanel
KeysFromPhrases
▁EYE
fcL
▁setParams
ProxyField
tag
▁VERBOSE
▁textSize
Street
▁DISCOVERY
▁INSTRUCTION
▁pong
▁ADDRESSES
▁osgi
▁SLAYER
▁GREEN
▁fade
▁scoreLevel
ifactor
SC
▁79
▁TableReference
▁getPaths
▁getCopy
RELATIVE
▁hashSalt
▁pdePreprocessor
RegionDir
▁DLOAD
Cfg
▁depre
▁eventBus
Trades
WALL
▁CAST
▁CONST
▁WORKER
▁ProjectStatus
Statuses
▁setCommand
▁arrayExpression
▁createInternal
KieModule
▁rootPath
Resume
▁JobEntryCopy
DYNAMIC
▁methodType
▁inference
Allow
FullTypeNoArrays
▁getTargetNode
▁privileges
▁anc
▁iCurrentRecord
▁CommonProfile
Detection
KeyE
Neighbors
▁PREDEFINED
▁TypeDesc
▁DBPDataKind
▁DATETIME
▁isProper
DebugMode
▁freeze
▁INCLUDE
▁NotItem
▁FOO
▁food
▁COOKED
▁reAddLeft
▁KeyType
▁ESC
▁factoryWithNo
▁ForgeChunk
▁forgeTicket
▁toChunk
DEPTH
▁getXML
Copyright
▁MessageHeaders
▁thisLineColumn
▁AbstractAction
▁SystemName
WithMessage
ALPHA
▁datasource
ategorical
features
▁scoreComparator
▁Theme
▁setNoTargetText
Factors
TextView
▁HttpHost
▁addPet
▁getPoolName
▁setAllowEmpty
stepid
▁letter
▁testResult
FUNC
UpgradedFamily
MetaRegistry
▁processImport
▁cacheKey
▁testList
ingEnabled
ApiModel
▁paramAsBoolean
▁getVirtualFile
▁needRefresh
▁HI
▁regionname
▁getHome
▁ResolveUtil
NI
STEP
▁OrderItem
▁replicate
▁HddsProtos
▁GetScmInfo
▁loading
▁getGenerate
▁103
ses
▁lastNode
package
▁Explain
▁_8_
▁MockRuleFlow
▁const
▁runLater
▁loadNative
KeySpec
▁gson
▁postForm
▁getDownloadUrl
COPY
▁domicile
▁VFS
▁Services
▁deploymentUnit
▁fkTable
▁updateRule
DOUBLE
RegistryOf
▁ringBuffer
Download
▁userID
Visitors
▁expert
▁annotationName
▁anyInt
▁anyLong
▁hasKey
offsets
▁EXCHANGE
RequestName
▁cBlock
▁getBlockForm
ValueDefinition
Minimal
▁myChild
▁getWorldObj
▁getFileMap
Which
DependsOn
▁High
▁authorizeURL
Webapp
Duplication
▁rt
Tiers
▁tier
▁PDPage
▁paging
▁Explorer
▁setAllowMissing
▁getDel
▁presentation
ZK
▁1800000
▁forIterator
▁wh
NotAnyone
▁HRegionInfo
▁getInclude
FileVersion
▁ConceptRegistry
▁decodeBase
job
▁RedisConnection
▁ice
TypeError
▁JMenu
▁nameCurrentTest
▁Codegen
UMP
Contained
▁PImage
▁trxMsg
Cc
▁sourceDbInfo
▁targetDbInfo
▁ProjectTreeNode
Attacker
▁randomName
decay
▁getDegree
▁DERBY
▁FIREBIRD
▁ObjectField
▁doReturn
▁mockRequest
▁userinfo
▁createParser
▁setL
▁PatternRule
▁feat
▁posConLen
ManagerImpl
▁showErrorDialog
Specular
▁infof
IndexInterval
▁fuzzyKeys
QueueX
▁preItemsSize
▁selectedList
MaximumRoom
▁keyValuePair
VEL
▁cannot
PDF
▁onConnect
ButtonEnabled
BODY
▁enumConstant
MergeRequest
▁classType
▁runBuildURL
OOP
CheckedFuture
lay
HostnameVerifier
▁Criteria
▁PageBox
▁getRoots
▁GenericTestBean
haust
▁getMapped
▁mc
▁DRIVER
▁dlFileShortcut
▁escaped
▁abcList
▁pks
PropertyAsDate
▁StageIdentifier
▁stageIdentifier
ScmMaterial
Sz
▁FP
▁ramBufferSizeMB
▁gloss
Manip
▁SAFARI
US
Translog
Invoice
▁invoices
▁getCOS
▁visitedNodes
MissingJavadoc
actBlock
▁checkExists
▁myMapping
▁bj
Year
HS
Indexing
▁scalar
▁slaves
BLOCKS
▁CallbackInfo
▁meth
▁stmts
▁analyzed
▁SocketChannel
▁getCond
UM
TypeStr
▁configurator
▁getFQN
TypeInfo
▁addChildShape
▁actioncmdstr
▁editedNode
Parsed
Managment
▁scmWriter
Fatal
▁dotExpression
▁CHANGE
▁Combo
▁createLabel
▁expectedScore
▁bktree
▁BKTree
MINOR
ActionTests
▁currentDepth
ModelOrderBy
BEGIN
▁documents
MESOS
▁eviction
GEN
▁mB
luetooth
▁HasHTML
▁addCmdHelp
▁featureMap
▁Karate
FeatureRunner
▁kr
ble
▁GroupStatement
▁myEditor
▁initQueries
▁INamedConcept
▁CommonParams
▁infer
pu
▁fromName
▁checkCB
▁onCheckError
▁IProperty
▁callTarget
▁habit
▁OCommandSQL
SendPacket
losing
▁getClose
▁repdir
▁inputChannel
▁downloadFile
ber
▁msgBuffer
setName
PADDING
▁dataOffset
ImportIdent
▁JavaRDD
Continuous
COMPARISON
▁TreeTransformer
Cookies
▁Roll
lider
▁SModelFqName
UriRequest
▁LAZY
▁resolveDefault
▁epp
annot
▁Headless
▁urlSet
TRANSIENT
▁getNextState
▁newDM
▁createExecution
Anti
ISO
▁duplicated
▁columnIndexes
▁ifogZs
▁Recipe
OpSet
▁Contr
▁highLow
▁PRI
▁Vaadin
▁KPCA
▁datasetIndex
▁deltaY
▁getRowHeight
▁withRemove
PropertyNames
▁computeIfAbsent
▁siteUrl
IZ
PRESS
▁NetworkUtils
▁others
▁debugging
▁captured
dValue
▁UNSAFE
▁READY
Ad
▁FQCN
▁copyDescriptors
vhContainer
Deployments
▁ortho
TRAIT
PASS
▁createGraphWith
Painter
▁addressService
▁INITIAL
▁sourceIterator
▁ServletContext
▁pushParams
▁music
Populator
▁1200
right
COS
▁viewport
▁getRows
▁ProcessSet
Evict
SB
uteResult
▁threadId
AssertRetract
▁maxThreadCount
▁hex
▁blackOrWhite
OpenException
▁languageStr
ResourceLocation
Panels
apter
GENER
DESTINATION
▁lastRow
▁getQualifier
▁Jenkins
▁myCell
▁mySNode
▁battery
▁mavenBundle
▁MPushUtil
etAddress
EXISTING
SPADE
▁isNullOrEmpty
Voice
▁HashUtil
EntryService
▁getPrincipal
▁baseline
▁networkConfig
▁getKeyProperty
GeneratedKeys
▁mapMembers
▁headerText
▁Hessian
StringShortType
▁stringShort
▁VALID
▁stepExecution
▁rootRegionInfo
▁bmp
▁svc
FunctionTypes
▁smile
EventFactory
TotalCount
▁ConfigErrors
▁allErrors
PrivateMessage
aintenance
RECEIVER
Throwing
Subprocess
FX
▁modif
▁RowMutation
▁social
▁SparseMatrix
regex
OutputPath
▁createCommand
▁MultiDataSet
▁mds
▁gaussian
riteria
EndOf
▁sortValues
ConnectionConfig
Election
▁130
▁maxActive
▁RELATIVE
▁allMethod
putStream
▁newTreeSet
▁lockFile
▁Distance
Building
▁injection
jobName
▁setFixed
▁newHeight
▁MessageKind
Tr
▁FixedWidth
▁myScript
▁catchStmt
SYMBOL
▁getProcessor
NonPrintable
ModelImpl
LT
▁FORMATTER
here
AndD
▁lEntry
▁appliesTo
ToE
▁NOMINAL
ingText
▁typeDataflow
▁aliases
FlushOnCommit
▁bldr
▁DefaultType
▁isExempt
DotPrevious
▁contacts
▁sstableFiles
Commits
▁mFileSystem
▁shardRouting
▁oid
Distributed
PREVIEW
IAN
peer
Messenger
▁myDebugProcess
▁ReferenceQueue
▁curClass
▁styleable
setting
OIDCProvider
▁snapshotIds
bo
▁filterBy
▁forServer
▁autoDiscover
ingMappingData
▁DBeaverUI
▁isItem
▁itemStack
▁AbstractMap
Deserialization
▁processId
Deadlocked
fsp
▁outDir
▁fileURL
aling
Mutable
EntityName
IdString
▁projectIndex
▁getAlerts
▁WidgetID
▁POSTG
▁StringWriter
▁widthSum
HeaderReceived
UserName
▁Remot
TaskManager
▁HT
itionedSource
▁VENENATIS
▁getProxy
Initialize
▁itemCache
RenderingIntent
▁contributed
EqualsTest
NamesForThree
▁optInt
▁je
Contrast
OnParent
▁FileEntry
▁PlaceObject
▁workingMemories
▁getColBytes
Detectors
tt
Preload
▁getDoubleValue
Fn
▁scmMaterial
Party
ouse
▁moduleSequence
▁addAtmosphere
Diacrit
Typing
▁perRequest
▁getAff
Li
▁MASKED
NEGATIVE
AfterTestRun
▁handleAction
▁getMethodSig
ReadContext
▁isCorrect
▁EXISTS
▁softScore
▁channelIds
▁tasksTo
▁CEAFM
▁errorString
▁CoreMessage
ColNo
▁newLinked
SrcDirButton
▁baseCache
MultimapCache
▁roman
▁getHostName
LiteralNew
FA
SigningKey
▁ECPrivateKey
Mappers
Logged
▁xsl
▁toSplit
▁setExplicit
▁getDistrib
▁annotationNode
▁blockBuilder
BuilderStatus
▁absentValue
PERCENTAGE
▁isString
▁actingVersion
▁continuation
▁runs
OpenAPI
▁setLocation
etch
▁libList
▁myAssert
▁dataKind
▁httpPort
allow
Expand
VariableName
RetryAttempts
▁checkValid
▁cycles
▁ConfigPath
▁dic
▁withdrawFunds
▁deleteModel
▁modelId
LogTable
▁originalString
ANCESTOR
FOCUSED
SUPER
▁getStructure
DataModel
▁KEEP
▁makeProfile
▁assertJQ
▁tClassName
DBObject
▁NOOP
storePath
▁responseData
DISPOSITION
▁111
▁editorModel
▁echo
ToolAssetAddon
ALLOCATOR
ListMap
▁ScopeFormat
▁born
EventListeners
JavaSource
▁addCallback
▁RunnerException
HttpResponse
▁countersManager
▁prob
▁maxUnac
▁Converter
▁getPrimitive
▁setLogger
▁sbCommandLine
▁CharUtils
▁getPixel
▁codeCacheDir
▁Nearby
▁TER
Literals
▁cellY
▁columnsMap
ExtensionManager
ListElement
CKED
Inspector
▁dstConfig
Membership
▁OpenType
▁pieces
▁WantedState
▁putExtra
▁OLockException
▁iResourceId
Producers
▁TracerPackage
▁Is
▁getRules
RuleSet
▁hasPartial
▁loadProperty
▁reductionRule
xrn
▁MetaService
▁isUser
▁CallPeer
▁getCallPeers
AllJobs
command
▁tabstop
ParserMapper
Vocabulary
▁tk
▁Pool
Extraction
▁MeterId
ensable
Archive
▁upperBounds
▁seenStaticGet
▁pokemons
▁libDir
▁llcCount
▁commaDelimited
▁synonym
KEYWORD
▁disableEdit
▁setAccept
▁stops
Bendpoint
▁INVOKERHEL
SiblingChild
▁MONGDB
▁AsciiString
▁Regex
▁SetVariableMeta
▁fieldDefault
route
▁queryValid
WriteIds
ENDIF
▁JOB
LOADED
Specify
▁authorizations
UsageInfo
▁RAFile
KeysForFile
LocationSetMap
▁152
▁stdout
Hub
▁CKMSQuantiles
switch
po
BCI
Gate
▁XMLOutput
tingSettings
▁getClosest
▁BPM
UTE
▁PostDom
FilterCondition
▁colorsFocRad
▁mFocusPosition
▁FindUtils
▁colorMap
▁nameIndex
▁getPageSetting
MENTS
Locality
▁MessageChannel
ParamTags
▁getNewNode
▁isCharacters
CountValid
RestTemplate
▁SSLException
CommandOrder
▁bitLength
Skill
constructError
▁getAllParents
tripe
▁pairsMap
INTEGER
▁Quad
▁lint
AggFunction
RegionAnd
▁hashSize
PNG
▁PNG
▁DemoProvider
Threading
▁UTCDiff
▁icol
▁ocol
ants
PRINCIPAL
▁asCollection
pretedGenerator
▁totalTime
▁showAll
▁defaultField
▁ValueNode
CodeMap
accessible
ObjectException
ServiceImplMock
▁runLevel
▁isAll
▁profiling
Slist
▁abfs
COVER
custom
▁changeStatus
Attrs
awn
InputMeta
▁findRange
▁startEnd
ProblemCollector
▁STRUCTURE
▁VIDEO
▁getTestModel
▁componentRealm
▁testRegister
InputFormat
▁DESC
▁EasyMock
▁minPts
▁DataEndSignal
▁Sha
▁lease
ASTORE
▁AMQ
▁MenuBar
NamePattern
▁patternList
ServerSocket
▁SSTable
▁COLLECT
elite
▁depose
▁MockEndpoint
▁RPAREN
DesktopPanel
getIncludes
▁getAtmosphere
▁charStream
▁integrity
MAPPER
▁mockServlet
ModuleName
▁valueMap
▁sourceCode
Export
▁Ce
▁isSymlink
▁setRange
▁taskReport
Automaton
▁inCodeBlock
▁materialConfigs
ARITY
tip
▁TextFileType
▁EditorLanguage
▁ICONS
▁lockDurationStr
▁mbeanServer
▁findBugs
▁animate
roid
▁Updater
▁importantNodes
ire
▁pipelineModels
▁ProviderNot
Eviction
▁nodesStats
▁getEvictions
▁toRead
▁readCount
etter
▁xmlDocPath
▁extensionPoint
▁getTextTrim
▁queued
▁Rendering
▁appendKey
▁ClassRunner
PAYMENT
▁pushValue
Cancel
▁srcData
UTION
▁EDGE
LOCALHOST
▁mediaDescs
iling
▁foot
duration
InOrder
▁throughput
DETAILS
▁currentId
▁getCoreKey
▁UURI
▁360
▁currWeight
ToGoal
Processes
▁TestGateway
▁getServerPort
▁getPeer
▁backwards
▁findNext
▁explosion
▁JavaLibrary
▁DANCE
ROBE
DARK
aged
▁chromeHeight
▁columnkey
▁actionItem
▁isCommentType
▁without
▁OSchema
▁Volume
▁getDayOfWeek
trace
▁onView
▁withText
▁BriefLogger
▁mMode
▁slowPath
ConvertFSlowPath
▁SearchContainer
▁maxQueue
▁English
▁tmpl
hm
▁lastIdx
▁curTab
▁COS
▁SetResolution
▁SetAssignee
▁UNASSIGN
▁userInfoList
▁dartClass
▁BLangStatement
SurroundingClass
▁MutableDateTime
▁setAb
Blob
TokenCount
COLS
▁MutateOrBuilder
▁parentAST
Pin
▁setSolver
BenchmarkResult
ProtocolFactory
EOL
▁getTagValue
▁isClient
ict
▁testConnection
COMPARISONS
Physical
ZipFile
Bound
▁applyIndex
▁psiElement
▁fieldMap
▁ModalityState
▁torrentFile
▁collation
▁batteryVp
▁NotifyUtil
▁MessageType
▁TO
BUFFERED
▁getDestination
▁WorldType
Quantiles
XObj
▁PDFormXObject
▁suk
▁bk
▁getNodeType
▁langName
▁Connectivity
▁topicModel
▁authenticator
DAO
▁setModify
TrustStore
▁OPCODE
ElementModule
BU
▁httpStatusCode
ControlContext
▁getPaymentId
▁findPreference
Mono
MISSED
▁jsDoc
▁functionType
Truffle
▁LLVMLanguage
▁getTargetMetric
enerate
general
indicator
flags
TED
▁gracePeriod
REP
ENTER
▁newAction
▁icf
Incomplete
▁ioException
▁numHits
AllDocsQuery
▁oldest
▁UIInput
Unauthorized
▁mOverview
▁classId
▁getMultinameId
▁Multiname
▁cmds
▁maxCacheSize
▁getBilling
▁2013
InstanceOf
▁kettle
▁recordBuffer
▁getColumnLength
▁respond
▁wrapMethod
▁Hook
▁objectOrClass
▁go
dL
▁instrumented
Dumper
▁colNum
▁executorList
▁variants
▁ImageView
MON
▁testFraction
▁getEditor
▁cWidth
▁WorkspaceInfo
▁heartBeat
TimerTask
oinbase
Saved
▁uniform
▁fcb
▁checkStatement
▁OracleTable
▁storageLevel
ationTermLength
Hit
▁mysql
▁endParenLoc
▁newTree
MARKER
▁Mssql
REPLICAS
▁Trip
▁switchSt
abL
▁getOuterWays
▁indexfilesdate
oto
▁VIRTUAL
ByClusterIds
▁getTimeInMillis
▁ConfigConstants
▁year
FieldsSet
eo
▁Filters
▁toParms
▁NoDataException
▁875839011502885
▁adjBlock
CON
▁getInvoker
▁jMeter
▁clearCache
▁memorySize
Javac
▁mPlayer
▁htmlTag
▁Synchronized
▁zipkin
▁myTooltip
▁POLL
▁Tri
▁getFace
▁TEMPLATE
▁configPath
▁nums
▁srcPixels
▁SSLInsecure
inity
MapStore
▁FBReader
▁listen
▁Details
▁Enhanced
▁sourceDir
HopperStorage
PENDING
▁containsAll
▁getLicense
▁dlFileVersion
▁Smart
▁setResource
▁unbounded
ThreadPoolDesc
▁useTransactions
MessageReceived
ORTER
▁valColl
▁spana
▁testOnly
rowdef
▁makeGlobal
▁getRef
▁SecurityActions
▁ActionRequest
Alternative
▁JOIN
▁sessionFactory
▁HashCodeBuilder
▁nextIndex
inanceFunction
▁ConstantPoolGen
▁fib
▁ColorMapper
ColorMapper
▁getCommentText
FragmentId
▁currentBuffer
Bounded
▁Javascript
EXACT
TextValue
DefaultTrue
Wav
▁replyTo
▁ProjectUtil
▁collapsed
▁resultEndpoint
ChangeLogLock
▁propertySuffix
▁EditorSettings
▁ZLInteger
RangeOption
Meter
▁qualifiers
▁pse
▁getReason
▁hep
▁lineno
AsInt
WATERMARK
OpenOption
▁readWrite
▁DebugMetric
▁debugPrint
Momentos
MetadataSource
ErrorCount
▁Failure
▁isPool
▁anyBoolean
▁blockId
WithPriority
▁trailer
achPoint
▁iClusterName
PartsSize
▁typedArray
▁getGlyphAdvance
RefreshToken
▁getAsDouble
▁callTimeoutMs
▁objectsize
▁mfp
▁BaseNoGui
▁MongoCommand
▁ORIENTATION
▁ramCache
▁safeDirName
Framebuffer
▁SCREEN
▁Kraken
lot
▁SLOT
ducingState
▁arbitrator
BUILTIN
▁cpuLoad
Heading
▁Scan
▁onBindView
▁refer
▁SecretKey
DefaultImports
▁setAnim
▁fromClassPath
▁withMapping
▁ATT
▁toReturn
Ordinals
▁IndicesExists
▁shut
▁saveState
call
▁StatementList
▁tpm
▁setEnableJmx
▁scoresPerLabel
▁MUST
LET
▁findById
Construction
▁172
▁Failover
▁jobID
READY
▁transportError
▁datastax
▁oss
OnShutdown
▁getBatchId
ni
CellIndex
▁myModelName
▁105
▁productOption
▁Advanced
ClosureAdapter
▁inputResult
▁numComponents
etOrder
▁ass
▁saState
▁specific
▁testPost
CreateTask
▁isFunction
▁splitToList
▁baseName
▁fileDescriptor
WISE
LoginHint
sign
▁TableColumn
▁resourcePath
ToJson
▁myMask
▁columnMap
FD
Initializing
▁0.7
▁getFileEntryId
▁TrainingTask
▁checkout
▁friends
▁queryParameter
MeasureRef
▁ledgerIs
▁Idea
▁Safe
▁development
▁enhancedCoder
Audit
IBLE
▁JSDebug
▁Sampling
▁pinGlobTx
SZ
UnknownTags
▁dataTypeCache
dark
Snippets
deployer
▁docBaseDir
FocusPolicy
▁getAsyncHandler
FIN
▁complex
FutureTask
▁WsdlTestRequest
▁nextStep
▁symbolStr
▁validateOptions
▁SizeUnit
▁parseMedia
▁FormData
▁readMethod
▁returnedType
MultipleTimes
ResultView
▁resultCode
const
Tablespaces
enew
▁reloadFromDisk
Sleep
InWindow
ServiceImpl
▁CompositeFuture
▁Regexp
▁formatCode
▁BLAS
▁getClientIps
▁getPrecision
Pie
▁sNode
NodeMap
dBorder
IsA
▁daf
▁configList
CONTAIN
▁curContext
PerJVM
▁Flume
BaseClosure
▁fbClient
▁throwEx
▁catGet
▁1010
▁getExternalView
▁ConfigAttribute
▁stateful
▁strValue
branchfree
▁recomp
▁resultArc
▁lowerleft
Card
ParamName
▁selectBeginTime
▁Organization
▁nonnull
StaticFields
▁assertCorrect
▁isRight
▁myListeners
▁cookieId
▁nameSeq
▁YEAR
▁temporaryFolder
▁setFilter
▁loadLevel
Budget
LiveData
▁PdePreferences
Dex
▁endColor
▁lastReleased
RELEASED
▁environments
▁mController
cp
Sidebar
▁outputTo
HIT
▁eldest
▁TokenStream
Kryo
▁Box
▁ViewOptions
▁MetaClass
▁LayoutAlgorithm
▁errorInfo
▁GroupingBy
Sun
POW
Gauge
AnnotationsList
AsResource
▁BRACKET
▁IScope
GeneratorTest
Starter
▁OGlobal
▁sz
Me
Hot
▁hql
apoint
▁successLabel
▁heights
Reactive
▁BadUser
▁NamedKey
▁remainder
▁rightTuple
Parms
▁Fields
▁largest
FunctionSpec
▁getColumnIndex
▁responseIs
RequestIsAsync
▁Wh
▁est
▁memberName
▁getAccountID
▁dequeueInlined
CallSites
▁inlining
ilable
▁setAvailable
ull
ibernate
Online
Training
▁mplsh
FileTypes
OnLineAfter
▁ObjectProperty
EndIndex
▁getFolders
▁450
ClassRunner
▁expectMessages
▁LabelTextVar
▁setMulti
▁extraStatements
▁useTailCache
CacheUsageAuto
▁getMissing
iline
▁fontStyle
cat
▁excludedRegions
GeneratedFiles
UploadedFiles
▁92
▁isRunning
▁CBCHmacBox
▁Kuznechik
▁rightLabel
▁50.1100
▁10.7530
▁49.6500
▁10.3410
▁rootNodes
▁Whitebox
dfs
▁myChildren
▁fromResult
▁CodecFactory
▁DER
▁incompleteBeta
▁onResult
filtered
angle
▁JOINER
▁BrokerConstants
▁GOBBLIN
ScopeType
▁LIMITER
▁MATCHES
DownButton
▁940
▁XDB
▁cnd
IfNot
▁getLatch
▁containsPattern
▁CubeDescManager
▁getCubeDesc
▁getExecutionId
▁myBackup
▁proxyAuth
▁jndiName
JndiName
Deleg
the
▁Authorizer
▁contentEquals
▁resourceList
▁myScope
INFOPORT
Backgrouds
▁parseJavadocAs
▁getCenter
RESTART
▁alibaba
▁ArrayAccess
▁addAlgorithm
▁dhSinglePass
cofactorDH
kdf
scheme
▁PropertyKey
RateLimiter
UriScheme
▁SUFFIX
Adapt
▁Code
▁keystore
eng
ResourceOfFile
▁clz
▁getPause
▁formDataBean
RowFlushBoundary
▁lastChild
VO
▁isMaterial
▁matchesAllOf
▁isN
▁TxPushStrategy
▁postTweet
StorageDirectory
▁Units
▁DefaultLauncher
▁getSpan
COMPLETED
▁segmentsEntry
FileReference
▁ArmorProperties
▁bi
▁ha
▁coyoteRequest
▁images
▁presence
▁setFrom
▁Bib
Miss
▁ALI
OfThisJobAll
TimeStr
▁innerFields
EntryHolder
▁defaultEntry
▁FormField
▁Creole
▁getTokens
EC
PARAMS
▁TimeSeries
Operators
ingLanguage
CAPE
▁declNode
▁referrerHash
anose
▁getWikiPageNode
▁zxid
▁doNotUse
SearchResults
BeNull
▁isException
▁maxTextureUnits
▁tii
DTO
▁reverseBytes
▁999
ShortConverter
bounds
▁rootPOM
▁threadNumber
▁unconditionally
NullArgSet
▁getAuthorities
▁DOWNLOAD
RuntimeError
▁EXPECTED
▁timerClass
Opcode
▁jScrollPane
▁LOGGED
Locals
Grabber
▁EnvironmentName
tl
FB
▁Restart
CallTargetSet
▁VoltDB
▁crash
▁isReport
EdgeType
▁iTypeName
▁fieldClassifier
▁keyMaps
▁setCORS
▁ofPattern
▁Skylark
InvokeStmt
▁asIntReg
▁realConnection
▁clusterService
▁isStart
▁processAdd
RL
▁MPSTreeNode
Par
TestLogging
InternalNs
Classification
▁mojoDescriptor
raken
▁termId
delivery
▁replyMsg
▁inMemoryFormat
Barriers
▁ClassRealm
▁getPathInfo
▁States
Integration
▁sections
NIGHT
tectionDomain
InstanceField
Included
II
▁SEED
▁edgeType
StartOffset
▁suggestedName
▁GUI
icast
Yaml
people
▁unset
▁inform
▁meter
MapEntry
▁expressionType
BaseDir
▁fragments
▁activeCount
DDM
▁getController
▁Logout
▁commentText
ResourceManager
Menus
▁requestMap
ait
ickyBit
can
AttributeBase
▁reportInput
InputSplit
TESTING
PLATESKIRT
▁jdesktop
▁writeOutput
SolutionEnabled
▁getTaskName
▁chr
Caching
Closeable
agerLoadingOf
GenJarsProvider
Quick
▁getArgs
▁AuthScope
▁PlayerSession
▁playerSession
▁SootClass
rivalTime
▁ScoreDirector
▁TagParser
▁okButton
KeyReader
HeapMemory
conditional
ValueDeref
▁testRandom
▁Special
▁mixedVarargs
▁poolConfig
fo
▁edgeBase
▁sendStream
▁formData
▁queryParams
selection
▁rootPassword
▁Pro
Requirement
▁wbSize
▁merisRule
▁ValueType
▁AssetManager
▁ConfigManager
▁600000
▁SOCKET
uckingServlet
verbose
Primitives
Draft
▁CacheConfig
▁Equals
▁guiScreen
Pct
▁selectorMap
Preserve
▁Mixed
▁wagon
▁getArtifact
Have
names
▁De
▁Curator
▁completePath
▁homePage
▁tRegister
▁valueRange
▁Exceptional
▁importMapping
▁thumb
▁ARGS
▁allInstances
▁DEC
▁wav
▁MV
clause
▁pub
EnhancedForColon
ResolveResult
Stroke
▁IdleState
▁makeGraph
▁mappedFile
PaginatedStorage
▁isDefaultOff
▁CFMetaData
▁TestMode
▁OracleUtils
.87
▁unmaskedpayload
▁getTokenId
▁inbound
▁INTERVAL
NotCached
Imb
alance
Workaround
▁Visit
OrCreate
▁LOWEST
allString
▁newMap
▁getCheckpoint
▁fName
ryptPassword
▁forced
▁AStarEdge
▁Edit
▁JWSAlgorithm
▁jwsAlgorithm
▁Cal
▁InfoData
▁Pop
▁newQuery
▁printWeights
Postfix
StringWithPort
Feedback
▁DAYS
TimeoutSeconds
▁debugSequence
El
EndOfStream
TreeIndent
▁AIR
▁Lambda
▁Hint
ry
▁PowerManager
WAKE
Morph
grid
▁priam
▁stringMap
▁forms
▁drawer
LookupCache
doorToggles
Immutable
ph
andonedConfig
▁warnf
▁processCount
▁ProcessCount
luent
▁addLine
her
▁getConsumer
▁getBackupPrefix
FieldUpdater
▁toSeconds
Exclusions
pairs
▁getPanel
▁econtainer
TOOL
sumptant
Possibilities
▁hasAnnotation
▁mmsp
SuperClass
ALREADY
▁ksName
▁ve
▁RTC
CONDITION
▁155
▁deploymentId
▁getAsMap
REDIRECTS
▁synchronizedMap
GenerationType
▁npc
Measurement
NING
▁slow
StopWords
▁blockForm
▁hasNodeBefore
▁BytecodeHelper
InternalName
▁requestHeaders
▁futures
▁startZoomFP
▁newPosition
▁getVM
▁getWeb
▁getComment
cur
▁arc
Scalar
▁Keyword
ResourceSet
▁Handlebars
▁stackKind
▁StateLog
DebuggerEngine
▁battle
Rendering
NodeServer
RELEASE
▁jcb
signed
▁Render
▁deployXML
MetaCollection
Reach
Multifactor
ListInput
raft
ErrorListener
Timewarp
ProjectionDesc
Wh
▁getLayoutId
▁jimple
event
▁Agenda
▁747
▁shouldHaveOnly
DataSources
TermFreq
ITY
▁onPingRead
▁recoveryStatus
atronProcessor
▁approx
▁endSymbols
▁pjp
oking
ColorSpaceStack
RestSetting
▁appBase
▁makePlace
▁recid
Homepage
▁nodeClass
iry
▁EnumValidator
IDENT
Req
Constituent
ResourceImpl
▁indexAnalyzer
▁IndexExpression
Ta
▁getIndexCount
▁objType
▁SQLScript
▁cxf
▁DAT
▁subscri
bedChannels
▁venues
▁ttsVoiceUsed
RequestContext
▁RingBuffer
[...]
